#version: 0.2 - Trained by `huggingface/tokenizers`
_ N
_ V
_ P
_N P
_V P
_ A
_ S
C T
N CT
U NCT
_P UNCT
_A d
_P r
n g
_Ad v
_P P
_Ad j
_Pr e
_ R
O O
O S
_R OO
_ROO T
n p
_N np
n h
_Pr o
_N u
_A P
_Nu m
c h
A R
B AR
_S BAR
B OS
E OS
t h
_N c
_S C
_ D
e t
_D et
_ C
_C C
t r
n _
u x
_A ux
k h
ng _
ô ng
ư ờ
p h
l à
i _
v à
ê n
g i
i ệ
i ế
q u
nh _
t _
_Pr t
. .
c á
m _
c ó
u y
ư ợ
ớ i
m ộ
c ủ
ườ i
củ a
ô i
c _
u _
mộ t
ng ười
ạ i
i ề
à y
ượ c
kh ông
đ ược
T h
a y
ữ ng
o ng
a nh
_N y
ì nh
đ ã
ấ t
a _
ư ớ
ch o
a i
ng h
nh ư
nh ững
ấ y
ế n
a ng
ô ng_
â y
.. .
t ôi
a o
ả i
c o
ư ơ
K T
tr ong
B KT
u ố
v ới
ầ n
ườ ng
â n
đ ến
ù ng
v ề
đ i
a n
nh à
ướ c
ũ ng
cá c
h ọ
iề u
l ại
ă m
r a
c ũng
_ th
_Nnp y
h à
và o
_ X
a u
t ừ
n ày
đ ó
c ả
co n
iế t
C h
T r
đ ộ
o à
th ì
đ ể
b à
ò n
0 0
ồ ng
_ t
i ê
n ó
N h
s ố
ư a
đ ầ
ch ỉ
ồ i
á c
ph ải
là m
uy ệ
i ên
à o
ươ ng
ậ n
i ể
iệ n
e o
n ăm
N g
_N b
m à
á n
ơ n
uyệ n
như ng
ng ày
kh i
â n_
ờ i
ấ t_
tr ên
p _
c ông_
u ộ
ổ i
nh iều
ch ú
ế t
m ình
b ị
b iết
t iế
đ ị
c òn
h ai
ằ ng
x e
ch iế
_S Q
ậ t
á ch
ă n
_ l
i nh
L BKT
R BKT
K h
ò ng
ẫ n
_ d
nó i
ứ c
_ Q
â u
ú c
l ên
m á
v iệ
ậ p
_Q P
đ á
b ả
iề n
_ h
qu a
n ước
ạ n
P h
ì nh_
ch í
họ c
ắ t
t u
ơ i
ừ ng
à nh
việ c
ch ị
s ẽ
ng_ tôi
đ ang
a nh_
á o
đ ây
ữ a
á i
i n
hà ng
m ới
á ng
r ất
th eo
ặ t
kh o
r ồi
ỗ i
i nh_
_ đ
ộ i
v ì
ph á
a m
s au
_ tr
ụ c
đ ề
đ ường
ă n_
h ơn
đầ u
_ m
b ộ
đ ất
ch uyện
c ứ
h o
v ẫn
th ấy
e m
V N
_ s
l ớ
qu y
cá i
iê n_
a_ đ
n ào
s ự
â m
_ ch
n ên
má y
n_ th
chú ng_tôi
t a
ồ ng_
gi ờ
u ng_
á t
ọ i
t ay
ỏ i
_ v
uộ c
ự c
uố ng
ố ng
ạ o
số ng
c ùng
_ nh
ươ ng_
d ân
cá ch
b a
ắ c
_ W
c ô
v ợ
b ố
á m_
độ ng
t ại
ấ p
ị ch
ư ng
x ã
ă ng
đ ứ
ố i
ê m
ì m
í nh
ch ưa
tr ước
ậ y
ả ng
_W H
l o
ừ a
iệ t
u a
g ì
í ch
n ay
t à
oà n
ư ở
ạ i_
th ế
iệ u
t iền
ú ng
đ ưa
ế t_
Ô ng
ầ m
ấ n
_X P
r ừng
ô n
đ ồng
ử a
ch ủ
1 9
c ơ
l ần
l úc
ạ ch
nh au
nh ận
kh ác
tu ổi
b ằng
ngh iệ
_th ể
b án
_ ph
e n
đ ồng_
uố n
đầ u_
iể n
oà i
ế u
H à
T ôi
b u
ọ c
ườ ng_
bả o
t ìm
ê n_
đ ố
đị nh
ch uy
ặ p
00 0
nh ất
a_đ ình
G i
d ư
â m_
i_ th
là m_
h iện
lớ n
g ần
ú t
ạ m
th u
b ao
x uống
gi ả
H ùng
v ụ
ắ ng
Ng uy
m ỗi
à i
n_ tr
ưở ng
gi a_đình
v ừa
á c_
n_ l
_X p
b ên
đề u
c ây
ề n
ạ y
ự c_
n ơi
n_ t
ượ ng
t y
à ng
chiế c
u ng
à nh_
từ ng
ắ n
ấ u
iế n
qu ả
tr a
kh ó
ướ c_
H ải
tiế ng
â u_
è o
Nguy ễ
ô m
ắ m
Nh ưng
d o
ng oài
c ao
s ang
ồ n
i_ t
qu á
b áo
l u
x u
i m
g h
t ự
ậ t_
ngh ĩ
g ặp
h ết
m uốn
A nh
Q u
v iên
ọ ng
ạ t
iệ t_
có _thể
ờ i_
kh ách
t ổ
k ể
ộ t
i a
t ỉ
t in
ả o
m ẹ
ặ n
b ạn
c ầ
m ấy
g ọi
t ử
th ể
n ữa
ạ nh
ặ c
đầu_ t
m ua
s ĩ
t ố
ằ m
ch á
ch ứ
h ộ
t ên
ì n
mộ t_
l ấy
á m
tr ở
Nh ững
M ỹ
_ c
b iển
h ay
th ủ
a m_
m ặt
t ình_
ng ay
ph í
phá t_
T u
th áng
nghiệ p
ẳ ng
tr ường
chí nh
_ giờ
h ỏi
ạ ng
ngh ề
tiế p
dư ới
ngh e
B à
_ con
l òng
tr ẻ
i ễ
é t
c uộc
h ệ
C ó
ầ n_
h uyện
gi ao
_ n
u ôi
ọ n
th ành_
đứ a
L an
kh u
B ình
b ỏ
nh ân
m ắt
o ại
é o
Ch ương
_ I
ó m
th ứ
gi ữa
iể u
_ qu
ó c
th ành
v iết
ph òng
ướ ng
d ự
h ồ
o ng_
ạ c
1 0
M ột
th ời_
ph ố
uy ên
m ang
ó ng
ặ ng
ch ồng
đi ể
h ợ
n ằm
t o
kh ông_
đị a_
S au
_ b
c ấp
n uôi
t ới
ắ t_
là ng
gi á
iề u_
uộ c_
á i_
ã i
gi ú
2 00
V iệt
ả n
ch ạy
co n_
Tr ong
ám_ tử
N am
nh ỏ
th ường
a i_
c ông
s inh
đ ủ
ẹ p
ợ i
nh ân_
kho ảng
tỉ nh
a r
n ước_
s ao
ú i
ắ p
kh á
công_ ty
g ái
l iên_
ngh èo
h oà
s ông
đ ời
độ i
Kh i
k inh_
v ùng
đ ại_
ả nh
ườ i_
Kh ông
Nguyễ n_
s áng
á nh
í t
đ iệ
th ám_tử
_C h
ấ n_
_R P
tr ình
ph ụ
gi ấy
N P
ụ ng
ch ết
2 0
nh ìn
th ị
nhà _
_WH NP
th ực_
iê ng
chí nh_
_ Th
c ần
_P h
gi a
điể m
m ù
ặ t_
ch ữ
th ông_
th ật
th êm
b ệ
l ý
n ếu
qu ê
C ác
c uố
d u_
h iệ
à n
đ ường_
đ iều_
ạ p
ậ u
é p
ả n_
ở i
ch u
b ắt
c ố
đ âu
ậ n_
ứ c_
tr ả
gi an
iệ m
họ c_
Hà _N
r ằng
v ô
ơ n_
ắ c_
th iế
Hà_N ội
t âm
y ê
ò a
đ o
ặ c_
iê u
đầu_t iên
b ất_
o n
ng ồi
giú p
ả y
qu án
C ông_
k ý
ấ m
_V ăn_
th o
Ch ú
bà _con
iể m_
T ùng
gi à
tà u
cầ u
điệ n_th
c uộc_
d ây
v ậy
ă m_
m ất
ó a
Ch ị
cứ u
âu_ chuyện
không_ thể
_ kh
b ắt_
c ụ
à i_
n_ bộ
Ng ười
chuy ể
l ập
s át
ậ p_
_ch ồng
bố n
_ 000
k éo
đ êm
ấ u_
ố c
ố c_
ng_ l
ất_ cả
_ch ức
đứ ng
R P
h ầm
l ắm
l ặn
ch ân
cá o
uố c
đá nh
quy ền
_WH RP
lo ại
a ng_
k iế
x a
x in
xe m
phí a
T ừ
V à
l ú
m ọi
ô i_
đ iện
ng uy
ng ười_
nh ớ
th úng
Th u
Ph ú
thu ê
Tu ấn
3 0
c ử
m ở
s uố
v ực
á p
đ ặt
ấ p_
ố n
tr ung_
ho ặc
đ ổ
ạ n_
th ú
th ợ
kh u_
ph ần
ngh ị
h ình_
v ị
ộ ng
tổ _chức
_qu an
Chú ng_tôi
h ình
s ức
ử i
nh ờ
K im
ô n_
đ iều
đ oàn
ộ c
hà ng_
đầ y
bả n
tà i_
điện_th oại
T P
Y M
k ế
m ũ
x óm
_S YM
vợ _chồng
H ai
l ộ
ạ t_
ng ờ
th ư
th am_
và i
cả nh
đố i_
L o
d ùng
d ài
s ách
thời_ gian
n úi
s inh_
t ế
đ ẹp
ch ẳng
chá u
đ à
ủ ng_
hà nh_
bà i
lớ p
h iểu
l á
ộ i_
ch ỗ
ây _giờ
Tr ung_
chú ng
chuyể n
1 5
c ửa
g ửi
k ia
l ư
l ời
n ổ
t uy
ó ng_
_N g
kh ỏi
ượ t
iê u_
bu ổi
làm_ việc
lu ôn
T uy
_ động
k ết_
r uộ
v ăn_
ò ng_
th ay
Th anh
_t ục
thế _
hợ p
l ính
t ư
Đ ó
đ úng
gi ữ
qu ốc_
Th eo
bà n
chiế n_tr
quy ết_
một_ số
_ M
_ ng
a n_
b é
b ình_
b ởi
c âu_chuyện
k ỳ
í nh_
đ ôi
ự ng
cá t
Th ọ
Nh iều
H ọ
c ăn
g à
h ạ
l ịch
t ất_cả
x ây
đ ọc
đ ấu
_S ơn
tr ận
hà nh
Ng h
xu ất_
chá y
N hà
l ao
v u
ầ u_
tr ời
tu i
quy ết
C ả
N ếu
c ư
c ười
m iền
r õ
ù ng_
đ ảo
ch ợ
ch ục
th anh_
qu ay
qua n_
suố t
khu_ vực
_ cáo
k iểm_
n iên
ô m_
đ ông
ng o
th u_
ph ương
qu anh
đo ạn
c àng
d ù
s âu
ò i
ă ng_
đ ào
ch ó
ch ống
gi ám_
_ án
d ẫn
đ ặc_
th ương
Tr ường
anh_ em
Nguyễ n
người_ ta
k ê
l âu
s ản_
th ôi
Th ư
Th ái_
chiế n_
bắt_ đầu
b ờ
c âu
d òng
s o
s ử
th ời
_h ội
_nh iên
r iêng
s á
t ận
t ối
đ ơn_
ẩ m
gi ới
qu ân
cả m_
trở _
lú a
5 0
_ L
d ịch
h ôm
l ạ
t ác
x ử
_A n
Th ế
đá nh_
phát_ hiện
B a
N ăm
_ H
d iện
d ân_
k ẻ
th uộc
tr ò
kh ủng_
uy ền
Công_ ty
cử a_
M u
l ã
tr ăm
xu ất
a u_
d ạy
h ướng
o m
r ộng
t âm_
á nh_
ĩ nh
ầ m_
ọ t
ng u
ng ôi
ch i
ch ờ
_d ựng
chị u
đố c
h a
k ỹ
n ông_
t ập
ý _
ầ u
ậ m_
iể u_
đầu_t ư
thực_ hiện
cuộc_ sống
X u
l ượng
m ặt_
ẩ u
ch ở
kh iến
ph út
Nh u
xe _đ
giả i_
iễ n
bệ nh
1 2
C òn
c ầm
x ác_
ã y
đ ấy
ị p
ứ a
ph ục
Th ái
_th ành
công_ việc
cơ _quan
nghiệ m
điều_ tra
kiế m
mũ i
tham_ gia
C P
V iệt_
b ây_giờ
h ồi
k iện
k ích
k iến
m u
x ong
ầ y
ẩ n_
ủ y
_P ar
th i
th ôn
ườ n
cá n_bộ
cả m
cả nh_
tố t
mù a
đà n_
_Par t
L úc
a i_th
b ước
c à
c ũ
s ản
t ú
t ính
v ật
v ọng
è n
Đ ến
ch a
tr iển
ng_ t
ph ân_
gi áo
độ c
đị a_đ
_v ậy
Lo an
quyết_ định
địa_đ ạo
L ộc
M inh
_ Đ
b í
m ưa
õ i
ẳ ng_
ch ế
ch ung
_th ông
19 9
bao _giờ
phát_ triển
hợ p_
cuố i
ruộ ng
Thái_ Lan
H òa
S V
V ậy
d a
d ễ
g ó
h óa
Đ ây
đ ồ
ẩ n
tr ang
i_ cùng
gi ớ
u_ cầu
Th ị
Th ắng
_th ống
chiế n
cơ m
tra ng_
chiến_tr anh
xây _dựng
B ộ
_ x
b ình
b iệt
k iều
ứ ng
ch iều
th ăm
th ân_
uy ề
công_ an
đị ch
_d ụng
đá ng
_h o
ho ạt_
iên_ cứu
_v ệ
19 6
trở _thành
thành_ phố
yê u
L ào
m ô
n ửa
t ích
Đ à
Đ ồng
ư u
ả i_
ấ m_
nh iên
th ông
n_ b
kh ổ
kh ai_th
chuy ến
hệ _thống
thị _tr
bệ nh_
Việt_ kiều
c ổ
e r
h ổ
h iệu
v iện
x ế
ả ng_
ậ m
ph ong_
qu en
ay _Th
ngh ỉ
đó ng
_t ịch
Ph áp
tu ần
n_l ý
nghĩ a
chứ ng_
tiếp _tục
hiệ n_
tho át
Mu ay_Th
ngu ồn
G òn
L ê
S ài_
a l
c ơn
c ắt
l iền
m ay
n ổi
t ình
t oà
ạ c_
ch ất
th ương_
tr ách
tr ạm
iể m
Ng ày
_nh iệm
quả n_lý
ấn_ đề
ôm_ nay
sử _dụng
hoạt_ động
Muay_Th ái
Sài_ Gòn
B ắc
H ồ
N D
_ T
b è
b ám
d ám
i l
l iệt_
m iệ
o a
s ợ
à m
đ ơn
ẫ y
ố i_
ừ a_
ng ã
ch ừng
tr ồng
công_ tác
thông_ tin
_kh ăn
khai_th ác
g ây
m ãi
n ặng
v õ
v ốn
ò a_
ế n_
ộ ng_
ụ c_
nh anh
ch ất_
ch ọn
kh í
ph ương_
qu i_
ngh iên_cứu
xe _
chiế m
_m ặt
_s ở
_nh iêu
gh e
giao _thông
nguy ên_
Tuy _nhiên
lao _động
giám_ đốc
khủng_ bố
xe_đ ạp
2 5
M ỗi
k m
m ạnh
t i
t inh_
t ôm
u ổi
v ườn
Đ ông
đ ập
đ en
ư u_
ạ m_
ỉ nh
ụ i
ự a
ng àn
nh ập
th ả
th ẳng
tr ai
uố c_
phá p
khó _khăn
iễ m
dự _án
địa_ chỉ
_ho ạch
miệ ng
H ồng
R ồi
T ư
V ì
_ độ
b iên_
h ùng
n iề
t ương_
í n
ó t
đ ỏ
đ ỡ
đ ấu_
_V ăn
ch ăm_
tr anh
qu an
độ c_
_d õi
_đ ổi
19 7
thủ y
nước_ ngoài
trung_ tâm
thanh_ niên
quan_ hệ
ậm_ chí
liệt_ sĩ
B ình_
H u
T iế
d i_
k g
l ũ
l ễ
t iêu_
u ật
v i
v ận_
v ượt
ù i
Đ ị
đ ổi
ớ m
nh óm
ch ia
tr ưởng
ph ạm
iệ n_
có _mặt
Th ành
Ch ỉ
tiế p_
theo _dõi
ba n_
_ph ê
_ph ạm
bảo _vệ
hộ i_
hàng_ xóm
sản_ xuất
mu a_
L ong
N ó
_ Z
_ là
b ồ
d iễn
m a_
n ỗi
t ăng
t ấm
v òng
v ấn_đề
đ ất_
ồ m
ch ắc
kh ả
qu ân_
_th ế
_th ị
Tr ước
_l ý
ương_ trình
chuy ên_
n_t oàn
đối_ với
vu i
đàn_ ông
V y
V ới
_ r
c a
d ung
k ỷ
s ắt
t ù
t ạo
t ập_
x ảy
Đ L
đ ạo
ng ủ
ch ương_trình
th ức
Th anh_
bả y
bao _nhiêu
do anh
tổ ng_
chính_ quyền
vô _
đơn_ vị
cà _phê
trách _nhiệm
niề m
1 00
B ND
U BND
_ em
b ọn
c am
d ần
d ụng
g ạo
h i_
h ôm_nay
l iệu
m ời
m ối
v ật_
v ùng_
x anh
ì m_
ó a_
ch ơi
th ở
th ằng
tr ường_
kh ai
kh ắp
ph ẩm
gi ọng
co i
nó i_
_l ời
bả n_
_h iểm
anh_ hùng
_m ạng
i_th iệu
địa_ phương
du_ kích
thiế u
giớ i_thiệu
C ường
L ần
Q uốc
S inh
T ổ
_ U
_ g
_ nghiệp
c ung_
g ốc
m ê
t oàn
t ác_
y ếu
ã o
ã ng
đ òi
ầ ng
ẩ y
_N h
_N am
ch ấp_
ng_ ta
iệ m_
mà u
_d o
đề _
xã _hội
đồng_ chí
bu ồn
200 4
nhân_ viên
kinh_ doanh
thiế t_
kế _hoạch
nổ i_
thế_ nào
C ũng
H ai_
b ày
t òa
x uyên
ó n
Đ ào
Đ ức
đ ạn
ng õ
ng ành
th ường_
tr ái
kh uy
và ng
ngh ệ
công_ trình
đại_ học
cuố i_cùng
chu ẩn_
tuy ến
tú y
1 1
5 00
C on
E m
H oà
T oàn
_ mà
c ỏ
i m_
m inh
s ẵ
t ục
v ai
x ác
đ au
đ au_
ậ u_
ẹ n
ố ng_
ồ n_
ớ t
ứ t
ừ ng_
th ử
th ang
th ân
th uốc
tr ại
cá _độ
hà o
Tr à
độ ng_
_t ạo
công_ nhân
kho an
_s ư
hoà n_
trả _lời
đặc_ biệt
ma_ túy
_U CP
b óng
h ơi
h ội
k ết
m ặc
m ôi_
n ạn
n ạn_
o i
r út
ù a
Đ ồng_
đ em
ặ ng_
ọ c_
th uốc_
_D ương
tr ắng
đó n
Tr ần_
xe _t
_l ẽ
_tr iệu
_tr ưởng
máy _
cơ _sở
làm_ ăn
thủ _phạm
_n ữ
con_ người
bình_ thường
nông_ dân
iệm_ vụ
nạn_ nhân
K ỳ
b uộc
b ắc
d ành
k ịp
l âm_
m ực
s ớm
u ận
v ẻ
x ứ
tr ọ
tr ào
ph ủ
gi ó
gi ống
c_ vụ
Th ành_
Tr ên
tiế n_
ác_ sĩ
lu ận
_n ăng
Nguyễn _Văn_
lã nh_
đề_ nghị
1 8
C ô
C ái
H I
H ôm
T ân_
V õ
b ù
b ay
b ữa
d uy
d anh
d a_
d ừng
g ỗ
h eo
l ặng
m ơ
m ảnh
n ữ
n ối
n ét
r a_
s uy
s ắp
t ìm_
á u
â ng
ù m
Đ i
ở i_
th ật_
kh ỏ
kh ẳng_
ph ản_
Nh ư
iể n_
Ph ạm
_m ai
ạch _
báo _cáo
kinh_ tế
phụ _nữ
_Ph ước
du_ lịch
học_ sinh
yê u_cầu
ngo ại_
sá u
Xu ân_
cảnh_ sát
trường_ hợp
cung_ cấp
chuẩn_ bị
HI V
1 6
T ây
b iến
b óng_
c ất
d âm
h ằng
k e
k ar
m ạng
s ắc
é n
ú c_
Đ iều
ĩ nh_
ằ n
ẳ n
ố t
ữ u
ng ư
nh ất_
nh ắc
th ần
tr ợ
gi ày
iế u
qu ên
cá nh
iề n_
ươ i
Ch ính
bà n_
tiế n
qua n_tr
phá t
ho ạch
_s inh
khó c
Qu ảng
liên_ quan
điều_ kiện
bất_ ngờ
Nhà _
kiểm_ tra
kê u
xử _lý
chi a_
thị_tr ấn
toà n_bộ
khỏ e
khẳng_ định
4 0
N am_
b ạn_
c ạnh
k iểu
l âm
m ất_
m ức
n ăng
s óng
t í
u ất
ố m
ổ i_
ợ t
_N ai
nh iễm
nh iệm_vụ
ch ặt
th ơ
th ất_
n_ ng
kh ẩu
ph úc
iệ c
ngh iê
Ch ính_
Tr ần
Nh ật
chú ng_ta
má u
kho ản
_m ẹ
nghĩ a_
cầ u_
tình_ hình
nước_ mắt
nhà_ hàng
thay _đổi
Đồng _Nai
khả _năng
nổi_ tiếng
quan_tr ọng
C N
C ứ
C uộc_
D N
H ơn
_ hàng
b an
b ụi
c ực
d anh_
h ương
l ệ
l ưng
l iệt
s ơ
s ổ
t ờ
u n
v en
é m
Đ ã
đ i_
đ òn
ắ p_
ữ u_
_Num X
th uyền
th ậm_chí
tr í
tr ực_
ph ần_
ph óng
gi ấu
nh_ phúc
ượ ng_
c_ làm
_th ật
đó i
Ng ay
chú t
chiế u
_d âu
việ c_làm
đá m
_s ử
cách _mạng
tà i
đố i_t
Gi á
gh i
nhân_ dân
phụ c_vụ
sinh_ viên
Trung_ tâm
xuất_ hiện
trở_ lại
hợp_ đồng
da_ cam
1 7
D P
Q ua
T ám_
a x
b o
b ăng
c ăn_
d ữ
d ậy
d ọc
h út
h ầu_
l ợ
l ai
l ạnh
m a
m ã
s ư
s óc
t iểu_
v ay
v ăn
y ên_
è m
Đ ể
ẩ m_
ẫ u
ớ n
ỳ nh_
_V ân
ch i_
th i_
tr ước_
tr uyề
ph òng_
gi ỏi
uố i
_th ư
_t ưởng
am e
am p
bộ _
_v ụ
_ph ận
âm_ th
n_l ợi
Tu m
lư ới
hạ nh_phúc
Ngh e
gó p
phong_ trào
chấp_ nhận
hoàn_ cảnh
A i
C ách
H ằng
H ọc
H oa
L Đ
L inh
N a
N ong_
_ nghĩ
b ật
b ạc
c ú
c ống
d ãy
h uy
l ạc
n ội_
t ỏ
t ính_
Đ êm
Đ ảng
ĩ a
ọ a
ng uyên
nh ẹ
ch im
tr ụ
tr ôi
tr ạng
tr ánh
kh ô
ph ỉ
ph ường
ph ép
iệ n_t
qu í
qu ần_
ngh i_
_th uật
_t ờ
_t ập
Kh u
_d ài
đá y
_m ật
_s ơ
cô _dâu
chủ _tịch
Gi a_
i_t ính
liên_ tục
Nguyễn_ Thị
giấy _tờ
thị t
thiế u_
văn_ phòng
_M DP
lịch _sử
Nong_ Tum
A nh_
H C
L iên
M ai
M ấy
S D
U SD
b ổ
b ãi
b ão
c uốn
c ậu
d ị
f ax
g om
g ồm
h iế
h ưởng
h ắn
h òa_
h ẳn
l ở
m ười
m ón
t ô
t uyệ
t ạm
t ội_
x ung_
á p_
đ ặt_
đ èn
ẫ m
tr ọng
ph ó
gi ác
Ch ủ
_t ức
đị a
phá p_
quy _tập
đồng_ đội
bu ôn_
Gi ang
kinh_ nghiệm
đại_ diện
cuộc_ đời
dịch _vụ
tâm_ sự
giải_ quyết
xác_ định
bệnh_ viện
đấu_ tranh
chăm_ sóc
nói_ chuyện
đối_t ượng
F w
H ồi
L à
P P
S ự
T ại
V ừa
V iệc
_ Fw
b ế
b iế
b ánh_
b ác_sĩ
c ờ
d ứt
h ết_
i t
l a
l y
l ên_
m ồ
n ợ
s ạch
s ức_
t iện
t ội
t ấn
t ầng
v ấn
x á
á n_
á ng_
Đ ỗi
Đ oàn
đ e
đ ô
đ èo
đ ạt
đ ợt
ấ c
ắ m_
ẵ ng
ng ụ
ng uyện
nh anh_
th úc
th ầy
tr ông
tr ao
tr ưa
ngh i
_t ính
Ph ải
ho a
_v ấn
bố _mẹ
_WH PP
ưở ng_
19 8
cơ _hội
dư ỡ
cây _
lu ật
gh i_
dự ng
con_ gái
hoà n_th
đường_ dây
hình_ ảnh
tài_ xế
lư u_
tuy ên_
cửa_ hàng
trang_ trại
hiện_ nay
nghiê m_
trực_ tiếp
buôn_ bán
B ây_giờ
C âu_chuyện
H iền
H ạnh
V inh
_ việc
b iểu_
d ày
h ạt
h óa_
l ẫn
l ực
m ì
m ặn
n am
n ặng_
r ơi
s ới
s ân
s ửa
t ết
x i
x ưa
ò i_
đ ại
ư a_
ắ ng_
ị _
ng oại
ch ữa
ch ắn
ch ặn
ch ảy
th ừa_
tr ung
tr àm
n_ r
và nh
gi ật
bà o
Ng hệ
ngày _mai
_h uy
chị _em
kho ai
_tr ương
ho ang_
a_đ ời
máy _b
n_th ức
_nh ất
chủ _
_ph ủ
đồng_ hồ
Hà ng
chuy ên
Hải _Vân
ật_ ký
một_ cách
_c àng
hồ _sơ
thời_ điểm
giú p_
chính_ sách
thông_ báo
quốc_ lộ
nguyên_ nhân
tương_ lai
di_ động
đất_ nước
môi_ trường
lãnh_ đạo
duy _nhất
suy _nghĩ
Nhà_ nước
iện_t ích
tuyệ t_
2 _
G T
H ội
L âm_
T B
_ Tr
b ắn
b iệt_
e b
h ỏ
h ại
h òn
h ậu_
h ẹn
l ửa
m ày
m ồi
m ừng
n ề
n ộ
r ượ
r ời
s uất
t úi
t ộc
v ẽ
x é
x a_
Đ ại_
Đ ài_
đ eo
đ ành
đ ài
đ ỉnh
ơ m
_N ẵng
nh ằm
nh ật_ký
ch ân_
tr ình_
tr anh_
ph óng_
nh_ m
a_ mẹ
iê m
nó ng
ngày _càng
_l uận
Kh o
_d ục
má t
_tr í
_tr ợ
_tr ình
chủ _trương
bu ôn
làm_ sao
chứ ng
iễ u
Bình _Dương
200 3
hoà n_toàn
chu i
_kh í
chiến_tr ường
chiến_ sĩ
Xu ân
Đà _Nẵng
xe_ máy
mua_ bán
vùng_ đất
xe_t ải
tìm_ hiểu
đi_ lại
bộ_ đội
hết_ sức
Nghệ _An
1 3
1 _
B ảo
C S
H Đ
H óa
L âm
M ình
M al
N N
N i
R iêng
_ chiếu
a k
b ác
c ận
c ộng_
d ao
d iện_tích
h ỗ
h ứa
k èm
l ặ
l uyện
n ắm
s ở
s úng
v ũ
v ết
v ội
x úc
á t_
í a
ô tô
Đ ại
đ ê
đ ả
đ ợi
đ ạp
đ uổi
ầ n_l
ẹ ng
ỉ nh_
ộ t_
ỡ i
ng ập
nh ậu
ch e
ch ìm
ch ắc_
th ấp
th ích
_D u
tr òn
tr ái_
kh ởi_
gi ải
qu e
Th ủ
ong _Ch
ao ke
_th ủ
Tr ẻ
số _l
Kh ông_
_m ắn
_v ẻ
_nh ân
giả m
n_t ượng
tình_ cảm
địa_ bàn
học_ trò
Lo ong_Ch
hành_ chính
Trung_ Quốc
kết_ luận
kết_ thúc
bí _mật
xế p
chứng_ kiến
may _mắn
chất_ độc
tinh_ thần
vận_ động
Đị a
tập_ trung
thiết_ kế
Hai_ Địa
thường_ xuyên
kar aoke
Cuộc_ đời
máy_b ay
CS GT
Loong_Ch ẹng
2 4
6 0
C ủ
C uộc
D o
D ân
H uy
H ương
L u
M ười
N ông_
N ăm_
S áng
T ất_cả
V ợ
_ bản
b ỗ
c ột
d ã
g ấp
h u
h ang
h át
l ẽ
l âu_
m ôn
n ậu
r e
r ẻ
r ẫy
s ẻ
s ia
t á
t ịch
t ướng
t ặng
t iêu
t ươi
v ỡ
x o
x ương
x ách
á y
đ ừng
đ ối
đ ẩy
ư ng_
ệ t
ợ p
ủ i
ng ữ
ng ược
ch ức
ch ấm_
th ua
tr iệu
kh ai_
kh ắc_
ph ù
qu ận
Th ứ
ay sia
a_ học
ướ ng_
co m
họ p
Ch o
bà ng
_t ế
_t ắc
Nh i
Nh ìn
chỉ _huy
_l ực
_h ình
_h ương
Ph ong
_s ĩ
quy ề
ta i_
ương_ mặt
19 5
đồng_ ý
đầu_ nậu
n_t âm
khách _hàng
chứ c_
hộ _chiếu
thủ _tục
tình_ trạng
thành_ viên
liên_ hệ
hiệ u_
yê u_
tho ảng
mở _
hình_ thành
_Ng ọc_
kết_ quả
thế_ giới
sản_ phẩm
ý_ kiến
xác_ nhận
CP C
hi_ sinh
Hoà ng
sẵ n
thật_ sự
nhất_ là
bàn_ tay
bạn_ bè
phần_ lớn
âm_th ầm
rượ u
Mal aysia
chấm_ dứt
7 0
B ên
B a_
B ạch
C amp
G ần
L iễu
R ạch_
T ân
_ ý
_ nhà
_ định
b ú
b inh
c ò
c ặp
c ộng
g a
g óc
g ương_mặt
h ề
h ồn
h ãng
i ng
k o
k ẽ
k ín
l ô
l ấp
l ắc_
l ang_
m 2
m ong
m ẫu
o ại_
r ắn
s ợi
s au_
t ám
t ấn_
t ận_
t ầm_
u chia
v ỏ
w eb
x ét
ì a
í t_
Đ H
Đ T
ả nh_
ằ ng_
ẹ o
ộ n
ụ p
ự u_
_N inh
ng ang
ng ân_
ng ạc_
ch ào
ch eo
ch óng
ch a_mẹ
th uy
th ắng
th ượng_
kh iế
kh ơi
ph ong
iế ng
uy _t
Th ấy
Th ương
a_ h
uố t
hà n
Ch uyện
đồng_ thời
Hà _T
Gi à
i_th ích
giả i_thích
ực_ lượng
Qu ảng_
một_ mình
iễ n_
Có _lẽ
_n iệm
to án
thực_ tế
đường_ bộ
nguy _hiểm
văn_ hóa
chợ t
trở_ nên
_L ạt
dân_ tộc
kỹ _sư
bí _thư
Đà _Lạt
thị_tr ường
phương_ án
ti n_
ban_ đầu
nội_ dung
HC M
it e
nhanh_ chóng
cây_ số
hoàn_th ành
đả m_
Camp uchia
ngạc_ nhiên
1 4
2 2
3 00
B u
B ởi
B ến_
C ông
H S
K iên_
N T
V ề
_ cả
a t
d ấu
d ấu_
g ỡ
k iên_
k ịch
k ính
k èo
k ém
l ương
l ối
l ợi
l ọt
m òn
m ục_
n ắng
r ủ
s iêu_
t iề
t ai
t ất_
t ật
t ắm
v ả
v i_
v ách
v ớt
x ó
y ên
í n_
ù _l
Đ ường
đ è
đ an
đ ích
ơ i_
ẹ t
ổ n_
ớ i_
ng ọn
nh ận_
nh ảy
nh u_cầu
ch én
tr e
tr ải
iệ p
_th ao
_th ức
Tr ung
độ t_
oà i_
nó c
đầ m
uyệ t
ất_ vả
má i
Ph ương
tu ng
kho a
_s ạn
máy _tính
n_th ân
Hà ng_
khó a
gh é
gh ế
tự _t
Qu ỳnh_
tố t_
tình_ thương
Tu ổi_
thành_ công
hoà ng
du_ học
cố t
ruộ t
chiến_ đấu
độc_ lập
Nó i
hi_ vọng
bù n
lợ i_
chủ_ yếu
cộng_ đồng
hỗ _trợ
vũ _khí
ỉnh_ thoảng
chắc_ chắn
số_l ượng
Bạch _Đ
lang_ thang
tấn_ công
ổn_ định
Tuổi_ Trẻ
2 7
8 0
B ang
D uy
L ý
M à
M ọi
N V
N ơi
T ám
T ánh_
_ còn
_ xã
d ò
d âu
h ẹp
l ực_lượng
m ạ
m ề
m ét
m ưu_
n i
n ền
n ấu
r u
r ách
t ức_
u r
v ã
v ắng
v ất_vả
x óa
ù y
Đ ang
ả m
ặ p_
ụ t
_V inh
nh iệt_
ch ai
th ái_
tr à
tr ú
tr ừ
tr ốn
tr ùm
n_ n
ph a
gi a_
qu a_
Th ời_
ông_ bà
_th ân
hà i_
mà _còn
bị _cáo
tiế c
đị nh_
xe m_
_l iệu
_l ắng
_h iện
qua n_tâm
lo ạt
lo _lắng
đồng_ nghiệp
đố t
đố i_th
dư _luận
n_tr ưởng
tự _do
khách _sạn
thể _thao
thể _hiện
tình_ nguyện
thành_ lập
con_ cháu
liên_ lạc
_Ch i
_Ch í
nhà_ nước
lý _do
hiệ p
vậy _mà
cụ _thể
ng_l ẽ
Phú _
suố i
tư _vấn
quốc_ tế
quốc_ tịch
kiểm_ so
thu_ hoạch
Trường _Sơn
Thế _là
tập _thể
chế _tạo
biên_ giới
Tiế n_
quân_ đội
tù y
vô_ cùng
ngư _phủ
chia_ sẻ
Chính_ phủ
xung_ quanh
thừa_ nhận
giúp_ đỡ
ần_l ượt
Củ _Chi
lắc_ đầu
đảm_ bảo
vi_ phạm
Bạch_Đ ằng
Tánh_ Linh
kiểm_so át
B an
B ằng
C uố
D ù
D an
H ưng_
K iểm_
L ã
S áu
T ài_
X ốm
_ chuyện
_ làng
_ quyết
a n_toàn
b ò
b ề
b ấy
b út
b iểu
c ồn
d i
d ông
d ặn
d ịp
h e
l ái
l ấn_
l ần_lượt
m ưu
n o
r ẽ
r ửa
r a_đời
s ay
s ai
s ang_
s ót
s ite
t ượng
t ạp
t ạm_
x y
x ưởng
à _l
Đ ược
Đ ức_
đ ậm
ũ ng_
ể n
ệ nh_
_S ang
ng ườ
ng ăn_
ch i_t
th ỏ
th áo
tr ực
n_ s
ph ận
ph ức_
gi ế
Th ật
co n_tr
an a
Tr e
ngày _đ
p_ học
công_ nghiệp
uộ n
_d anh
_d ọa
_h ệ
kho a_học
_tr ách
_m óc
sự _nghiệp
_ph ép
bu ồng
bảo _hiểm
giả n
do anh_
xu ân
giao _l
nhân_ vật
Nguyễn_ Thanh_
_Ch âu
phụ _trách
thị _xã
chính_ xác
quê _hương
đường_ phố
chuyể n_
kéo _dài
kiế n_thức
đổ i_
tài_ sản
vu i_
cư ới
lã o
nông_ thôn
phân_ tích
Minh _Sang
mô _hình
hiện_ đại
chất_ lượng
thủy _thủ
kỷ _niệm
Tổ ng_
Như _vậy
căn_ cứ
chi_ phí
thi_ công
truyề n_th
Anh_ em
tội_ phạm
đe _dọa
nặng_ nề
Đài_ Loan
tai_ nạn
mở_ rộng
ko k
sau_ này
ảnh_ hưởng
siêu_ thị
ù_l ao
Bang kok
thái_ độ
đối_th ủ
Cuố i_cùng
Dan kia
phức_ tạp
con_tr ai
2 3
2 000
4 5
A n
H ào
H ưng
H ữu
K im_
M ới
M ặt_
N ay
O n
R ơ
V ào
V iện
V ăn_
V àng
X in
b ê
b ẫy
c k
d ạ
d ọn
e m_
g ác
g ắn
g ặp_
h ò
h ẻ
h ạng
h ải_
l ì
l ề
l a_
l ang
m ướ
m ìn
n ụ
n ăm_
r ối
s a
s ắm
s àn
s ạt_
t ụ
t ường
t iên
t ách
t ên_
t ưởng
t óc
v ác
v ạn
é p_
Đ úng
đ a_
đ ồi
ẩ n_th
ẫ u_
ế u_
ng ựa
ch àng
th ùng
th iết
th iên_
th ắp
th ẩm_
_C ông
tr ong_
kh ắc
kh éo
ph ổ
là nh
iế c
qu à
qu i_t
có _
có _vẻ
uy ến
c_ độ
Th ậm_chí
Tr ời
độ i_
_t ay
uyệ n_
Ng oài_
ngày _
công_ nghệ
công_ văn
đá o
_h ợp
Ph an
Ph ượng
_đ ủ
bộ _phận
_s u
_s ao
_ch ối
ung_ thư
_v iên
cô _
thế _hệ
đồng_ bào
đầu_ máy
tự _
tự _nhiên
tố i_
_c ửa
thủ _đ
trẻ _em
dự a
không_ khí
200 5
Việt _Nam
con_ cái
khá ng_
chính_ thức
đo án
bất_ cứ
già u
điện_th oại_
lập _tức
nguy ền
Thu ận
15 0
lư ỡi
kiểm_ lâm
chiến_ dịch
đơn_ giản
cảm_ giác
trở_ về
dân_ cư
trò _chuyện
kỹ _thuật
phương_ tiện
qui_ hoạch
Hu ế
tiêu_ cực
tiếp_ cận
mua_ dâm
chuyên_ nghiệp
kỷ _l
Thanh_ Hóa
vật_ liệu
lâm_ trường
Tân_ Lộc
Quảng _Nam
hầu_ như
ame s
hòa_ bình
ngụ y
hậu_ quả
quyề n_lợi
chức_ năng
_nhà ng
web site
hài_ cốt
lấn_ chiếm
giế ng
ngày_đ êm
Rơ _Ch
tên_ tuổi
B áo
B ốn
C à
C ơ
C ầu_
G ốc
J ames
K ết_
L am
L ạc
L àm
M uốn
N ụ
O anh
T à
T ăng
X X
Y ên
_ chí
b ậ
b ại
b ến
b ức
b ấm
c ưa
c âu_
d u
d ương
d ính
g ắ
h ả
h ố
h ái
h iểm_
h ãy
h ữu_
h ướng_
l e
l ê
l ỗi
l inh_
l ĩnh_
m ắc
n út
n il
o to
o xy
r ộ
r ác
r ạch
s ú
t ạ
t ủ
t ĩnh
v é
v ừa_
x ẻ
x anh_
x ấu
ê u
í _
đ ệ
đ ảng_
Ơ NN
ế m
ị t
_S âm
ng ắn
nh é
nh ập_
ch è
ch ì
ch ung_
ch ậm
ch ụp
th ụ
th ực
tr eo
tr ưởng_
kh ảo
ng_ hoàng
ph áo
ph im
gi ật_
iế m
có _lẽ
ượ c_
ượ ng_t
ngh iện
ngh iêng
uố ng_
từ _chối
Tr ị
Tr ương_
chỉ nh
Ng oài
p_ phần
công_ khai
xe _l
_d ân
_d àng
bả ng
qua nh_
Ph an_
Ph ía
kho n
_tr ang
cứ u_
ho ảng
sự _thật
_nh iễm
vợ _con
ám_ đốc
đứ t
_WH A
tà n_
Gi a_đình
Gi ám_đốc
i_th ân
thu ận
giả ng_
khó i
cao _su
lu ật_
cầ n_
chứ a
một_ chút
Bình _Phước
thứ _
_b an
_b iến
mù i
đường_ ống
vô _danh
ơn_ nữa
đầy _đủ
ủng_ hộ
hành_ trình
_Ng uyên
_Ng ãi
quốc_ gia
_M au
xuất_ khẩu
thu_ nhập
ăng_ ký
đào _tạo
giáo _sư
Vậy _là
dễ _dàng
võ _sĩ
biên_ bản
_Văn _C
Tiế p
khuy a
sẵ n_s
máy_ fax
tiến_ sĩ
ngoại_ ngữ
Trần _Văn_
nghĩa_ trang
danh_ sách
nghi_ ngờ
Chủ _tịch
biế t_
phóng_ viên
HĐ XX
Quảng_ Bình
tự_t in
NV ƠNN
ngườ i_thân
Nguyễn_Thanh_ Mỹ
sạt_ lở
Ngoài_ ra
kháng_ chiến
điện_thoại_ di_động
lĩnh_ vực
nil ông
sẵn_s àng
2 6
3 _
B iết
B ất_
B ác_
B ảy
B ỉnh
B ùi
C ộng_
C ana
H o
H ắn
H iện_
K ế
L ại
L ời
L ý_
M inh_
N e
R ất
S ố
S ở
S ơn
T iên
X ây
_ ra
_ già
_ bàng
b i
b ì
b om
b án_
c ỡ
c an
c anh_
c ục
c ta
c am_
d e
d áng
d ạng
d âng
g ánh
h ôn
i en
l ỗ
l au
l eo
l ật
l ội
l ãi
m ỏ
m ại_
m óc
m ặc_
m iếng
m uộn
n át
n ướng
s e
s ứ
s úc
s ai_
s ôi_
s à_l
t ây
v ệ
x âm_
x úc_
ã m
ã n
ê m_
ù i_
Đ ặng
đ oà
đ ằng
đ àn
đ ăng_ký
ư ới
Ẩ n
ậ n_lợi
ằ m_
_N gh
ng ó
nh ì
ch ông
ch ôn
ch ép
ch òi
th ổi
th âm_
th iệt_
tr uyền
kh ám
ph i_
là n
gi ây
gi ặc
t_ m
Th ôi
Th ùy
ra u
_th eo
Ch a
Ch iều
Tr ạch
iê ng_
Nh ân_
Ng ười_
p_ ứng
_l âu
Kh ách
đá p_ứng
chí n
kho e
_đ iện
bộ _trưởng
lớ p_học
_ph òng
i_th ường
thu ận_lợi
vụ _án
tra i_
quá _trình
xu ôi
Qu ả
Qu ang
Qu án
tỉ nh_
tố n
tố _cáo
tố c_độ
Tu i
Bà _con
_qu ét
_qu ốc
_Th ị_
chu ông
ký _
cuộc_ chiến
tài_ liệu
đối_ phương
hành_ vi
giám_ định
kê nh
sá ng_
_L âm
khủng_ khiế
cửa_ biển
hợp_ pháp
gó p_phần
_x ưa
n_b ó
ạc_ sĩ
òa_ án
qui_ mô
đấu_ sĩ
197 5
bồ i_
bản_ đồ
Tổ _quốc
mê nh_m
Hoà ng_
cỏ _bàng
động_ vật
Trần_ Bạch_Đằng
xe_t ăng
trọ ng_
tí n_
Tám_ Hòa
bo m_
hầu_ hết
mã i_
yên_ tâm
truyề n_
phòng_ chống
nhẹ _nhàng
pháp_ luật
mồ _h
trao _đổi
lưu_ thông
Lâm_ Đồng
lặ ng_lẽ
Huy nh
bỗ ng
phù _hợp
Rạch_ Gốc
kẽ m
uy_t ín
Hà_T ĩnh
Bến_ Tre
nhận_ định
tốt_ nghiệp
mề m
mưu_ sinh
xem_ xét
Lã _Thị_
he cta
doanh_ nghiệp
Kim_ Oanh
qui_t ập
tự_ hào
Rơ_Ch âm_
bậ c
gắ n_bó
hướng_ dẫn
ượng_t á
Bác_ Hồ
Bỉnh _Sâm
Cana da
Lý_ Bỉnh_Sâm
mại_ dâm
sà_l an
khủng_khiế p
mênh_m ông
Lã_Thị_ Kim_Oanh
2 8
3 5
6 00
B ản
H ò
H iện
H ậu
H ữu_
H ơn_nữa
K iệm
M á
N H
T o
_ đây
_ ẩn
b ó
b ạt
b ánh
b ụng
b ưu_
c ường
c ua
c úi
c ấp_
c ăng_
c ù_lao
c ẩn_th
h x
h y
h ạn
h ưu
k iề
l ời_
l òng_
m ẩu
m uối
n ă
n ọ
n ối_
n âng
r ăng
r ừng_
s ong
s an
s âu_
s ắp_
t an
t ức
t úc
t ại_
t ật_
t iệm
v e
v ang
v òng_
v i_tính
Ú t_
ã i_
í _nghiệp
ú a
Đ ình
Đ inh_
Đ ặc_
đ ò
đ ẻ
đ ông_
đ âu_
đ ớn
đ òi_
ạ nh_
ấ n_tượng
ắ n_t
ỏ a
ồ i_
ổ n
ng ầm
ng ọt
nh ặt
_Num x
ch ết_
ch ồn
ch ùa
ch ame
th a
th ù
th ẻ
th ổ
th ự
th iện
th ống
th ép
th ỉnh_thoảng
th ạc_sĩ
tr á
tr uy
kh e
kh úc
ng_ m
ph ú
ph ầ
ph ân
ph iên_
ph ấn_
ph èn
gi ành
gi am
iế t_
qu ãng
Th ì
Th ác_
Th ực_
ngh ịch
nhà _tr
nhà _v
_th ù
đó ng_
cả ng
Ch ợ
Ch ắc
Ch ín_
Tr iệu
_t ội
_t ài
_t ướng
đầ m_
Ng ọc
tiế ng_
_l ệ
_l ập
anh_ trai
_đ ồ
_đ oàn
_m ò
_m ạnh
sự _c
máy _móc
n_th iết
_nh ật
_W hx
bố _trí
ưở i
Hà n
làm_ thuê
báo _chí
Qu ân_
mẹ _con
cầ m_
cầ n_thiết
_c ấp
tình_ cờ
_qu án
hồ i_
điể m_
đại_ lý
đại_ tướng
_Ph ú
_Ph òng
chữ _
cuố c
đường_ hầm
chu ồng
học_ tập
Công_ an
ký _t
lú c_
trung_ ương
tài_ trợ
hành_ động
hợp _t
Ngh ĩ
thanh_ tra
đánh_ giá
giải_ phóng
hợp_ lý
n_b ạc
toà n_
ti vi
Vì _vậy
Bình_ Thuận
Đị nh
tiếp_ viên
hội_ nghị
tổng_ thống
thở _dài
_g ắng
im_ lặng
đau_ đớn
môi_ giới
Kỳ _Sơn
tiến_ hành
Nam_ bộ
lệ nh
trước_ đây
Na khon
nghi_ vấn
Gia_ Huynh
bổ ng
hiế m
áp_ dụng
đặt_ chân
bế _tắc
bánh_ mì
dưỡ ng
tuyên_ bố
nộ p
xé t_
Bảo _Lâm
khởi_ nghĩa
Vợ _chồng
re d
xo ay
hiệu_ quả
yêu_ thương
ngân_ hàng
thuy ết_
Bu h
chi_t iết
thỏ a_
vui_ vẻ
truyền_th ống
mướ n
Lam chame
Tà u
Ne w
xúc_ động
Người_ ta
cẩn_th ận
nă ng_l
tật_ nguyền
đòi_ hỏi
sự_c ố
_Whx p
2 1
3 6
4 00
B an_
B ệnh_
D S
D iên
D ân_
G ặp
H ạ
H ỏi
H ạo
K inh_
K iến
K red
L S
L á
L iệu
M ẹ
M ai_
M ar
M ẫm
M ột_
Q uyên
S uốt
T ình_
T iến
V ĩnh
X e
X iêng_
Y ên_
_ vì
_ nào
a p
b ể
b óc
b ầy
b iển_
b du
c ọc
c ắm
c ạp
d ắt
d ừa
g ấu
h ô
h òa
k a
k ính_
l ây
l in
l ạch
l ứa
l ựu_
m p
m ờ
m ến
m ây
m inh_
m ạch
m ong_
m er
n ỗ
n iệm
r ổ
r ỡ
r ong
r ào
r ít
r ộng_
s ân_
s ạn
t ông
t ăng_
v út
v ét
x ao
x ương_
Ú c
ó i
ô _nhiễm
Đ ộ
Đ ổi
Đ ứa
đ a
đ ống
đ ua
đ ậu
đ ựng
đ ĩa
ớ p
ứ ng_
ứ t_
ử ng
ng ả
ng ộ
ng ao
nh ang
nh ắn
nh ạc
nh ựa
ch u_
ch ương
ch ăn_
ch en
ch ạm
th ờ
th ước
th ách
th ống_
tr ị
tr áng
kh ăn
kh âu
kh ích
ng_ cáo
ph ở
iệ u_
qu ần
cá _nhân
ượ n
Th iên
an d
họ a
_th ương
Tr ang
số c
số t
số ng_
số _phận
ngày _xưa
công_ viên
tiế t_
_d ù
bả n_l
Ph ạm_
chị u_
_đ ời
đề _tài
cứ ng
ho a_
ho ạt
_s át
_ch ủ
lo ại_
chủ _nhật
Hà nh_
Gi ờ
bao _lâu
giả i_t
vụ _việc
quả ng_cáo
tra kar
ước_ mơ
i_t ệ
gh ê
sĩ _quan
hộ p
_c ực
tiếp _thị
tiếp _theo
Có _thể
_b é
gia n_
thợ _
nghị _quyết
hình_ thức
vị _trí
tham_ mưu
đối_ diện
Trung_ ương
Tuy ết
_ng uyện
ôm_ qua
đặc_ sản
sử a_
cảm_ nhận
đánh_ cá
mặt_ hàng
mặt_ đất
mặt_ bằng
xe_đ ò
giáo _dục
uyề n_trưởng
chứng_ cứ
qui_ định
tương_ tự
Bình_ Triệu
Hu ỳnh_
lũ _quét
tiêu_ thụ
vận_ chuyển
hội_ đồng
chuyên_ gia
tác_ giả
_Nh i
chấp_ hành
Trà _M
động_ viên
thuốc_ lá
lâm_ súc
Thành_ đoàn
phản_ ứng
bóng_ đá
chia_ tay
thất_ bại
Tám_ On
quần_ áo
Khu ảng
đô _thị
nghiêm_ túc
hóa_ chất
tuyệt_ đối
trình_ bày
tranh_ thủ
Ni ke
que n_
Nông_ lâm_súc
khắc_ phục
bú t_
ít_ nhất
a_h è
NT LS
dấu_ hiệu
kịch _bản
Thời_ gian
Phú_ Mỹ
Tiến_ sĩ
bấy _giờ
giao_l ưu
Mặt_ khác
ngày_ một
Kết_ quả
đệ m
luật_ sư
Bất_ ngờ
Cộng_ sản
Hiện_ nay
canh_ tác
mồ_h ôi
căng_ thẳng
kiề ng
đâu_ đó
Thác_ Bà
thuyết_ phục
năng_l ực
Kred trakar
Xiêng_ Khuảng
bdu l
lựu_ đạn
bản_l ĩnh
giải_t ỏa
Kredtrakar n
9 0
A I
B án
B uổi
B ác_sĩ
B iển_
B ùi_
C ao
C ùng
C át_
D ung
H ình_
H ôm_nay
K oto
L ân
L ăng
M e
M ũ
M ay
N KT
N ỗi
P T
Q uốc_
R a
S ao
S ơn_
T S
T ình
T ấn_
V ĩnh_
_ gi
_ nghề
_ giáo
_ địa
b a_
b ồi
b ạch
b ọc
b ia
b ầu_
c ướ
c ân_
c ăng
c âm_
c ung
c ựu_
d ở
d ụ
d ời
d ập
d ạt
d ốc
e al
g ai
h ờ
h ận
h iến
h ấp_
h ạn_
h uyề
h er
h iền_
k ẹp
l ò
l ọ
l ọc
l ập_
m ò
m ị
m ăng
m ọc
m on
m ươi
n u
n ú
n eo
n ội
o an
o án
o _l
o in
r í
r ọ
r eo
r un
s ờ
s ăn
s ữa
s ướng
t ang
t ươ
t ôm_
t ụi
u ân
v á
v ò
v ỉ
v ây
v ải
v ội_
x ôi
x inh_
x ài
x óa_
x uống_
Á i_
â ng_
ê _d
ó m_
Đ ỗ
Đ ông_
Đ ưa
Đ ội
Đ ảo
Đ ối_
đ âm
đ uôi
đ ến_
đ ếm
ẫ n_
ắ n_
ắ ng_l
ộ m
ữ ng_
ỳ nh
ng ũ
ng ơ
ng ại
ng ăn
ng uyện_
_R ai
nh ắn_t
ch ốn
ch ưa_
th ề
th anh
th ai
th ưa
th ảo
th óc
th ẳng_
th í_
tr ần
tr ồi
tr ục
tr ắng_
kh ám_
kh uyên
là ng_
gi ỏ
gi ường
gi ọt
ượ m
Th ảo
Th áp
nhà _th
cả n
cả i_
Ch úng
Tr âm
_t ỏ
_t ình
Nh ã
Nh ờ
Nh ơn_
Ng ồi
công_ cộng
chiế n_th
Kh on
_h ộ
Ph u
anh_ chị
_đ ỏ
phá _h
đề _c
_m an
bộ c_
ho ang
_ch ai
_ch ân
n_th ương
n_th uộc
n_th ưởng
n_th oại
bố c
19 4
đồng_ tiền
đồng_ ruộng
bu ồ
ường_ như
i_th ăm
làm_ quen
thu ế
ác_ liệt
n_l uyện
Hải _Phòng
i_t im
báo _h
lu i
xu ồng
Qu ế
tổ ng
tử _tế
tố c
tố p
_c ông
tình_ yêu
khu ôn_
dự _
_b inh
giá p
nhỏ _bé
20 _
nhà_ máy
nhà_ đầu_tư
chính_ phủ
_Ph ương
thông_ minh
lý _tưởng
chu ẩn
cố _định
cố _gắng
ận_ Đức
học_ bổng
cụ t
lú a_
hàng_ loạt
lộ n
đối_ mặt
sinh_ sống
văn_ học
_ng ơi
_ng uyên
an_ n
Họ c_
xuất_ phát
quan_ tài
thu_ hồi
sá ng_t
đánh_ bắt
Mu k
Nhu ận_Đức
giải_ pháp
199 9
196 1
bệnh_ tật
ạc_ L
Bắc _Ninh
xe_ khách
thả m_
Tư _H
_Văn _D
di_ chuyển
vận_ hành
tiếp_ xúc
tác_ phẩm
bày _tỏ
khuy ến_
đau_ lòng
Trà _Vinh
Đồng_ chí
iển_ khai
Xuân_ Hải
Quảng _Ngãi
mất_ tích
bế p
sức_ khỏe
dưỡ ng_
ghi_ chép
biệt_ thự
trình_ độ
que n_thuộc
Lu ân
dã _man
Kiên_ Giang
mục_ tiêu
đè n_
qua_ lại
Hưng_ Long
đổi_ mới
gặp_ gỡ
hẻ o_l
thủ_đ ô
ngụy _trang
Cà _Mau
Cầu_ Hai
đảng_ viên
giật_ mình
xe_l ửa
_WHA P
giảng_ dạy
bưu_ điện
đóng_ góp
lúc_ nào
thỏa_ thuận
Mar tin
chăn_ nuôi
AI DS
Biển_ Lạc
hấp_ dẫn
her oin
nu ôi_
nhắn_t in
Nhơn_ Trạch
chiến_th ắng
hẻo_l ánh
2 9
5 5
A ma
B ị
B un
B ạc_L
C o
C ụ
C ử
C ây
C ăn
C ần_
D ọc
E d
G S
H ết
H ạt
H ải_
K ang
K iên
L ên
L ai
L ập
L iên_
M ường
N o
N ội_
S á
S ông
T T
T a
T ú
T ên
T ết
T iền
T ối
U bdul
V ũ
V ài
_ B
_ ước
_ phải
_ cách
_ kiện
a s
b éo
b iện_
b ớt
b ơm
c ay
c ực_
c ười_
c ấm
c ùng_
d ạo
d ồn
d ẹp
d iễn_
d ũng_
d ứt_
d ường_như
e nh
g o
g ò
g an
g ần_
h è
h an
h uống
h ôn_
h ằn
i e
k im
k il
l ơ
l ôi
l át
l ương_
l oài
l ắp_
m 3
m ật
m ar
m ép
m ức_
m ưa_
n ập
n ạo
n àng
n ấu_
n ăng_
n om
n ém
n ằm_
o r
o át
r o
r ã
r ể
r i_
r ay
r ao
r ồng
r uốc
r ối_
s ụ
s iết
s ập
t ả
t ắc
t ảng
t ầm
t iễn
t ồn_
t iền_
t òa_án
v ỗ
v ắt
v ai_
v òi_
x à
x ô
x ơ
x ấu_
y _tế
y ếu_
ê u_
í _d
ý _tưởng
Đ ôi
Đ ất
Đ ường_
Đ ầu
đ ỗ
đ ai
đ ắt
đ iếu
Ả nh
Ấ n_
ệ nh
ị a
ọ ng_
ớ i_t
_P ao
_P enh
_S a
ng ất_
ng ừng
ng ửa
ng ột
ng ang_
ng ùi
nh ậ
nh ổ
nh ật
nh ầm
ch ấ
ch ật_
ch ấm
ch ẳng_
ch ạm_
ch ống_
ch ơi_
th à
th ô
th a_
th an
th ận
th ạo
th ừa
th oại
th ầm_
th ượng_tá
_C ô
_C ầu
tr ì
tr ông_
tr iể
tr ọn
tr àn
tr ục_
tr ộm
tr iển_khai
ph ế
ph ỏ
ph iên
ph ê_d
là nh_
i_ học
i_ rối
gi ở
gi àn
gi ấc
qu i
qu ý
qu ang
qu ét
qu ầy
qu a_đời
t_ hoảng
uy ết
mộ c
Th ơ
Th ổ
Th iết
Th ật_
Th ám_tử
cho _dù
như _vậy
_th ú
_th iện
từ _thiện
Ch i_
Ch ồng
Ch ưa
Ch ẳng
Ch áu
Ch iếc
Ch uyến
Tr ước_
bà ng_hoàng
_t ại
_t ầng
Nh ớ
công_ dân
công_ bố
công_ trường
chú ng_
chú _ý
Kh u_
_d ạng
đá p
bả n_thân
_h ồ
_h iếm
Ph nom
kho ang
_đ ường
_đ ợi
_đ àm
_đ ảm
vì _vậy
vì _thế
ăn_ uống
_m ê
_m ịt
bộ _đàm
lớ n_
quy ển
máy _v
tay _tr
bố i_rối
chủ _động
cơ _
đầu_ mối
Hà m_
bu ông
bảo _t
i_th ơ
thu ẫn
Nguy ên
n_l ãm
âu_ thuẫn
do n
i_t ích
lu ồng
tự _nguyện
khách _quan
_c ộ
_c ôi
Bà _Tr
_n ổi
thành_ niên
dự _th
thời_ kỳ
thời_ bình
to n
_b ạc
con_ bạc
nước_ mặn
nước_ ngọt
Nguyễn_ Kỳ_Sơn
_Ch u
giấy _phép
_Th anh
chữ _nổi
thông_ cảm
du_ khách
du_ học_sinh
hiệ p_
học_ viên
Công_ việc
Chú ng_ta
già _làng
bắt_ buộc
ng_l ượng
người_ nhà
ấp_ nập
thú c_
hình_ dung
tài_ năng
đà i_tệ
_Ng ọc
quyết_ tâm
_M inh
bình_ quân
bình_ tĩnh
kỳ _thị
Ngh i_
rõ _r
kê u_
Thái_ Bình
sá t_
cảm_ ơn
cảm_ thấy
cảm_ động
tâm_ lý
ánh_ sáng
chờ _đợi
ý_ chí
mặt_ nước
ủy _ban
giáo _viên
_Đ ông
199 0
199 8
Vậy _mà
gó i
giớ i_tính
trang_ phục
trang_ trí
bệnh_ xá
cổ ng
al mer
Ngày _mai
võ _thuật
Đông _Du
197 0
Tiế ng
_Z eal
tổng_ hội
tác_ động
thường_ trực
ồn_ ào
Đồng_ Tháp
trọ ng_lượng
ra_ sao
tìm_ kiếm
thật_ ra
úc_ xá
Nam_ Trà_M
bạn_ đọc
mất_ mát
n_ng ập
Chính_ quyền
nghĩa_ là
trí _thức
trước_ mắt
âm_th anh
tính_ toán
quí _hiếm
pháp_ lý
biế n_
lên_ đường
mồ _côi
đô la
ghi_ âm
biểu_ diễn
hóa_ học
Lâm_ trường
hỏ i_thăm
Lâm _Nhi
sở _tại
_Du ẩn
trái_ phép
Thủ _tướng
bỗ ng_
Ba_ Hạo
tầm_ v
kiên_ quyết
mục_ đích
tiề n_bạc
tất_ bật
xó t_
đột_ ngột
Quỳnh_ Thanh
nhiệt_ độ
say _mê
chuyển_ giao
Vàng _Pao
lề u
đa_ số
phổ _biến
có_ khi
Phan _Văn_
kỷ_l uật
câu_ thơ
hố t_hoảng
hữu_ nghị
sú ng_
ược_ lại
Phan_ Thiết
Tiên _Sơn
ký_ ức
bom_ đạn
Hò e
hy _sinh
sắp_ xếp
ve _chai
Đặc_ biệt
trá i_tim
phiên_ tòa
Chín_ Ảnh
ký_t úc_xá
hợp_t ác
New _Zeal
thống_ nhất
sửa_ chữa
Huỳnh_ Tấn_
Lăng _Cô
cướ p
cựu_ binh
hạn_ chế
tươ i_
nguyện_ vọng
chưa_ thể
thí_ nghiệm
đề_c ập
khuôn_ mặt
an_n inh
Tư_H iền
Bạc_L iêu
biện_ pháp
dũng_ cảm
tồn_ tại
triể n_lãm
phê_d uyệt
Phnom _Penh
máy_v i_tính
rõ_r àng
Nam_Trà_M y
New_Zeal and
Huỳnh_Tấn_ Mẫm
1 A
3 9
5 _
6 4
9 9
B o
B ỉ
B ố
B ông
B ác
B iên_
B ọn
D ũng
H ội_
H ầu_
H ãy
I I
I a_
J o
J ơ
K hai
L ương
L ịch
L ưu
L uật
M C
M ùa
M áy
N ước
N inh_
P V
P ak
S u
S ong
S ang
T ừng
T ính
T ưởng
T iền_
V P
V ụ
V ẫn
V ấn_đề
W MC
X ong
X oài
Y oi
_ 5
_ đó
_ bộ
_ chịu
_ nghi
b ọ
b ợ
b ận
b át
b ạc_
b ằng_
c u
c õ
c ặ
c ọ
c ớ
c ày
c ược
c anh
c ậy
c àn
c ẩu
c qui
d ì
d ọ
d ại
d ược
d ầu
d ọa
d áng_
d i_tích
e s
g ật
g ắt
g ài
g ãy
h ẹ
h am
h ét
h ang_
h ối_
h ôm_qua
k em
k iệt_
k iêm
k ín_
l i
l ẻ
l ự
l ùng
l an
l ồng
l ân_
l ăn_
l ượt
l ầm_
l ầu
m ại
m ật_
m ạc
m âu_thuẫn
n ở
n ương_
n ảy
n én
n êu
o u
o ạn
p in
r i
r ét
r ãi
r ùng_
r ải_
s ững
s a_
s in
s ăn_
s ung_
s an_
t ò
t ệ
t ứ
t ái
t ưở
t en
t ấc
t ấp_nập
u ồn
v ơi
v inh_
v ướng
v oi
v ững_
x ả
x ỉ
x ông
x ôn_
Ô ng_
Ú t
ê nh
ó i_
ú p
ă cqui
Đ inh
đ iề
đ uối
ấ n_luyện
ằ n_
ẳ ng_l
ổ ng
ỡ ng
ợ i_
Ủ y
ủ ng
_N am_
_A nh
ng on
ng ập_
ng ậm
ng ón
nh ũ
nh ượng
nh ét
ch ê
ch ẽ
ch ăm
ch ài
ch âu_
ch èo
ch ặt_
ch óng_
ch ép_
th âm
th iệt
th ấu_
th uyền_trưởng
_D ung
_D ien
_C ông_
tr a_
tr ùng
tr án
tr ống
tr iệt_
tr uy_t
tr iệu_
n_ h
n_ v
n_ mát
kh ẩ
kh ối
kh ấn
kh ác_
kh ép
kh ốc_
ng_ vấn
ph à
ph iện
ph ối
ph ấn
ph úc_
i_ hợp
và ng_
gi ác_
gi ai_
nh_ tay
cá nh_tay
uy ên_
Th ú
Th ông_
Th ằng
Th ạnh
Th ủy
Th ừa_
Th ỉnh_thoảng
ay mon
đã i
a_ chọn
ướ t
ngh ìn
như _thế
ông_ già
co n_th
an om
hà i
_X uân
Ch u
Ch âu_
Tr ở
Tr ận
_t ư
_t ang
_t ải
nó ng_
Nh óm
số t_
Ng ô
Ng ọ
công_ lý
uộ t
chú t_
bị t
bị _thương
_l ái
_l ạnh
_l éo
Kh ó
Kh ổ
đá m_
_h óa
tu ổ
kho ảng_
_đ ặc
phá n_
_tr e
_tr ì
_tr ị
đề n
đề n_b
ăn_ mặc
ho p
_s ự
_s ản
sự _việc
ta xi
tay _lái
_v ị
_v ọng
_v ét
ba h
ba lô
bố c_
_WH VP
lo n
cơ _thể
nghiệ p_
en ri_
đồng_ hương
bu ồm
bảo _hộ
bảo _đảm
đố n
chuy ền
Gi áo
dư a_h
giả m_
Nguy ên_
n_t ử
n_t ất
quả _tang
ôm et
cao _nguyên
quá i_
lu ồn
kể _cả
tỉ _lệ
một_ vài
_c ụ
thủ _công
tình_ huống
nghề _nghiệp
Bà u
Bà _R
trẻ _con
_n ạn
thứ c_
10 _
phố i_hợp
giá _cả
giá _trị
200 1
nhân_ công
nước_ da
nghèo _
hoà n_tất
kinh_ phí
Nguyễn_ Đức_
Nguyễn_ Ái_
điệ n_
nhà_ nghỉ
_Th ị
_Ph úc
_Ph anom
gia n_n
mù _mịt
hiệ n_tượng
cố c
trả _thù
học_ phí
bất_ kể
tho ắt
tho áng
tho ải_
kiế n_tr
trung_ bình
thú _thật
thú _vị
hàng_ quán
hàng_ hóa
sinh_ hoạt
văn_ bản
thay _vì
thế_ kỷ
tư _thế
tư _cách
bình_ yên
vu ông
Cả nh_
cư _dân
Nguyễn _Chí
so ạn
cảm_ tình
lạ c_
đánh_ dấu
dân_ làng
cửa_ khẩu
nông_ nghiệp
ý_ định
ý_ nghĩa
đàn_ bà
tú i_
ng_t ượng
bí _ẩn
đồ _nghề
thân_ yêu
196 6
196 7
tích _cực
Lê _H
thương_ binh
ti n_t
tinh_ kh
biên_ phòng
độc_ dược
197 2
Hu ỳnh
đất_ liền
tổng_ số
vô_ số
vô_ địch
bản_ kẽm
_Nh ân
thiết_ bị
Hai_ Bà_Tr
hào _h
Đồng_ Xoài
máy_ bộ_đàm
Phạm _Văn_C
ngoại_ ô
Xuân_ Hòa
khỏe _mạnh
sổ _đỏ
căn_ bệnh
dữ _d
tiểu_ học
huy _động
tính_ cách
trụ _sở
hiế p
xung_ phong
áp_ lực
đặt_ hàng
phó _chủ
thầy _giáo
tuyên_ truyền
dày _đặc
hoang_ mang
giúp_ việc
biệt_ danh
hỏ ng
xa_ xôi
Đại_ học
Đại_ tướng
Đài_ Bắc
phóng_ sự
HĐ ND
trái_ cây
hu ấn_luyện
lẽ _phải
lâu_ dài
lâu_ lâu
Thứ _trưởng
195 9
Rạch_ Giá
ngân_ sách
thượng_ nguồn
thượng_ đài
Già _làng
tin_ học
dấu_ vết
tất_ nhiên
ni s
tùy _thân
Kiểm_ sát
sang_ trọng
tạm_ bợ
ngăn_ chặn
ngăn_ cản
đổi_ đời
Hưng _Nguyên
Văn_ phòng
khéo _léo
phổ _thông
kỷ_l ục
tạ p_
vừa_ qua
Tiếp _thị
bì _thư
de _Dien
sứ _quán
sôi_ nổi
vệ _sinh
xâm_ l
Đặng _Văn_
phi_ nghĩa
Quả _thật
tín_ hiệu
mãi_ mãi
truyền_ hình
Rơ_Châm_ Kiến
cấp_ cứu
lòng_ sông
Út_ Kang
tiếng_ nói
Quân_ khu
chữ_ cái
Nakhon _Phanom
xét_ xử
Bệnh_ viện
Một_ số
Tình_ hình
Vĩnh _An
mây _tre
sân_ bay
tiết_ lộ
quen_ biết
Hình_ như
PT NT
hờ n
huyề n_thoại
nú i_
vỉ a_hè
xinh_ đẹp
xóa_ sổ
phá_h ủy
bộc_ bạch
báo_h iếu
dự_ kiến
lúa_ nước
_Văn_D ĩa
Ama _Công
Cần_ Thơ
Ed en
GS TS
Sông _Cầu
hôn_ nhân
kil ômet
vai_ trò
vòi_ rồng
í_d ụ
Ấn_ Độ
chấ n_thương
thà n_mát
phế _liệu
phỏ ng_vấn
Thổ _Chu
Thật_ ra
bảo_t ồn
tầm_v ông
xót_ xa
súng_ đạn
Bông _Văn_Dĩa
Biên_ Hòa
Tiền_ Giang
Yoi h
lự a_chọn
rải_ rác
tưở ng_tượng
ten nis
xôn_ xao
điề m_
chặt_ chẽ
khốc_ liệt
Thừa_ Thiên
aymon de_Dien
Châu_ Thành
đền_b ù
enri_ Martin
dưa_h ấu
Nguyễn_Ái_ Quốc
gian_n an
thoải_ mái
Nguyễn_Chí _Thanh
Hai_Bà_Tr ưng
phó_chủ _tịch
1 20
3 1
3 7
4 1
4 _
5 1
5 _triệu
6 _
7 00
9 7
9 00
B Q
B h
B é
B ước
B ạn
B ữa
B iển
B ài
B ắt_
C L
D u_
D ương
D anh_
D ầu_
D ưới
G ò
G ọi
H ồng_
H ợi
H óa_
H enri_Martin
K S
K ie
L ễ
L ộ
L ao
L ắm
L ợi
M a
M y
M ông
M ày
M ành
M ười_
M ặc_
P ơ
P almer
R ời
R ừng
R aymonde_Dien
S a
S ợ
S ông_
T ố
T ờ
T oà
T in
T iên_
T ìm
T ức_
U don
V iện_
V ũng_
V KS
X á
X ô
X úc
X áng
X ung_
X uyên
X í_nghiệp
Z ơ
_ y
_ hà
_ Kh
_ nên
_ cơ
_ ạt
_ giúp
_ 2004
_ góp
_ khoa
b ơ
b iên
b ơi
b ừng
b ạo
b ại_
b ức_
b ìa
c ừ
c ấy
c ào
c ất_
c ập
c ương_
c út
c ắp
c õi
c ạnh_
d ĩ
d án
d ục
d iệt
d úi
d àn
d òng_
g ục
g ạch
g ọn
g ầy
h oàn
h oài
h ít
k i
k in
k iệt
k ẹo
k no
l ỏ
l ông
l iều
l ừa
l ặp
l óc
l ái_
l ánh
l ấp_
l ing
l ượm
m ệ
m ôi
m ẫn
m âm
m ạo
m óng
m ắt_
m ồm
m ừng_
m iễn_
m ệnh_
m ượn
n ể
n ông
n ồi
n on
o ong
o áng
p ra
p at
r ì
r ạ
r ải
r an
r em
r ành_
r ượt
r ớt
r ơm
r ụt
s u
s ông_
s ào
s ong_
s ắc_
t ơ
t ậ
t án
t inh
t im
t ấm_
t ắm_
t ưởng_
u i
v ờ
v ở
v ong
v an
v ời
v ặt
v ua
v ết_
v òi
v ót
x ăng
x ắn
x í_nghiệp
é t_
í u
ó p
ó c_
ú m
ý t
Đ á
Đ a_
Đ ấy
Đ ình_
Đ ịch
Đ en
Đ ài
Đ ạt
Đ ám
Đ ánh
Đ ứng
Đ ặng_
đ u
đ ù
đ ẹ
đ ờ
đ ăng
đ ồn
đ ắc_
đ ấm
đ ôi_
đ ùi
đ ẫm
đ iếc
Ư ớ
ư ỡi
ả _X
ầ n_tr
ẵ m
ặ m
ị n
ố m_
ỡ ng_
ợ n
ng ài
ng ắm
ng ạt
ng ậm_
ng ắn_
_R ô
_R ừng
nh á
nh ỉ
nh ọc
nh ọn
nh ánh
nh ấn_
nh ịp
nh ấc
nh ắm_
ch ỏ
ch ọi
ch ấp
ch ọc
ch iều_
ch ửi
ch ục_
th ò
th ái
th ần_
th áp
th ẩm
th ói_
tr ơ
tr ổ
tr âu
tr ích
tr úng
tr ầm_
tr ị_
tr ộn
n_ ho
n_ tay
n_ kết
n_ hút
kh ao
kh át
kh ẩn_
kh ủng
ng_ rỡ
ng_ hiến
ph ì
ph ơi
ph iêu_
ph iếu
i_ b
i_ ba
và i_ba
gi ơ
gi ục
gi ăng
gi ận_
iế p
qu ẩn
nh_ đê
t_ vọng
m_ ăn
m_ cụ
m_ giác
củ i
u_ Kế
Th ay
Th ường
Th ân
Th ưa
cho _phép
nhà _cửa
_th ần
_th ường
_th uộc
hà m
từ _
đó n_
đó i_
Ch ín
Tr anh
Tr ương
Tr ường_
bà n_t
_t ả
_t ỉ
_t ử
_t ích
_t iêu
_t uổi
Nh ật_
chỉ _đ
ân_ chương
công_ ăn_
công_ sức
công_ suất
bị ch
xe _cộ
ách _tắc
_l ịch
_l ợi
_l oong
Kh uyên
Kh ăm_
Kh oa
Kh ơm
đá ng_
bả ng_
_h ãi
_h ởi
_h ữu
Ph ụ
Ph ận
Ph ương_
Ph ần_
Ph óng_
tu ổi_
theo _đ
kho ảnh
_đ ùng
_tr ú
_tr anh
_tr ạng
_tr ộn
ăn_ xin
bộ _binh
ho r
ho an
ho an_
_s inh_
_s hop
_ch ế
_ch ương
_ch ơi
n_th ể
giờ _đây
tay _chân
_v ật
_nh ỏ
vợ t
đứ ng_
lo ong_
chủ _nhiệm
cơ _bản
cơ _ngơi
_ph ường
_ph út
_ph ạt
bu ồn_
Gi a
Gi ây
Gi ữa
Gi ải_
i_th ành
thu ở
thu ật
bao _b
vụ n
ác_ xã
n_l òng
n_l ỗi
n_l ội
khó _chịu
cao _đ
i_t ình
gh en
Qu í
Qu ân
tử _tội
một_ nửa
thủ _phủ
ngay _lập
ần_ hóa
_n ức
thành_ đạt
khu ất
hồ _hởi
phố _phường
điể n
to a
không_ gian
địa_ điểm
con_ số
nhân_ tạo
nhân_ chứng
khá t_vọng
đại_ biểu
đại_ dương
điệ n_tử
nhà_ cái
nhà_ riêng
_Th anh_
_Ph ả_X
thông_ qua
đường_ mòn
cố _tình
cố ng_hiến
dây _điện
bắt_ chuyện
bắt_ tay
ốc_ đảo
kiế m_ăn
Phú _H
trung_ tá
thú _y
khu_ phố
khu_ ủy
nghị _lực
hình_ như
hình_ sự
vị t
hàng_ hiệu
hàng_ rào
kế _t
thư _
đà ng_hoàng
hành_ nghề
hành_ lang
Trung_ Hữu
15 _
lư u
kết_ hợp
thế_ là
quyết_ liệt
_M inh_
_ng ại
Ngh ề
Ngh ị
Ngh iên_cứu
Ngh ị_
cư ỡng_
cư _trú
thanh_ bình
kiểm_ điểm
ngo an
ngo ái
thu_ giữ
thu_ hút
thu_ hẹp
giám_ sát
so i
lạ _thường
xử _phạt
_H iệp
cửa_ sổ
mặt_ mày
xác_ minh
cảnh_ báo
cảnh_ giác
đàn_ áp
phân_ phối
chế _biến
199 3
199 7
Hòa _An
SV HS
da han
giớ i_
trang_ bị
Bộ _trưởng
thân_ xác
thân_ thiết
196 3
196 9
bệnh_ nhân
phong_ tục
chứng_ nhận
chứng_ minh
Lê _Văn_
Hồ _Chí
il i
sợ _hãi
xe_ ôm
nguyên_ liệu
25 B
ưu_ đãi
Vì _thế
độc_ đáo
Hu ệ
tiêu_ dùng
Đị nh_
hội_ trường
mua_ sắm
bồ _
chuyên_ môn
100 _
vùng_ biển
bản_ vẽ
Tổ _chức
_g ỡ
_g ớm
_Nh iều
Hai_ Long
thuốc_ phiện
xứ ng_
Thành_ ủy
tiến_ độ
lãnh_ tụ
bù _loong
bóng_ rổ
ngư _dân
tí m
nghĩa_ vụ
danh_ dự
phần_ mềm
Tám_ Xáng
dữ _liệu
lợ n
tiểu_ thuy
thi_ hành
bộ_ máy
Cách _mạng
huy ết
tỏ _vẻ
tính_ mạng
quần_ đảo
Gia_ Lâm
thiếu_ niên
thiếu_ nữ
thiếu_ sót
dị u
dị _dạng
hiế u_
tội_ nghiệp
Là m_
lên_ tiếng
sức_ mạnh
hoàn_th iện
xi n_lỗi
thừa_ kế
tuyệt_ vọng
Hội _An
_Tr ọng_
mày _mò
nộ i_thành
nh_m ẽ
Kho án
lặ n_lội
Không_ những
Không_ thể
Hương _Rừng
Tân _Phước
ga s
tận_ mắt
at pra
tiề n_l
Hàng_ Mành
Quỳnh_ Lưu
lợi_ ích
mạ nh_mẽ
tức_ là
tức_ tốc
nhiệt_ tình
trà n_ngập
Phú_ Yên
Kiểm_ lâm
Tài_ nguyên
di o
tạm_ thời
tháo _gỡ
Tổng_ hội
bê tông
em_ trai
gặp_ mặt
hẻ m
lề _đường
thiên_ hạ
cô_ độc
thủ_đ oạn
Cơ _quan
rộ n_r
trưởng_ thôn
khảo _sát
quanh_ năm
tàn_ sát
thứ_ bảy
Bùi _A
Kế _hoạch
cam_ kết
mặc_ dù
sôi_ động
đoà n_kết
_Ngh ị
thâm_ niên
thiệt_ hại
trai_ gái
mãi_ lộ
nối_ liền
sâu_ sắc
Đinh_ Lễ
phầ n_thưởng
Thì _ra
nhà_tr ọ
nhà_v ăn
đầm_ phá
hồi_ hương
Nghĩ a_
toàn_ diện
Ban_ đầu
ka en
nỗ _lực
rộng_ lớn
tăng_ cường
chịu_ đựng
loại_ trừ
ghê _gớm
gian_ khổ
thợ_ mộc
Cát_ Bà
Mũ i
Sơn_ Trà
bầu_ trời
cân_ nhắc
câm_ lặng
hiền_ lành
tôm_ sú
vội_ vã
xuống_ đường
Đối_ với
ắng_l ặng
làng_ nghề
nhà_th ờ
Khon kaen
sáng_t ạo
Muk dahan
dưỡng_ khí
Co n_
Cử a_
Lập _tức
Sá u_Kế
dứt_ điểm
gần_ như
mức_ độ
nạo _vét
nằm_ xuống
xà _phòng
yếu_ tố
thầm_ lặng
trục_ vớt
chúng_ nó
tay_tr ái
dự_th ảo
Nghi_ Xuân
kêu_ gọi
Bo m_
Hầu_ hết
Jơ _Rai
Pak se
cặ m_cụ
hang_ động
ou t
sung_ sướng
tò _mò
xỉ u
Ông_ bà
Ủy _ban
chép_ miệng
khác_ thường
phúc_ thẩm
giai_ đoạn
như_thế _nào
chút_ ít
khoảng_ cách
nghiệp_ dư
Giáo _dục
Bà_R ịa
thức_ ăn
Nguyễn_Đức_ Hòe
tinh_kh iết
hào_h ứng
Phạm_Văn_C ội
xâm_l ược
Đặng_Văn_ Thanh
núi_ rừng
BQ L
Bắt_ đầu
Dầu_ Giây
Kie atpra
Mặc_ dù
Sông_ Đà
Toà n_bộ
Viện_ Kiểm_sát
Xung_ quanh
Zơ ra
cạnh_ tranh
kno ck
miễn_ phí
rạ ng_rỡ
đẹ p_
thói_ quen
trị_ giá
nh_đê nh
bàn_t án
chỉ_đ ạo
công_ăn_ việc_làm
Khăm_ Xúc
Khơm e
ngay_lập _tức
Hồ_Chí _Minh
tiểu_thuy ết
cặm_cụ i
Kieatpra pat
1 _triệu
3 2
4 3
5 2
5 9
6 1
6 2
9 5
A g
A n_
A di
B S
B i
B ồ
B ấy
B ao
B ắt
B ắc_
B er
B ưởi
C A
C M
C ần
C ơn
C hàng
C ục
C ty
C àng
C ôn_
C ẩm_
D V
D ự
H uyện
H ậu_
H HC
H iệp
I P
K ẻ
K ể
K inh
K ua
K iểu
K iêu
L a
L a_
L ang
L àng
L ong_
L ang_
L ĩnh
L ớn
L úa
M ã
M ưa
M iền
M át
M ục_
N ào
N inh
N ước_
N ậm
R o
S p
S ức_
T ô
T ới
T ày
T ra
T ập
T am
T ác_
T ập_
T ùy
T òa_án
T NH
V o
V iết
V í_dụ
V IP
X ác_
Y ến
Y ết_
_ như
_ ải
_ lại
_ qua
_ học
_ Lan
_ giá
_ điểm
_ xuất
_ chiến
_ 500
a b
b y
b á
b ướ
b ách
b ám_
b ực_
b ước_
b ắp
b ạt_
b ăng_
b ọt
b ầu
b ừng_
b iếu
b ưởi
c ỗ
c ự
c ong
c ân
c ước
c âm
c ài
d ỗ
d ành_
d ần_
d uyên
d ẫu
d ẫn_
e l
g ã
g õ
g ọ
g ay
g ươ
g ương
g ặt
g ậy
g ạt
g ánh_
h ẳ
h ồng_
h ương_
h ăng
h ột
h ảo
h ốc
h ùng_
h ầm_
h iển_
h ốt
h ụt
h uống_
k ệ
k ong
k inh
k iều_
k im_
k ẹt
l ó
l ỡ
l iên
l ục
l ắc
l ầm
l ắp
l ôi_
l ính_
m ẻ
m ỹ
m ai
m ỏi
m iệt
m en
m ắng
m ốc
m ang_
m ệt
n e
n et
n ấy
n áo
n ản
n ặc_
n ín
n ão
n ắng_
n ếu_
n âng_
r ú
r ũ
r òng
r ực
r ạng
r ụng
r ắc_
r on
r òng_
r ầm_
r ọt
r ứa
r ựa
r ưỡi
s s
s ò
s ần
s im
s ơn_
s ườn
s ạch_
s ụp
t e
t ao
t iên_
t ôn
t ặc
t ái_
t iện_
t iệc
t ượng_
t iêm
t ới_t
u ần
v a
v ượ
v a_
v áng
v ọt
v ẫy
v ựa
v ùi
v ĩnh_
v iêm
v ướng_
w a
x ới
x ăm
x im
x ít
Á o
Â n
ã nh
ì _
í p
ò m
õ m
ú _
ú y
Đ ề
Đ ời
Đ âu
Đ ành
Đ iều_
Đ ộng
Đ èn
Đ BS
đ ơ
đ ương
đ ời_
đ ặc
đ ậu_
đ ược_
ư ỡng
ẹ n_ng
ẻ o
ế p
ễ n
ệ ch
ọ n_l
ố p
ố n_
ộ p
ở i_t
ỡ i_
ữ _đoàn
_N hàn
_P ẹt
CT P
ng ỡ
ng ần
ng ách
ng ắt
ng ặt
ng âm
ng át
ng ạc
ng óng
ng òi_
ng ột_
ng ồi_
ng ược_lại
nh e
nh ô
nh ả
nh ở
nh uận
nh ằn
nh ốt
nh áy
ch ả
ch ao
ch uộ
ch âu
ch âm
ch át
ch ằm
ch óc
ch ập_
ch ốc
ch ôn_
ch ầu
ch ậm_
ch ìm_
ch ừng_
ch ốt
ch ằng_
ch ằm_
ch ọn_l
th í
th ao
th ải
th ăng
th iêng
th ắc_
th ấm
th ăm_
th ấm_
th ốt
th èm
_D uy
_D ũng
_C ường
_C át
_C út
tr ố
tr ữ
tr ân_
tr iền
tr inh_
tr ưng
tr ấn_
tr ôi_
tr iết_
n_ tu
n_ nghị
n_ hình
n_ cảnh
n_ dẹp
kh iển
kh ởi
kh ôi_
kh ôn_
kh ởi_t
ng_ qu
ng_ sốt
ph i
ph u
ph ao
ph an
ph ạt
ph ạm_
ph ẫu_
ph oto
ph ẳng_l
và n
gi ận
gi ết
gi ặt
gi ùm
qu ơ
qu ật
qu ấn
nh_ thành
t_ mù
t_ ngã
cá n
cá p
cá m_
cá _c
uy _Ng
u_ mến
Th ợ
Th áng
Th iệu
Th am_
Th áng_
Th ượng_tá
cho _nên
ngh ênh
ông_ tố
đi ên
nhà _s
họ ng
họ _hàng
_th u
_th ai
_th áng
_X uyên
_X ẩm_
cả n_tr
Ch ư
Ch u_
Tr iều
Tr úc
Tr ực
Tr ăng
thì _th
bà i_học
bà i_thơ
_t ường
_t ùng
_t iên
_t inh
_t âm
nó n
Nh a_
Nh ận
Nh ất_
Nh iệm_vụ
chỉ nh_
chỉ _thị
Ng a
Ng ôi
Ng oại_
_Nb y
mà i
mà u_
ngày _tháng
ân_ cần
ân_ hận
công_ sự
công_ bằng
công_ cuộc
công_ chức
tiế n_bộ
xe _h
chiế m_
chiế n_l
_l uyện
_l ớn
Kh a
Kh ang
Kh ác
Kh ắc_
Kh ệt
_d ị
_d ày
_d ẫn
_d ành
_d iệu
_d ưỡng
_Q u
_Q uốc
má u_
_h ướng
Ph òng
Ph ong_
chí t
chí _hướng
chị t
kho anh
kho ăn
kho áng
kho ét
kho ai_
_đ ơn
_đ ắng
_đ ài
_đ ắp
_đ ẩy
_đ oán
vì _sao
phá _án
_tr ở
_tr ường
_tr ọng
đề _phòng
ăn_ ở
ăn_ học
ăn_ khoăn
_m ắt
_m ối
bộ t
cứ _thế
ho ắt
ho ãn
_s ung
_s ánh
lớ n_l
sự _kiện
_ch ữa
_ch ọi
_ch uyền
n_th ất
ta m_giác
ồng_ trại
ồng_ phong
ung_ l
_nh ập
cách _thức
lo ạn
lo ãng
tà u_
ết_ tật
chủ ng
chủ _nhân
chủ _lực
cơ _chế
nghiệ t_ngã
_ph ú
_ph ào
đồng_ hành
ường_ trình
bảo _mật
Gi ó
Gi anh
i_th ảo
làm_ nên
làm_ đồng
làm_ ruộng
làm_ chứng
làm_ giàu
làm_ mướn
giả n_
n_tr ẻ
n_l ực
cây _c
cây _b
n_t ụ
n_t ập
quả n
quả n_tr
quá _
quá _tải
báo _động
xu ôi_
tự _vệ
Qu á
Qu ay
tổ _tiên
chứ c_vụ
hộ i_thảo
một_ ít
_c âu
am_ mê
tình_ nhân
tình_ cảnh
phát_ sinh
phát_ hành
phát_ xít
_n át
thành_ phần
thành_ thạo
bỏ _qua
bỏ _mối
thứ _trưởng
ong_ Khai
10 _triệu
to át
to _đùng
không_ chỉ
địa_ vị
_b iệt
con_ em
Nam _Du
nhỏ _nh
nhân_ đạo
khá nh_thành
liên_ kết
hoà nh_
kinh_ hoàng
kinh_ khủng
kinh_ ngạc
điệ p
_Ch iểu
phụ c_
nhà_ giáo
nhà_ khoa_học
thực_ hành
thực_ đơn
thực_ địa
chính_ đáng
_Th ắng
_Ph ằn
thông_ thoáng
thông_ điệp
lý _lịch
quê _nhà
quê _quán
hiệ n_th
đường_ kính
đường_ ray
chu ồng_trại
cố _hương
trả _góp
vô _h
vô _tư
bất_ chính
bất_ thường
bất_ tỉnh
bất_ lực
bất_ hợp_pháp
_Văn_ Lâm
dây _chuyền
cụ _già
ng_l ão
kiế n_nghị
nguy _cơ
người_ yêu
mở _cửa
trung_ thực
đổ _x
thợ _hồ
tài_ nguyên
TP _
tham_ quan
đối_ xử
Lo ọng
sinh_ sản
đà m_
_Ng uyên_
ruộ t_
văn_ nghệ
văn_ chương
Thanh _Sơn
tư ới
tư _tưởng
_ng án
_ng àng
bình_ dị
gà u
gà _chọi
xuất_ sắc
Nhà n
quan_ chức
ngo n_
ngo ắt
thu_ gom
dù _sao
Trường _Sa
Nguyễn _Văn
Nguyễn _Công_
chiến_ hào
so _sánh
sử ng_sốt
lạ nh_
đánh_ phá
đánh_ đập
Ba _Châu
Ba _Duẩn
_H ữu_
_H CM
kẻ o
kẻ _thù
khủng_ hoảng
lã nh
tâm_ trạng
giải_ trình
12 _
mu ôn_
phân_ cấp
phân_ biệt
phân_ nửa
199 2
199 5
199 6
da s
đồ i_
Thị nh
Thị _Th
_x ác
thân_ thể
thân_ nhân
thân_ tình
thân_ phận
196 0
196 8
mô _tả
Đồng _D
nghỉ _dưỡng
Lê _Văn
thương_ lái
thương_ mại
Hồ _Văn_
Hồ _H
Hồ _Trọng_
võ ng
khí _thế
phương_ pháp
ghe n_tu
Đông _Nam_
Tư _vấn
Tư _Mau
chăm_ chỉ
197 1
197 8
thủy _điện
Bình_ Minh
Bình_ Thạnh
lũ i
vi ru
Đị a_
ban_ ngày
ban_ chấp_hành
hội_ chợ
hội_ nhập
bồ _câu
đất_ đai
khả _nghi
quân_ sự
quân_ tình_nguyện
tập_ hợp
tập_ kết
ngủ i
vật_ chất
thở _phào
cung_ ứng
nổi_ bật
khuy ết_tật
hoàn_ chỉnh
Đồng_ thời
Trần_ Minh_
Thành_ Bỉ
Tân_ Bình
heo _h
mơ _ước
ra_ vào
Phạm _Ngọc_
nhất_ định
trợ _lý
Quảng _Ninh
thơ _
thất_ vọng
Trần _Ngọc_
cầu_ dao
Cuộc_ sống
danh_ hiệu
lệ ch
mã nh_
sư _đoàn
tiểu_ khu
phòng_ hộ
cú p
huy ết_
tỏ a
Nguyễn_Thị _
thiếu_ tá
bổ _sung
đặt_ cược
ly _dị
lên_ lớp
198 5
198 6
dưỡ ng_lão
ghi_ nhận
lưu_ ý
nghiêm_ trọng
biểu_ hiện
biểu_ tượng
hoang_ dã
hỏ i_
chân_ dung
Kho ảng
Kho a_học
sở _hữu
đê m_
che _ch
trái_ đất
Thủ _phạm
Không_ khí
Nông_ nghiệp
Năm_ Lời
đẩy _mạnh
quyề n_
hiệu_ trưởng
mở_ đầu
bú n
tận_ tay
tận_ dụng
Quảng_ Trị
tin_ vui
tin_ cậy
kiên_ cố
đích _thân
ới_ lại
ới_ đây
lợi_ dụng
lợi_ nhuận
Duy _Xuyên
mề m_
qua_ ngày
Thời_ điểm
định_ cư
Tài_ chính
no n_trẻ
sang_ nhượng
chi_t iêu
Hữu _Nghị
em_ gái
hải_ quân
hải_ sản
thiên_ nhiên
thẩm_ quyền
thẩm_ vấn
trong_ sáng
đội_ trưởng
cô_ giáo
tối_ đa
150 _
Báo _cáo
hiểm_ trở
lê nh_đênh
tủ _lạnh
nhập_ cư
nhập_ khẩu
chung_ cư
Trị _An
Trương_ Xuân_
cứu_ hộ
_WHA DV
giảng_ đường
cần_ cẩu
cần_ mẫn
thứ_ ba
Tiếp _tục
biết_ bao
Bùi _Văn_
Xây _dựng
Xây _Xẩm_
sai_ phạm
_Ngh ĩa
nhì n_
thiệt_ mạng
t_m ùng
t_m ỏi
Nhân_ dân
trai_ tráng
bồi_ dưỡng
tín_ dụng
bó _tay
lời_ nói
rừng_ núi
rừng_ phòng_hộ
tại_ chức
vòng_ hoa
chết_ chóc
phấn_ đấu
Chợ _L
Quân_ đội
cầm_ đầu
Dân_ làng
Kinh_ nghiệm
biển_ số
kính_ hiển_
lây _l
minh_ chứng
mong_ muốn
nỗ i_
rộng_ rãi
xương_ cá
ngao _ngán
chu_ cấp
sống_ chết
Giờ _đây
thợ_ máy
bút_ chì
Me kong
ba_ gác
dụ m
mị t_mù
mị t_mùng
rí u_
vò m
óm_ lại
thẳng_ th
khám_ nghiệm
Phu _Phả_X
Phu _Cút
khuyến_ khích
đèn_ pin
Bị _cáo
Lai _Châu
Liên_ Xô
Mường _Pẹt
No ong_Khai
Nội_ vụ
cay _đắng
cực_ kỳ
lắp_ đặt
năng_ suất
xấu_ số
nhậ n_thức
chống_ chọi
chơi_ vơi
trì u_mến
lành_ mạnh
cơ_ quan_
hiệp_ định
thúc_ đẩy
tươi_ cười
Ia_ Me
bọ _hà
cu ồng_phong
cọ p
hối_ hả
kiệt_ sức
kín_ đáo
lầm_ lũi
rùng_ mình
san_ sát
vinh_ quang
thấu_ hiểu
khẩ u_
đám_ cưới
bah t
bốc_ vác
Nguyên_ nhân
nghèo_ khó
kiến_tr úc
Cảnh_ sát
lạc_ bộ
túi_ xách
Lê_H uy_Ng
điềm_ tĩnh
Bh ling
Lộ c_
Lao _động
Pơ loong_
Tiên_ Long
Tức_ là
Vũng_ Tàu
bức_ xúc
dòng_ chảy
lái_ buôn
mệ t_mỏi
mạo _hiểm
rành_ rọt
vết_ thương
Đa_ số
ngậm_ ngùi
ngắn_ ngủi
nhấn_ mạnh
n_ho i
phiêu_ bạt
Trương _Văn_Lâm
Nhật_ Bản
theo_đ uổi
hoan_ nghênh
bao_b ọc
thư_ ký
Nghị_ quyết
cưỡng_ hiếp
bồ_ bịch
xứng_ đáng
Bom_ Loọng
Ag rí
Adi das
Bao _giờ
Ber lin
Côn_ Đảo
La_ Gi
TNH H
Yết_ Kiêu
bám_ trụ
bừng_ bừng
dành_ dụm
dần_ dần
gươ l
hẳ n_hoi
nặc_ danh
nắng_ mưa
rắc_ rối
sạch_ sẽ
tới_t ấp
vượ t_
vướng_ mắc
xim ăng
ĐBS CL
ẹn_ng ào
ngột_ ngạt
chìm_ xuồng
chằng_ chịt
chằm_ chằm
chọn_l ựa
thắc_ mắc
trân_ trọng
trấn_ an
trôi_ dạt
khôi_ phục
khởi_t ố
phẫu_ thuật
phẳng_l ì
cá_c ược
Tháng_ Tám
cản_tr ở
Nhất_ là
xe_h ơi
Khệt _Phằn
lớn_l ao
cây_b út
đổ_x ô
Hồ_Trọng_ Bình
ghen_tu ông
Đông_Nam_ Á
viru s
Xây_Xẩm_ Bun
kính_hiển_ vi
Lê_Huy_Ng ọ
Pơloong_ Zơra
3 _triệu
4 7
4 9
6 3
7 2
7 6
7 7
8 4
8 00
A x
B H
B á
B í
B ơ
B ả
B ỏ
B iên
B ạn_
B ởi_
B iết_
C C
C ố
C âu
C ửa
C ặp
C âu_
C ánh
C ậu
C ấp_
C ẩm
C ầu
C il
C uối
C ien
C ap
D Đ
D ương_
D ấu
H ễ
H ệ
H ổ
H ộ
H iệ
H ay
H oàn
H ầm
H ảo
H òa_
H ưởng_
H ôm_qua
H óc_
I n
I san
J im
K ý
K ơ
K ỷ
K ịch
K en
K CN
L ò
L ớ
L ấy
L ưng
L ục_
L ưu_
L uận
L ớp
L ữ_đoàn
M o
M a_
M ắt
M ua
M ôn
M ạnh
M ậu
M at
M ới_đây
N iên
N il
O ly
Q uy
R uộ
R ạng
R ùa
R ma
S ư
S uy
S ống
S ắp
S ót
S uối
S ak
T N
T Đ
T ử
T ự
T ường
T ất_
T ại_
T ấn
T am_
T uyên
T ỉnh
T ụi
T amp
T iệp
T ường_trình
T óm_lại
V _
V ị
V ang
V án
V inh_
V ườn
V ui
W B
W ai
W eb
W as
X oan
_ số
_ khi
_ âu
_ đá
_ kho
_ máy
_ bao
_ giao
_ nghị
_ nghiệm
_ cảm
_ địch
_ yếu
_ 3_
a d
a wa
b e
b ẻ
b ụ
b i_
b ới
b ùng
b ồng
b ết
b ưng
b ồn
b er
b ến_
b uốt
b ãi_
b ẵm
c ù
c òng
c ạn
c ành
c úng
c ọng
c ắt_
c ãi
c ai_
c ấm_
c ắm_
c uộn
c ãi_
c tông
d è
d ải
d an
d eo
d ạn
d ương_
d ối
d iễ
d ắt_
d ải_
d ẫm
d uyệt
d íu
d ông_tố
e e
e x
e ng
g í
g ả
g ập
g am
g ối
g ầm
g ấp_
g ùi
g ợi_
g ộp
h ư
h ông
h áo
h in
h ung_
h ạnh
h éo
h ai_
h ậu
h iểu_
h ủy
h iểm
h ùm
h ữu
h ing
h uyện_
h _Rô
i h
k è
k eo
k en
k ru
k íp
l è
l ố
l ụ
l ủ
l ông_
l án
l ách
l ật_
l ia
l ậu
l óng_
l ùng_
l ĩnh
l ựa
l ùa
l âng
l ìa
m i
m y
m ổ
m ớ
m ỡ
m ải
m an
m iết
m iên
m iệt_
m ạch_
m ẫu_
m ới_t
n ô
n ử
n uố
n an
n ái
n ắp
n ạp
n ép
n ứa
n ấm_
n er
n ứt
n áu
n uốt
n ơi_
n ếm
o o
o ạc
o ai_
o ằn
r à
r è
r ê
r ò
r ả
r ắ
r ờ
r anh
r ang
r ường
r ung_
r âm_
r ực_
r ung
r ần_
r ảnh
r áp
r ầu
r ót
r oi
r lâng
s ạ
s ôi
s ơn
s en
s ạp
s iêu
s on
s óng_
s ầm_
s ừng_
s ắm_
s ẹo
t ề
t ọ
t ăm
t iết
t eo
t ắt
t áo
t út
t ia
t ắt_
t ít
t ản_
t ôn_
t er
t òa_
t ẩy
t ĩnh_
t ột_
t ủi
t ới_
t uột
v í
v ù
v ĩ
v ạ
v ẹ
v ườ
v ân
v án
v anh_
v a_đ
v ạch
v ánh
v iễn
v ắng_lặng
w ar
x ì
x ạ
x inh
x át
x ấp
x ích
x cơ
x ám
x ướng
x ót
x ịn
y ể
y _d
y mp
z a
z an
Á i
Â u
Ý _tưởng
ã nh_
í m
ô _địch
ý _m
ý _đồ
Đ ạ
Đ ất_
Đ iền
Đ ừng
Đ ua
Đ ẹp
Đ ợi
Đ ơn_
Đ ầu_
Đ iểm
Đ ỉnh
Đ iện_
đ ĩ
đ ũ
đ ẽ
đ ụ
đ ới
đ ong
đ ận
đ ức
đ ực
đ ương_
đ iệu
đ ạm
đ ắp
đ ụng
đ ài_
đ ập_
đ ậm_
đ ùa
đ ưa_
đ ìa
đ ượm
ạ n_th
ạ _tầng
ả _lời
Ấ y
ẳ m
ặ n_
ế ch
ệ n
ỏ m
ỏ ng
ồ _ạt
ổ n_ng
ỗ ng
ộ ng_t
ớ n_
ừ m
ự t
_N i
_N á
_N ăm
_V õ
_V iên
_V ạn
_V ẳn
_S i
_S ương
_S en
_S hin
ng ất
ng ây
ng ực
ng ưng
ng ần_
ng uôi
ng ôn_
ng ẩn_
ng ổn_ng
nh i
nh ã
nh ơ
nh ái
nh ăn_
nh át
nh iệt
nh ắm
nh ạt
nh iệm
nh ím
ch ừ
ch ày
ch ải
ch án
ch ăn
ch ành
ch inh_
ch ội
ch ăng
ch éo
ch iêu
ch òng_
ch an_
ch ùi
ch ắp_
ch ìa
ch ớp
th è
th iê
th ập
th ầm
th ọc
th ấu
th ôi_
th ăng_
th án_
th ắng_
th ía
th ắng_l
th ung_l
th ẳm
_D âu
_C ảnh
_C ậm
tr ân
tr ương
tr áo
tr ời_
tr ùng_
tr ăng_
tr ạm_
tr ệt
tr êu_
n_ W
n_ x
n_ con
n_ Quốc
n_ phép
n_ kịch
n_ kém
n_ hò
kh ăn_
kh ung_
kh ôn
kh en
kh ung
kh iêng
kh ốc
kh ép_
ng_ như
ng_ hồ
ng_ Trung
ườ m_
ph ai
ph ổi
ph ật
ph iền
ph iền_
ph un
ph ẫn_
là o
i_ ro
i_ Đèn
gi ã
gi ỗ
gi ường_
iế u_
qu ấy
qu ít
qu ầng
qu ẹo
nh_ rạch
nh_ lệch
t_ l
t_ cống
t_ giây
t_ quãng
cá t_
m_ làng
có i
có _thai
mộ ng
u_ đ
Th iện
Th ời
Th ăng
Th ưởng
Th ượng
Th ăng_
Th uyền
Th ạch_
Th ượng_
Th ak
Th uyền_trưởng
Th iếu_
a_ xe
a_ khóa
ướ t_
cho áng_
cho ck
ai l
ngh iên_
ngh iệt
ngh ẹn_ngào
co i_thường
KT X
đi nh
đi ên_
đi êu_
an mar
nhà n
nhà _m
họ p_
ra u_
_th ông_
_th ước
_th iết
_th ẩm
hà m_
_X anh
au l
cả i_th
con tai
Ch i
Ch iế
Ch ao
Ch ân_
Ch ạy
Ch ắc_
Ch amp
Tr ưa
Tr ãi
Tr uyền
Tr ả_lời
để _ý
để _dành
bà i_
bà _mẹ
bà n_bạc
bà _cụ
_t á
_t ân
_t ìm
_t ấu
_t ọa
Nh úm
chỉ _tiêu
chỉ _dẫn
iể ng
Ng ân_
Ng ọc_
Ng ược_lại
Ng uồn
mà n
mà nh
ngày _tr
ngày _sinh
ân_ thủ
công_ nhận
công_ phu
chú c
chú _trọng
tiế c_
_l ũ
_l ở
_l ượng
_l ộn
_l ửng
_l ãnh
Kh ải
Kh ắp
Kh ánh_
Kh át_
_d ạ
_d ỗ
_d ữ
_d ịch
_d ặn
má t_
má i_t
việ n_trưởng
_h ức
_h ỏi
_h ạ_tầng
Ph ước
Ph iên
Ph ôn
Ph òng_
Ph áp_
Ph át_
tu ý
tu ần_l
tu ân_thủ
áo _l
kho ải
kho ác
kho ảnh_
_đ à
_đ ề
_đ au
_đ âu
_đ ạc
_đ iện_t
ăn_ nhậu
ăn_ thua
_m ọ
_m ay
_m ẩn
bộ _đồ
ho ạn
ho ảng_
ho ạn_th
em ail
_s ợ
_s ăn
_s ức
quy ến_
a_đ êm
_ch ợ
_ch ất
_ch ấp
_ch ướng
n_th ờ
ta n_
ta n_t
giờ _phút
tay _
_v ơ
_v iết
_v iện
_v ăn
_v ực
_nh í
_nh ận
_nh õm
cách _trở
ba r
ba zan
bố _già
ám_ ảnh
xã _giao
đứ t_quãng
lo a
lo _âu
tà n
thế _chấp
chủ _ch
19 50
19 45
cơ m_
cơ _mà
_ph í
_ph iên
_ph ần_hóa
đồng_ sự
đồng_ bằng
đồng_ nghĩa
đồng_ minh
Hà _Đông
Hà n_Quốc
bu ông_
bu ýt
bảo _lãnh
Gi ọng
Gi áp
âm_ mưu
i_th ức
i_th ảm
i_th oát
làm_ chủ
làm_ công
n_tr ại
n_tr ường
n_tr uyền
ác_ viên
n_l ời
n_l ỏi
cây _x
ực_ thăng
quả _quyết
Hải _Dương
cao _n
cao _cấp
cao _tuổi
cao _điểm
i_t ử
i_t iết
i_t ác
quá _kh
báo _tường
gh ét
tự a
tự _động
tự _tạo
Qu i
Qu ỳ
tổ n_thất
tỉ a
tỉ _phú
tử _nạn
thể _dục
tố n_kém
chá n_n
chứ ng_t
một_ mực
trở _ngại
Mỹ _Sơn
Mỹ _Hiệp
_c ào
hay _là
tình_ thế
ngay _ng
phát_ động
phát_ điện
phát_ minh
phát_ huy
phát_ biểu
Bà i_học
Bà _cụ
Bà n_tay
hệ _sinh_
giao _kho
_n eo
_n ăn
_n ỗi
thành_ tích
Bình _Ch
Bình _Sơn
bỏ ng
bỏ _mạng
_qu ê
dự _định
hồ n_
10 5
thời_ khắc
to _lớn
không_ những
địa_ chất
giá p_
giá _thành
200 _
200 _triệu
con_ nước
con_ nhỏ
nước_ nhà
nước_ sạch
nước_ ngầm
khá nh
khá n_
liên_ kế
liên_ hồi
hoà ng_
đại_ dịch
Nguyễn_ Lê
Nguyễn_ Thành
Nguyễn_ Thành_
Nguyễn_ Đình
Nguyễn_ Đình_
Nguyễn_ Bá
_Ch ồn
_Ch rlâng
phụ _cấp
thị nh_
nhà_ báo
nhà_ ga
nhà_ xưởng
nhà_ rường
thực_ dân
thực_ nghiệm
thực_ chất
thực_ phẩm
chính_ trị
_Th ành
_Ph ụ
gia ng_hồ
chữ a_
thông_ số
lý _thú
hiệ n_trường
đường_ sắt
điều_ hòa_
điều_ chỉnh
điều_ khiển
chu i_
cố _vấn
vô _tội
đo ạt
bất_ khả
Công_ trình
Công_ lý
ký _sự
_Văn_ Bơ
già _yếu
già _dặn
không_thể _nào
_kh áng
_kh át
_kh ẩu
bắt_ gặp
cụ m
ng_l ẳng
ng_l iêng
ng_l ưới
cáo _trạng
kiế p
lú ng_t
người_ lớn
nhớ _thương
Phú _Th
Phú _Quốc
30 _triệu
trung_ cấp
đổ _bộ
thú _dữ
thợ _săn
nghị _định
hình_ thù
hình_ hài
ngờ _vực
tham_ dự
sinh_ học
sinh_ tử
sinh_ nhật
hành_ khách
hành_ hạ
hành_ quân
lá n_trại
Trung_ tá
lư ỡi_
tuy _nhiên
_Ng ừm
Tuy _vậy
văn_ khoa
thay _thế
Thanh _Nhàn
tư _nhân
tư _liệu
quyết_ toán
_M ả
_ng ác
_ng oại
_ng uồn
_ng oạc
an_ ủi
bình_ dân
kỳ _diệu
hạ ng_m
hạ _nguồn
xuất_ thân
xuất_ nhập_khẩu
chợ _phiên
thanh_ toán
thanh_ thiếu_niên
quan_ sát
ngo èo
ngo ằn_
thu_ mua
đặc_ điểm
đặc_ sắc
đặc_ chủng
đặc_ nhiệm
kê nh_m
kê nh_rạch
sản_ phụ
chiến_ khu
so r
đơn_ độc
đơn_ sơ
cảm_ phục
cảm_ thông
_L ý
_L ong
_L ộc
Thế _mà
Ba _Vạn
_H ồ
dân_ nghèo
dân_ lập
dân_ quân
cửa_ ngõ
lã ng
tâm_ nguyện
tâm_ niệm
ầm_ ĩ
ngu ồn_
ngu ệch
mặt_ biển
12 5
kích _thước
mu ỗi
ủy _viên
cảnh_ ngộ
cà rem
cũ ng_như
cha t
phân_ cách
phân_ công
Lộc _Ngãi
Lộc _Phú
_Đ à
_Đ ình_
chế _xuất
199 1
Hòa _Châu
đồ _chơi
đồ _vật
Bộ _
_x ứ
thân_ hình
thân_ thuộc
196 2
196 5
ấm_ áp
khai_th ông
cổ _phần_hóa
phong_ bì
phong_ phú
nghỉ _tay
nghỉ _ngơi
hiện_ diện
Lê _
Lê _Duẩn
Lê _Minh_
thương_ lượng
thương_ tích
thương_ hiệu
thương_ mến
trách _móc
Ngày _
Hồ _T
_T ẻ
oa t
phương_ thức
xe_ buýt
ghe _cào
nguyên_ tắc
tinh_ anh
tinh_ tế
tinh_ vi
Đông _Dương
Tư _Cậm
niề m_
tương_ đương
_Văn _S
chăm_ chú
chăm_ lo
chăm_ bẵm
độc_ hại
thủy _sản
Hu ân_chương
tiêu_ biểu
ban_ đêm
ban_ hành
Long _An
bồ i_thường
quân_ phục
quân_ hàm
chuyên_ ngành
_r ỉ
_r ơi
_r áo
_r ối
ca ctông
tổng_ công_ty
vô_ cảm
vật_ tư
vật_ vã
vật_ lộn
vật_ vờ
vùng_ cao
nói_ năng
nói_ dối
bản_ địa
_g ắt
mê _mẩn
tác_ chiến
đề_ xuất
thiết_ tha
thiết_ giáp
Đào _Viên
khuy ên_
nghệ _thuật
nghệ _sĩ
chuẩn_ mực
Hoà n_cảnh
cỏ _tranh
cỏ n_con
cỏ _năn
đau_ khổ
đau_ xót
ống_ bơ
thử _nghiệm
động_ dục
thuốc_ thử
thuốc_ nam
thuốc_ lào
máy_ khoan
máy_ ghi_âm
máy_ phát_điện
cơ_sở _hạ_tầng
lâm_ tặc
Thành_ ra
tiến_ công
Nguyễn_Văn_ Kiệm
Tân_ Qui
Võ _Thị
Võ _Nguyên_
bù _đắp
duy _trì
ra_ hiệu
thật_ tình
phản_ đối
phản_ xạ
Phạm _Phương
ngoại_ giao
Xuân_ Hương
16 0
bóng_ tối
bóng_ dáng
nhất_ thiết
trợ _cấp
trợ _giúp
bàn_ chân
40 _
Nam_ kỳ
Nam_ Định
ổi_ sáng
thất_ nghiệp
nghiê m
Chính_ sách
Trần _S
cầu_ thang
cầu_ cảng
cầu_ siêu
Cuộc_ chiến
lệ _thuộc
lệ _phí
sơ _thẩm
ắp_ nơi
trực_ thuộc
đối_t ác
Giá _Rai
Qua ng_Trung
bo ong
căn_ hộ
mã _tấu
sư _tử
tiểu_ liên
yên_ ổn
chi_ bộ
trước_ hết
trước_ kia
phòng_ thủ
Nghe _đâu
Na chock
huy _chương
nội_ bộ
nhẹ _nhõm
quí _giá
quần_ đùi
quần_ quật
Gia_ Định
Gia_ Lai
Nguyễn_Thị _T
Anh_ chị
tội_ ác
đặt_ cọc
cờ _bạc
la n_truyền
sức_ ép
sức_ lực
Đoàn _Văn_Bơ
đe n_
ngụ m
nhanh_ nh
198 4
198 8
198 9
cây_ công_nghiệp
nghiêm_ ngặt
Hiền _An
nặng_ nhọc
xi n_phép
n_r ợn
hoang_ vu
tuyệt_ vời
_Tr âm
hỏ a_
hậu_ cứ
xa_ khơi
chân_ thành
chân_ thực
tranh_ luận
tranh_ chấp
Bảo _vệ
đê _bao
che _
thấp _th
số_l iệu
Không_ chỉ
Lu ông
Lu mp
Năm_ Hồ
Năm_ Long
lâu_ nay
vỡ _lở
xo ắn
khai_ hoang
khai_ mạc
khắc_ khoải
195 4
195 6
chức_ danh
yêu_ quí
Hoàng _Ph
Ba_ Kiểu
Tân _Phú
ko r
sau_ cùng
tận_ cùng
ít_ nhiều
ĐT DĐ
chào _đời
khiế m_
Hà_T ây
Hà_T iên
Bến_ Đình
Kiên_ Hải
Kiên_ Lương
rủ i_ro
xó c_
xó m_làng
nhận_ xét
đột_ nhập
tốt_ bụng
lợi_ thế
Lý _do
Mà n_kịch
Tám _Nhiều
dò _tìm
mạ nh_
mạ ng_lưới
ru ồng_
ru n_r
rách _nát
trà _trộn
trú _ẩn
gia_ tăng
tập_thể _dục
Hưng_ Xá
Kiểm_ tra
Tài_ xế
bề n_v
sang_ tên
Đức_ Linh
giao_l iên
lão _luyện
Tổng_ kết
căn_cứ _địa
truyền_th uyết
An _Sơn
Văn_ khoa
dạ ng_
dạ _dày
hải_ lý
la_ cà
la_ Lump
mướ p
năm_ tháng
năm_ ngoái
thẩm_ định
trong_ sạch
có_ ích
cô_ gái
Cà _Ná
hiểm_ nguy
linh_ hoạt
linh_ thiêng
oxy _shop
xẻ ng
xanh_ tươi
xanh_ rì
đảng_ ủy
chì a_khóa
trưởng_ thành
pháo _binh
giật_ giọng
xe_l ăn
quanh_ quẩn
cứu_ sinh
tàn_ quân
luật_ pháp
biết_ đâu
Số _phận
bán_ dâm
cam_ go
mặc_ cảm
se l
sai_ lầm
vệ _tinh
xâm_ nhập
êm_ ấm
đoà n_tụ
phi_ lao
Khách _hàng
ký_ kết
Hoàng_ Đạt
trọng_ đại
truyền_ đơn
Hò n_
Hữu_ nghị
Hữu_ Tình
To ản
bó p
hy _vọng
lời_ lẽ
nối_ đuôi
sắp_ sửa
tại_ sao
tại_ chỗ
Đặc_ khu
đông_ xuân
thù _h
khe n_thưởng
ng_m ạn
phú t_giây
phiên_ dịch
phấn_ khích
phấn_ khởi
Thực_ tế
Thực_ đơn
nghịch _lý
nhà_tr ệt
nhà_v ô_địch
đầm_ đìa
Ngọc _Vân
hồi_ hộp
điểm_ chỉ
điểm_ cao
chữ_ ký
ký_t ên
hợp_t ác_xã
xét_ nghiệm
Hạ _Long
Lá _Xanh
Mai_ Động
Tiến _Dũng
Yên_ Bình
biển_ cả
lây _nhiễm
lin e
mp i
xương_ sống
thách _thức
sống_ động
chịu_ khó
hoa_ quả
hoa_ văn
loại_ bỏ
gian_ khó
Bùi_ B
Bùi_ Thị
Mũ i_Đèn
Sơn_ Tây
bầu_ cử
dụ ng_
lọ t_
lọ _mọ
lập_ nghiệp
vội_ vàng
Đông_ Hà
đến_ nỗi
ngơ _ngác
thề m
thảo _luận
trắng_ xóa
khám_ phá
nhà_th ơ
buồ n_t
Quế _Xuân
Học_ trò
Học_ viện
sáng_t ỏ
thảm_ hại
thảm_ khốc
nuôi_ dưỡng
Bun ta
Hải_ quân
Nội_ dung
Vũ _Đình_
as ak
diễn_ tiến
lương_ thiện
nấu_ nướng
rối_ rít
sụ t_
xơ _xác
xấu_ hổ
Đường_ mòn
_Sa _Vẳn
ngất_ xỉu
ngang_ nhiên
nhậ n_lời
chật_ hẹp
chật_ chội
chẳng_ qua
chạm_ mặt
chạm_ trán
tha_ thiết
lành_ lặn
Chi_ nhánh
Khu_ ủy
lớn_ nhỏ
cơ_ giới
Hàm_ Tân
Hàm_ Luông
_Ngọc _Vinh
bỗng_ nhiên
99 9
Hội_ đồng
Hội_ nghị
Jo h
Jo hor
Ninh_ Bình
Su san
cõ ng
dọ n_dẹp
dáng_ vẻ
hẹ n_hò
lân_ la
lân_ cận
nảy _sinh
sa_ ngã
sin _Shin
tệ _nạn
vững_ vàng
Út _Sương
ngập_ ngừng
nhũ _đá
chê nh_lệch
chóng_ mặt
chóng_ vánh
tra_ tấn
triệt_ để
truy_t ố
truy_t ìm
triệu_ phú
con_th ơ
con_th oi
nóng_ bỏng
sốt_ ruột
sốt_ rét
tuổ i_tác
phán_ quyết
phán_ đoán
quái_ ác
Bàu _Chồn
điện_ máy
tin_t ưởng
dữ_d ội
dữ_d ằn
tạp_ hóa
Danh_ Khon
Gò _Mả
Hóa_ ra
My anmar
Mông _Sơn
Mười_ Minh
Sa v
bại_ liệt
cất_ giữ
kin deo
lấp_ lánh
mệnh_ danh
sông_ nước
tấm_ gương
đù m_
đờ i_thường
đắc_ lực
Ướ c
ốm_ đau
nhắm_ mắt
chục_ triệu
thần_ kinh
khao _khát
khẩn_ cấp
giận_ hờn
Thay _vì
Trường_ hợp
đáng_ kể
Phụ ng_
Phương_ pháp
Phóng_ sự
cao_đ ẳng
Phú_H ữu
kế_t oán
giới_ hạn
ili ty
Định_ Quán
Làm_ sao
tiền_l ương
dio xin
Bi an
Bấy _giờ
Dự _án
Hậu_ quả
Kinh _Năm
Kua la_Lump
Lang_ Bian
Mã _Đà
Mục_ đích
Nước_ mắt
Nậm _Ngừm
Tác_ giả
Xác_ minh
ab ility
bực_ mình
bạt_ ngàn
gõ _cửa
gay _gắt
gánh_ chịu
kiều_ bào
kim_ loại
lôi_ kéo
nếu_ như
nâng_ cấp
ròng_ rã
rầm_ rộ
tiện_ nghi
tượng_ đài
va_ chạm
vĩnh_ viễn
ì_ ạch
ú_ ớ
đời_ sống
chuộ t_cống
chừng_ mực
thấm_ thía
trinh_ sát
triết_ lý
cám_ dỗ
nhà_s àn
thì_th ào
Nha_ Trang
Ngoại_ giao
màu_ sắc
_Qu ang
Phong_ trào
khoai_ lang
giản_ dị
cây_c ối
quản_tr ang
quá_ đáng
Quá _trình
hiện_th ực
đàm_ thoại
lạnh_ lùng
muôn_ vàn
đồi_ mồi
Trần_Minh_ Đức
heo_h út
thơ_ ấu
mãnh_ hổ
che_ch ở
quyền_ anh
Trương_Xuân_ Đại
Chợ_L ớn
lây_l an
ríu_ rít
thẳng_th ắn
cơ_quan_ chức_năng
Bhling _Chrlâng
Ax an
Bả n_thân
Biết_ bao
Cấp_ nước
Cẩm _Nhân
Cien co
Cap ability
Dương_ Tuấn
Hóc_ Môn
Jim my
Kơ tu
Kỷ _niệm
Kịch _bản
Ken ne
Lớ p_học
Mo ur
Mat xcơ
Oly mpi
Quy ết_
Ruộ ng
Rma h_Rô
Sư _phạm
Suy _nghĩ
Sak on
Tại_ sao
Tamp oi
Was hing
awa tra
bến_ xe
dắt_ díu
dải_ phân_cách
háo _hức
hiểu_ biết
huyện_ đội
lủ ng_lẳng
lật_ tẩy
lóng_ ngóng
miệt_ mài
mạch_ máu
nô _nức
nử a_đêm
nấm_ mồ
rò _rỉ
rờ n_rợn
râm_ ran
rực_ rỡ
rần_ r
sầm_ uất
sừng_ sững
tọ a_
vanh_ vách
va_đ ập
yể m_
ý_m uốn
Đạ _Tẻ
đũ a
đài_ truyền_hình
ộng_t ác_viên
ngẩn_ ngơ
ngổn_ng ang
chinh_ phục
chòng_ chành
chan_ hòa
thiê ng_liêng
thán_ phục
thắng_l ợi
thung_l ũng
trạm_ xá
trêu_ chọc
khung_ cảnh
khép_ kín
quấy _rối
Thăng_ Bình
Thạch_ Bằng
Thak sin_Shin
nghiên_ cứu_sinh
điên_ điển
nhà_m ồ
cải_th iện
contai ner
Chân_ dung
Chắc_ chắn
Champ asak
Ngân_ hàng
ngày_tr ước
Khánh_ Hòa
mái_t óc
Phôn _Sa_Vẳn
Pháp_ Luật
tuần_l ễ
khoảnh_ khắc
_điện_t ử
hoạn_th ư
quyến_ rũ
cao_n iên
quá_kh ứ
chán_n ản
Mỹ_Hiệp _Sơn
ngay_ng ắn
giao_kho án
Nguyễn_Lê _Nguyên
Nguyễn_Đình _Chiểu
điều_hòa_ nhiệt_độ
lúng_t úng
hạng_m ục
ngoằn_ ngoèo
kênh_m ương
nguồn_ gốc
nguệch _ngoạc
Hồ_T ôm
Võ_Nguyên_ Giáp
Phạm_Phương _Dung
bền_v ững
kindeo ymp
Kuala_Lump ur
Matxcơ va
Washing ton
Thaksin_Shin awatra
0 90
1 10
1 15
1 12
2 10
2 50
3 3
3 30
3 50
3 11
3 27
4 2
4 4
4 N
4 _triệu
5 8
5 000
5 50
5 27
5 4N
7 3
7 5
7 9
8 _
9 1
9 3
A C
A K
A M
A N
A S
A t
A ng
A sa
A mer
A _Kh
B T
B ến
B ái
B iệt_
B ãi
B ản_
B il
B ệnh
B ăn_khoăn
B ỗng
C a
C r
C á
C ọ
C ổ
C am
C uốn
C am_
C ảnh
C ăm_
C ộng
C ồn_
C ù_lao
D ĩ
D ược
D ao
D ạy
D ấu_
D ựng
D ẫu
D iện_tích
D ẫu_
D TT
E AN
F X
G ó
G ái
G le
H _
H ợ
H ới
H iên
H ành
H ột
H ạng
H ướng
H ar
H on
H ãng
H án_
H ợp
H uyện_
I CA
K a
K w
K ay
K an
K iều
K iệt
K èo
K iếm
L e
L y
L ũ
L ẽ
L ệ
L ị
L uyện
L ật
L òng
L ục
L ương_
L ừa
L ại_
L ượng
L ặc
L on
L ập_
L ực_lượng
M i
M ơ
M ỏ
M ở
M ong
M ái
M ặt
M ãi
M ảnh
M on
M ôi_
M oa
M ùi
M áu
M ãi_
M ạnh_
N iề
N ắng
N àng
N ằm
O xy
P u
P ằng
P ar
Q uyền
R à
R ủ
R ắn
R uốc
S e
S ê
S ử
S AR
S ăn
S âu
S ta
S ếu
S au_
S ing
S kindeoymp
T H
T i
T ắ
T ay
T ao
T âm
T ương_
T oại
T ai_
T òa
T ốc_
T ôn_
T oa
T ối_
T ìm_
T ốt
T HC
T ỉnh_
T DTT
U ng_
U yên
U oat
V e
V i
V é
V u_
V ết
V ạn
V ương_
V ùng_
V âng
V ien
V ới_lại
X à
X ã
X uống
X ét
Y ê
Y er
Y _tế
Y êu
Y _khoa
_ 3
_ 6
_ 8
_ G
_ O
_ k
_ ù
_ ơ
_ cho
_ ích
_ bảo
_ giả
_ Hùng
_ quả
_ báo
_ bạn
_ bỏ
_ 200
_ gái
_ hành
_ pháp
_ nghệ
_ máu
_ Giang
_ hành_chính
_ 22
_ 2005
_ cao_su
_ viện_trưởng
a c
a h
a n_t
a n_tâm
a khon
a i_tử
b ằ
b ông
b ất
b ươ
b eo
b inh_
b ội
b ồng_
b ậy
b ật_
b ần_
b ít
b ận_
b ấp_
b ùng_
b èn
b oa
b ừa_
b ón
b ởi_
b ắp_
b ơi_
b âng_
b ăn_khoăn
b i_thảm
c m
c a_
c ải
c ắn
c im
c ởi
c ăm_
c ập_
c ạn_
c an_
c òi
c ạm_
c ặp_
c ằn_
c ộng_tác_viên
d ơ
d ay
d ấy
d ang
d ũng
d ăm
d ưa
d ào
d áo
d ội
d ung_
d ưng
d ài_
d ạn_
d ối_
d ồn_
d ing
d ẫu_
d za
d ớn_
e y
e ra
e sel
g e
g ô
g ũ
g ỉ
g ừ
g ào
g ăng
g ượng
g ặng
g ai_
g ợi
g ang_
g ầm_
g ắng_
g áy
g ui
h i
h é
h ì
h ũ
h ễ
h ỉ
h ớ
h ở
h ến
h ân_
h ắt
h ực
h ối
h am_
h ãi
h ừng_
h un
h ite
h ơn_nữa
i can
i vong
j ai_
k W
k y
k _P
k ìm
k iệm
k èn
l é
l í
l õ
l ả
l ị
l ừ
l _C
l uyệ
l ăn
l áng
l ăng
l ấn
l en
l út
l ác_
l ung
l ạng
l ần_
l ai_
l ít
l ặt_
l ởi
l an_
l ăng_
l au_
l èn
l ẩn
l ảng_
l ục_
l ừng_
l ọc_
l ắng_
l ủi
l ù_l
l ượn
l ẳng_l
m í
m ú
m ả
m anh
m ần
m ồng
m ác
m ận
m úc
m anh_
m ục
m uống
m ảng
m ực_
m èo
m ắm
m ai_
m ười_
m ít
m ượt
m ăng_
m ầu
m ải_
m ẩy
m ém
m óm_
m ét_
m óp
m ặn_
m iểng
n á
n è
n ơ
n ả
n ấ
n _S
n ượ
n ôi
n ại
n anh
n ai
n ến
n ang
n ao
n ách
n ấp
n ức_
n ấm
n ãy
n ốt
n ame
n ấc
n ắm_
n ãm
n ếp
n ườm_
o f
o á
o anh
o ai
o ải
o ảng
o re
o _nhỏ
o gas
p ô
p pin
p _Si
r ó
r ỉ
r ợ
r ụ
r ùng
r ước
r ất_
r ành
r áo
r áng
r át
r ác_
r ền
r âu_
r ắm
r ặng
r ộn
r ơi_
r ồi_
s h
s t
s à
s _P
s ải
s ục
s út
s ạm
s ấu
s ạt
s ét
s ánh
s ặc_
s ọt
s õi
s er
s ụt
s ững_
t é
t ê
t ầ
t ồ
t ộ
t ong
t ải
t ơi
t ần_
t ắp
t ậu
t ép
t ăm_
t áp
t òi
t ẩm
t ải_
t iễn_
t ẹt
t by
u m
u ệ
u m_
u ân_
u _Dung
v ậ
v ế
v ồ
v ôi
v ững
v ăng
v ặn
v ẳng
v ong_
v ang_
v ăng_
v ẹn
v ồn_
v ứt
v ằn
v ẹo
v uốt
v iễn_
v í_
v iết_
v âng_
v ới_lại
x u_
x iết
x ám_
x ưng
x ối
x oài
x âu_
x ảo
x ấp_
x ộc
x iêu_
x ứng
x oa
x ởi_
x én
x ưa_
x à_l
x ịt
y _như
y _tá
Ð ó
Ð ặng_
Ô i
Ý _
ê _th
ê n_th
ê ki
ò _m
ô _t
ô i_th
ù n
ù a_
ù _ù
ú ng_
ú t_
ý t_
ý _nguyện
Ă n
Đ a
Đ ô
Đ ỏ
Đ ờ
Đ ủ
Đ iệ
Đ iện
Đ ơn
Đ ằng
Đ áng
Đ em
Đ ạo
Đ ầm
Đ ấu
Đ ồn
Đ ản
Đ ấu_
Đ òi
Đ ẩu
Đ ộng_
Đ ống_
Đ ổi_
Đ êm_
Đ ồi_
đ ư
đ ày
đ ác
đ úc
đ ỗi
đ ục
đ ắc
đ i_t
đ ẳng
đ ặng
đ ẳng_
đ am_mê
đ úng_
ĩ u
ĩ _Thành
ơ _vơ
ạ n_t
ả _năng
Ấ p_
ấ c_
ầ n_tượng
ẩ n_tr
ằ n_tr
ằ n_t
ẻ m
ề nh
ề nh_
ễ u
ễ ng
ỉ _nhập
ọ t_
ỗ _ng
ộ n_
ớ t_m
ờ _ph
ỡ n
ỡ _nhàng
ợ t_
ủ a
ỷ u
_N ha
_N akhon
_V y
_V ình
_V ấp
_V iệt
_V àng
_P ah
_S ao
_S an
_S ĩ_Thành
_Pr ông
ng ô
ng ục
ng út
ng ành_
ng ợi
ng ửi
ng oài_
ng ẫu_
ng ỗ_ng
_R e
nh a
nh ó
nh iế
nh u_
nh ao
nh uố
nh ùng
nh an
nh ũng
nh uộ
nh ẫn
nh iên_
nh ối
nh ạy
nh am_
nh ức_
nh ắc_
nh ấp_
nh ạt_
nh iêu_
nh an_
nh ẩm
nh iệm_
nh ảm
nh ãn
nh ói
nh òm
nh o_nhỏ
nh ộn_
nh ỡ_nhàng
ch à
ch ẻ
ch ớ
ch a_
ch iên
ch ật
ch inh
ch ập
ch iền
ch ái
ch uộc
ch ực
ch ưng
ch ướng
ch ạc
ch ặng
ch iêng
ch ạp
ch ài_
ch iêu_
ch ọc_
ch ùm
ch ĩa
ch ạnh_
ch ửng
ch ùa_
ch ơ_vơ
th ọ
th ố
th au
th ừng
th ửa
th i_th
th ắm
th ản
th ản_
th iêu
th ập_
th an_
th òi
th ầu
th iện_
th áng_
th ù_lao
th ê_th
th ần_tượng
_D ân
_D iên
et te
_C ày
_C ạn
_C hết
_C ạp
_C or
tr ễ
tr ồ
tr ũng
tr ội
tr ăn_
tr ầm
tr ọc
tr ên_
tr ật_
tr ạc
tr ắc_
tr ứng
tr ụi
tr ót
tr ưng_
tr ứng_
tr i_thức
tr ĩu
tr ằn_tr
n_ phương
n_ đồ
n_ vi
n_ đả
n_ kẽ
n_ dâng
n_ chồn
n_ quét
n_ chải
n_ chúc
kh ê
kh ẽ
kh ỉ
kh áo
kh ét
kh ái_
kh ít
kh ập_
kh ang_
kh ẩn
kh ấm_
kh ối_
kh ống_
kh ốn_
kh ắp_nơi
kh ai_tử
ng_ ăn
ng_ tiền
ng_ cầu
ng_ xóm
ng_ buộc
ng_ Mai
ng_ ngày_càng
ng_ dưỡng
ng_ chạc
ph ất
ph ác
ph án
ph ức
ph ượng
ph ia
ph ẳng
ph ản
ph er
ph im_
ph ễu
ph ờ_ph
i_ m
i_ là
i_ âm
i_ động
i_ trình
i_ lở
i_ trọng
i_ nghi
i_ ngùi
và m
gi c
gi ê
gi ảng
gi ẫm
gi ấc_
gi ỡn
qu eo
qu ẫn
qu át
qu ăng
qu ên_
qu ật_
qu ạt
qu ẳng
qu éo
qu ặt_
qu ắc_
qu ạt_
qu ét_
qu ỉ_nhập
nh_ đệ
t_ nghiệp
t_ lui
t_ vót
t_ rè
t_ chửng
cá _m
cá _ch
cá _b
cá i_b
m_ kho
m_ thu
m_ ngó
m_ cõi
có _t
uy ển
mộ c_
mộ _b
củ _đ
c_ trưởng
c_ mừng
c_ ngách
u_ d
u_ mang
u_ quán
u_ Long
u_ uất
Th a
Th ể
Th an
Th ăn
Th iên_
Th êm
Th ôn
Th ửa
Th ung
Th ạc
Th ánh
Th oa
Th iện_
Th ống_
Th oát
Th uột
Th oáng
ay _ho
đã ng
đã _đ
a_ tay
a_ bán
a_ chừng
a_ khô
a_ kém
a_ chen
a_ chát
a_ dẫm
ướ p_
ngh iến
như _h
như _thể
ông_ ta
ao _ước
co ong
co i_trọng
ươ m
ươ n
uố n_t
an e
an thuy
an jai_
nhà _đ
nhà _quê
ra van
ra dio
_th i
_th ì
_th í
_th ụ
_th ác
_th ời
_th ừa
_th ích
_th ành_
_th ức_
_th ập_
_th uận
_th un
_th uyết
hà n_h
hà n_vi
từ _gi
cả i_t
Ch ó
Ch ữ
Ch ăm
Ch âu
Ch ơi
Ch ừng
Ch ia
Ch iều_
Ch ar
Ch ẳng_
Ch ứt
Ch iếu
Ch ợt
Ch a_mẹ
Tr iết
Tr inh
Tr ống
Tr ạm
Tr uyề
Tr àm
Tr ọng_
Tr anthuy
độ t
độ i_t
độ ng_t
độ _trì
oà ng
bà i_th
bà _già
bà n_thờ
_t a
_t è
_t ự
_t ác
_t ật
_t úc
_t át
_t úng
_t ôm
_t ộc
_t ín
_t oan
_t iếp
_t ác_xã
_t uần
iê m_
nó i_th
Nh ất
Nh ân
Nh ặt
Nh ắc
uyệ t_
ào _ạt
Ng ư
Ng ang
Ng uyện
Ng ành
mà ng
mà n_hình
ngày _giờ
khi ễng
ân_ nhân
ất_ phục
p_ đồng
p_ ảnh
p_ đổ
p_ sợ
p_ nối
p_ giật
p_ cận
công_ vụ
công_ tử
chú a
chú _r
chú c_mừng
tiế n_tr
tiế ng_l
tiế ng_t
_l y
_l ạ
_l ẻ
_l ộ
_l ùng
_l ửa
_l oại
_l ắp
_l ưu
_l oi
_l iễu
Kh âm_
Kh ảo
Kh ủng_
Kh ai_th
Kh ởi_
Kh áng_
Kh iêm
Kh ả_năng
_d ò
_d ỡ
_d ại
_d ác
_d iệt
_d iễn
_d i_động
má nh
đá ng_lẽ
_h ục
_h ẹn
_h uyệt
qua ng_
qua i_
Ph i
Ph ó
Ph ố
Ph ần
Ph ân_
Ph úc
Ph ụng
Ph ili
chí ch
tu k
tu ng_
tu ôn
tu ng_t
tu ần_tr
chị _ta
anh_ t
áo _ph
áo _qu
áo _thun
đây _đó
in am
kho ẻ
kho át
kho ái_
_đ ố
_đ ừ
_đ ại
_đ ức
_đ ảo
phá c_
phá _bỏ
_tr ời
_tr ắng
_tr uyền
_tr ùm
_tr ực_thăng
đề u_đ
ăn_ chơi
_m ô
_m ờ
_m ích
_m ặc
_m ìn
_m ưu
_m úa
cứ ng_
ho á
ho ạn_
_s ờ
_s ưa
_s ảng
_s áu
quy _định
quy ện
a_đ ồng
a_đ ẩy
sự c
âm _Dâu
n_th ế
n_th ủy
n_th iệp
n_th uần
ta ng_l
ồng_ tơi
giờ _hành_chính
ung_ dung
tay _nghề
_v ò
_v ù
_v ỡ
_v ây
_nh ô
_nh ẹ
_nh em
_nh ung
cô n_tr
cô _lập
cô _đơn
cô n_đồ
bố i
bố n_phương
ám_ chỉ
xã _đoàn
lo ng_
lo ng_l
lo go
lo _sợ
lo gic
lo m_kho
lo ay_ho
lo _toan
tà ng
tà n_t
tà n_b
chủ ng_
chủ _quan
chủ _tọa
chủ _đề
chủ _mưu
cơ _khí
nghiệ n_ngập
nghiệ m_thu
_ph ần
_ph ục
_ph ối
_ph im
_ph ần_tr
đồng_ bộ
đồng_ quê
đồng_ tình
đồng_ phạm
đồng_ lương
đồng_ thanh
đồng_ hun
đồng_ lõ
đầu_ tay
đầu_ lòng
đầu_ óc
đầu_ quân
Hà _Hữu_
bu ly
bu ổi_sáng
bảo _
bảo _trợ
ên_ dáng
đố t_
đố _k
Gi ữ
Gi ới
Gi ấy
Gi ao
Gi ồng_
i_th ay
làm_ bộ
làm_ gì
làm_ vườn
làm_ quà
làm_ ngơ
làm_ bếp
làm_ phiền
thu ần
thu ần_hóa
thu a_kém
bao _trùm
bao _vây
giả _thiết
Hùng _Võ
n_tr ăm
n_tr ương
n_tr uân
n_tr ịa
n_l ẻ
n_l an
n_l út
n_t ư
n_t ình
n_t ải
n_t ảo
n_t úi
ành_ Long
quả _là
khó i_
khó _tính
ước_ chừng
ước_ Tây
ước_ nguyện
do _vậy
cao _ráo
i_t ăm
quá nh
quá _sức
lu ận_
lu ẩn_
im p
gh iền
gh em
gh ẹo
ật_ sư
nghĩ _lại
Qu ê
Qu ý
Qu an
Qu ầy
Qu ỳnh
Qu i_trình
tổ _trưởng
tỉ _thí
ảo _H
tử _địa
tử _thần
thể _trạng
tố ng_tiền
tố i_tăm
chá nh
hộ _sinh
hộ _khẩu
một_ tí
một_ mạch
Mỹ _Ph
Mỹ _Lan
_c ười
_c úng
_c ằn
_c ốt
thủ ng
thủ _trưởng
thủ _tiêu
am_ hiểu
tình_ tứ
phát_ thanh
phát_ tán
tiếp _thu
hệ t
Có _khi
giao _dịch
giao _tiếp
giao _phối
_n ề
_n ở
_n ông
_n ần
_n an
thành_ ra
thành_ quả
thành_ hình
khu ỷu
khu ất_phục
bỏ _lửng
dự _tính
dự _đoán
10 1
thời_ vụ
to ác
to ur
to _tướng
to ey
địa_ chính
địa_ ngục
_b ông
_b ới
_b ám
_b úa
_b ệnh
iều_ cường
200 2
200 6
chạy _
chạy _chữa
chạy _chợ
con_ bé
con_ nghiện
nhỏ _tuổi
nhân_ ái
nhân_ cách
nhân_ tài
nhân_ văn
nước_ biển
nước_ cường
nước_ ròng
nước_ thải
nước_ khoáng
khá _giả
liên_ tiếp
liên_ hoàn
liên_ hoan
liên_ miên
nghèo _kh
nghèo _r
hoà i_nghi
đại_ gia
đại_ lộ
đại_ ca
đại_ hội
đại_ tá
đại_ thắng
đại_ sứ
Nguyễn_ Tiến_
Nguyễn_ Hữu
Nguyễn_ Trãi
Nguyễn_ Thiện_
phụ _huy
phụ _giúp
phụ _thuộc
phụ ng_dưỡng
giấy _thông_
20 5
thị _sát
nhà_ ở
nhà_ in
nhà_ giam
thực_ sự
thực_ vật
_Th u_
_Th ành_Long
_Ph i
_Ph ổ
_Ph ong
_Ph ùng
_Ph át
_Ph ray
gia n_truân
mù a_hè
mù a_khô
chữ ng_chạc
thông_ thường
lý _thuyết
cuố n_hút
du_ nhập
đường_ sá
điều_ hành
điều_ khoản
điều_ tra_
chu ỗi
chu ồn
cố _thủ
cố _nhân
cố _ý
cố t_l
ận_ đận
học_ hành
học_ xá
học_ lỏ
vô _tình
thiế p
đo _đạc
đo ạn_t
đo n_đả
bất_ động
bất_ đồng
bất_ kỳ
bất_ thần
bất_ tiện
bất_ hạnh
Công_ Hùng
Công_ nhân
Công_ tác
_Văn_ Hùng
_Văn_ Thành
tho ai_th
_kh ảo
bắt_ giữ
cụ c_trưởng
kéo _theo
kéo _đẩy
ng_l ăng
ng_l ọc
ng_l ĩnh
ng_l ãnh_
ôi_ ngo
ôi_ nước_mắt
nguy en
người_ dân
nhớ _nhung
Thu ật
Phú _Đông
Phú _Lộc
mở _đường
suố t_
ấp_ ủ
trung_ học
trung_ chuyển
trung_ úy
đổ _vỡ
đổ i_thay
ạn_ Thư
thú _nhận
khu_ công_nghiệp
khu_ chế_xuất
hình_ dạng
vị nh
vị _thành_
Kim _Ngọc_
ôn_ sẻ
ôn_ Ma_
hàng_ đầu
hàng_ ngũ
tài_ nào
tài_ chính
lộ _trình
lộ _liễu
ạt_ đầu
ạt_ động
thư _sinh
thư _gi
thư _viện
tham_ vọng
tham_ khảo
tham_ nhũng
đối_ đầu
đối_ chất
sinh_ động
sinh_ hoạt_
sinh_ mạng
sinh_ dục
sinh_ sôi
lá _ng
lá _r
Trung_ bộ
Trung_ bình
Trung_ Hưng
15 2
nổ _mìn
_Ng à
_Ng ạn
kết_ bạn
kết_ nạp
văn_ minh
thế_ mà
hợp _thức_
tư _trang
giữ a_chừng
quốc_ ca
quyết_ tử
_M ửng
_ng ụ
_ng ách
an_ ngo
bé _nhỏ
bình_ chọn
bình_ đẳng
kỳ _vọng
kỳ _đà
kỳ _lạ
hạ _tầng
lịch _sự
xây _x
xuất_ trình
xuất_ bản
xuất_ quỉ_nhập
Nhà _văn
vu ông_
Cả m_
Cả _T
Cả _Phi
cư u_mang
đảo _lộn
chợ _búa
thanh_ lý
quay _phim
quan_ khách
quan_ điểm
ngo i
ngo an_ngo
thu_ nhận
thu_ dọn
thu_ thập
đào _bới
chó i
chó p
chó t_vót
giám_ định_
giám_ khảo
đặc_ trưng
Nguyễn _C
Nguyễn _Văn_C
Nguyễn _Sĩ_Thành
Thái_ độ
chiến_ công
chiến_ binh
cảm_ xúc
_L ào
_L ập
_L iêm
lạ _đời
đánh_ đổi
đánh_ hơi
đánh_ cược
đánh_ ghen
Ba bo
Ba _Nghĩa
_H _
_H uệ
dân_ số
dân_ gian
trò _chơi
trò n_trịa
cửa_ kính
Mu a_bán
lã ng_mạn
dạy _dỗ
om on
tâm_ hồn
tâm_ đắc
ngu ôi_ngo
chờ n
ý_ nghĩ
mặt_ đường
mặt_ tiền
giải_ nghệ
giải_ trí
12 3
xác_ lập
xác_ xơ
mu ôn
thi p_Si
cảnh_ cáo
cảnh_ giới
cảnh_ quan
cà n_quét
cà ng_ngày_càng
tú m
tú ng_qu
phân_ trần
giáo _trình
_Đ ề
_Đ ình
_Đ ức
_Đ úc
chế _độ
gó c_độ
đồ n_b
Thị _
Thị _Nhiều
trang_ trải
trang_ nghiêm
_x ách
_x ẻo
thân_ chủ
thân_ tàn_
196 4
mô tô
tích _tắc
tích _lũ
ấm_ cúng
n_b ã
n_b ề
n_b ỉ
n_b ãi
khổ _chủ
khổ _ải
khổ _đau
cổ _tích
cổ _thụ
phong_ tặng
nghỉ _việc
hiện_ tại
hiện_ hữu
Lê _Thanh_
Lê _Quang
al ding
toà n_thân
toà n_thể
thương_ nhớ
thương_ yêu
thương_ tật
thương_ thảo
thương_ vong
_T ân
_T ập
bè _bạn
il a
liệt_ kê
miệ ng_ăn
võ _sư
võ _đài
chất_ nổ
chất_ phác
qui_ trình
qui_ luật
qui_ chuẩn
xe_ cơ_giới
nguyên_ tử
nguyên_ đơn
nguyên_ vật_liệu
nguyên_ vẹn
25 _
ti z
ti ng
ti ane
tinh_ mơ
tinh_ nghịch
tinh_ ranh
ưu_ tiên
nhập _tịch
thả m
biên_ tập
tương_ ứng
tương_ đối
đỏ _đ
đỏ _r
đấu_ trường
_Văn _Ni
chăm_ chăm
độc_ giả
độc_ quyền
197 3
197 7
thủy _t
Bình_ thường
Bình_ Xuyên
Hu ấn
Tiế p_cận
di_ cư
di_ dời
lễ _độ
lễ _tân
lễ _phục
tiêu_ chuẩn
tiếp_ nhận
tiếp_ diễn
ban_ ngành
hội_ họp
bồ _nhí
bồ n_chồn
ma_ dại
đất_ đỏ
khả _quan
quân_ dân
chuyên_ dụng
_r ào
ca ss
ca ravan
ca n_thiệp
kỷ _vật
tù m
tù _tội
tạo _lập
tập_ quán
tập_ kích
tập_ họp
đạo _diễn
đạo _đức
Thanh_ tra
tổng_ hợp
tổng_ khởi_nghĩa
vô_ kể
vô_ nghĩa
vật_ dụng
vật_ vạ
vùng_ sâu
vùng_ biên
trường_ bắn
nói_ nhỏ
nói_ riêng
nói_ chung
bản_ án
bản_ quyền
bản_ xứ
Tổ ng_lãnh_
_U bdul
mê _tín
tác_ nhân
tác_ dụng
_Nh é
_Nh ung
nổi_ trội
Hai_ Lúa
Đào _tạo
Đức _Phổ
ngõ _ngách
thường_ ngày
thường_ trú
khuy nh_
khuy ết
khuy ển
sẵ n_lòng
đau_ đầu
đau_ buồn
ậu_ nhẹ
ống_ kính
ống_ nhòm
hào _sảng
Trà ng_
Trà _B
Trà _Tập
động_ cơ
động_ tác
động_ thái
hoàn_ hồn
Đồng_ Hới
thuốc_ độc
thuốc_ mê
thuốc_ men
Trần_ Thanh
Trần_ Thị
Trần_ Thị_Th
máy_ ảnh
kịp _thời
lâm_ nghiệp
gió _chướng
Nguyễn_Văn_ Bình
Nguyễn_Văn_ Quỳ
Nguyễn_Văn_ Toại
lãnh_ sự
18 0
Cô _dâu
Tân_ Xuân
Tân_ Uyên
Võ _B
Võ _Văn_S
Võ _Văn_Thành
bù i_ngùi
duy ên_dáng
mơ _hồ
ra_ tay
ra_ mặt
ra_ mắt
ra_ sức
ra_ tiếng_
ra_ lệnh
suy ễn
suy _đoán
phản_ động
phản_ công
phản_ ánh
phản_ hồi
phản_ quang
Phạm _V
ngoại_ thành
Xuân_ Lộc
Xuân_ Long
Tây _Ninh
Tây _nguyên
Tây _Giang
bóng_ bàn
bóng_ chuyền
úc_ sư
ngư ỡng
nhất_ quyết
trợ n
trợ _gi
bàn_ giao
bàn_ ghế
Quảng _Công
Nhà_ máy
chia_ cắt
chia_ rẽ
mất_ mùa
mất_ ngủ
mất_ trí
thơ m
thơ _dại
thất_ học
thất_ thần
n_ng uyện
n_ng uyệt
nghiê ng_
Chính_ trị
Trần _Văn
Trần _Duy
cầu_ đường
cầu_ cứu
cầu_ xin
cầu_ mong
DN TN
danh_ nghĩa
sơ _s
sơ _sinh
sơ _ý
sơ _đồ
sơ _khảo
tờ _rơi
Giá _như
bo y
dữ _kiện
mã ng_cầu
mã n_nguyện
tiểu_ đội
tiểu_ đoàn
yên_ vị
yên_ nghỉ
yên_ trí
ẩm_ chất
chi_ cục
thi_ đấu
phòng_ thí_nghiệm
Linh _Sơn
cú m_
tính_ chuyện
tính_ chất
khô _cằn
Nguyễn_Thị _Th
Nguyễn_Thị _Minh_
Nguyễn_Thị _Mửng
thiếu_ đói
thiếu_ nhi
Mai _Văn_
bổ _ích
bão _t
dị _tật
hiế n_dâng
hòa_ hợp
tuyệ t
xung_ đột
áp_ giải
phó _viện_trưởng
pháp_ trường
pháp_ nhân
Là u
Là ng_xóm
Sự _việc
bế n_bãi
bánh_ đa
bánh_ phở
bánh_ kẹo
bánh_ chưng
hết_ mình
la t
lên_ án
lên_ đời
nợ _đời
nợ _nần
sức_ lao_động
198 7
cây_ cảnh
ghi_ hình
lưu_ trữ
tuyên_ cáo
tuyên_ dương
Hạnh _Phúc
biểu_ tình
biểu_ dương
hóa_ giải
hóa_ kiếp
mì _tôm
bào _chữa
khoai lang
hoang_ hóa
hoang_ dại
hoang_ tàn
máy_b ơm
chủ_ quản
tuyệt_ mật
_Tr ang
_Tr on
biệt_ kích
biệt_ tăm
xa_ xa
xa_ lạ
xa_ xưa
xa_ vời
Đại_ ca
Đại_ hội
chân_ đất
chân_ lý
tranh_ đấu
phóng_ khoáng
Kho ai
Kho ản
Hóa _An
ak i
cộng_ sản
hỗ n_
lặ p_
vũ _trang
che n_chúc
thích _thú
khởi_ đầu
khởi_ nghiệp
khởi_ xướng
Thủ _Đức
máy_bay _trực_thăng
Củ _Tron
Do _vậy
Do _đó
Huy _chương
Lu ôn
Lu ật_sư
Nông_ trường
Năm_ Truyền
Năm_ Lặc
dã _chiến
dã _ngoại
hu ơ
hu ấn
hu n_hút
hu ân_chương
lâu_ đời
tá _túc
xo áy
khai_ phá
khai_ báo
khai_ sinh
khai_ trừ
khắc_ khổ
khắc_ nghiệt
phù n
Cho _dù
Phong _San
tai_ họa
195 3
_Ngọc_ Bình
bú a
cò m_cõi
lô _nhô
lô _cốt
tầm_ mắt
tầm_ súng
tầm_ nhìn_
ít_ ỏi
ít_ lâu
ĐT _di_động
chào _
khiế p_sợ
Già u
300 _
Bu ih
Bu ôn_Ma_
Bến_ Hải
kiên_ nhẫn
tiề n_túi
tất_ tả
xó i_lở
đè n_n
nhảy _múa
tre tho
đột_ xuất
Hàng_ Hành
Hàng_ Trống
ghé p_nối
tự_t úc
Duy _Anh
Duy _Nghĩa
Duy _Tân
dò _hỏi
ni ck
tức_ giận
ur s
vã n
nhiệt_ đới
n_n àn
gia_ nhập
hài_ lòng
định_ kiến
xem_ lại
xem_ ra
chế_tạo _máy
Tiến_ Thành
Hưng_ Lị
Sáu _Sao
bề _
bề n_bỉ
bấy _nhiêu
bấy _lâu
di esel
di um
say _sưa
tạm_ trú
ngườ i_tình
ngăn_ cách
thỏ m
tháo _dỡ
giao_l ộ
chuyển_ động
chuyển_ hướng
chuyển_ nhượng
vui_ chơi
Tổng_ cục
An A
An _Phú
An AnA
Hữu _Phước
Mặt_ trận
Mặt_ trời
bê nh
em_ út
hò m
hò _hẹn
hò a_đồng
la_ bàn
năm_ học
sa s
sa buly
tụ m
ép_ gai
đa_ dạng_
thiên_ cung
trong_ vắt
qui_t ụ
đội_ hình
đội_ ngũ
tối_ ưu
tối_ đen
Rơ_Ch âm_Dâu
Báo _chí
Cơ _khí
Lạc _Dương
câu_ lạc_bộ
hiểm_ nghèo
hữu_ hiệu
le n_lỏi
le s_P
rộ p
vé _số
vừa_ mới
vừa_ rồi
xanh_ mét
nhập_ ngũ
chung_ khảo
thụ _án
trưởng_ phòng
pháo _đài
Trương_ Gia_
Trương_ Thị_Th
quanh_ co
Phan_ Thanh_
Phan_ Đình
cứu_ tế
tàn_ phá
cần_ cù
thứ_ hai
Trần_Văn_ Hương
Trần_Văn_ Hợi
Trần_Văn_ Giàu
biết_ mấy
Ho a_
Ho ặc
Ho ằng_
Ho ạn_Thư
Ho ạt_động
Hiện_ giờ
Minh_ Tăng
Minh_ Tiến
Tiên _Phước
Xây _lắp
bi a_
bi ogas
bán_ đảo
mỏ i_
mỏ ng_m
sai_ trái
xâm_ hại
êm_ đẹp
êm_ dịu
đoà n_trưởng
ngó n_tay
ngó c_ngách
phi_ chính_phủ
giây _phút
Nhân_ vật
trai_ trẻ
tỉnh_ trưởng
sáng_ tác
sáng_ chế
sáng_ rực
bồi_ bổ
bồi_ lấp
trọng_ điểm
bom_ nguyên_tử
mồ_h ôi_nước_mắt
Rơ_Châm_ Buh
Rơ_Châm_ Tô
35 4
Hữu_ Hạnh
To a_xe
To urs
lòng_ vòng
nối_ tiếp
rừng_ già
sâu_ bệnh
sâu_ đậm
vòng_ quanh
Út_ Em
Đinh_ Minh_Tăng
đông_ đảo
đông_ bắc
đông_ đúc
chết_ đứng
thổ _địa
thổ _lộ
truy _quét
truy _nhập
phầ n_trăm
phầ n_tư
Thực_ hiện
nhà_v ườn
đóng_ kịch
Chín_ Lan
đầm_ ấm
cầm_ cự
điểm_ nóng
toàn_ cầu
thỏa_ đáng
400 _triệu
Ban_ chấp_hành
Kinh_ tế
Một_ vài
Xe _lửa
Yên_ Thành
Yên_ Bái
ap ore
biển_ khơi
ka toey
kính_ trọng
lin ton
mong_ đợi
mong_ manh
tăng_ trưởng
tăng_ tốc
Độ c_
đa gui
ứng_ cứu
ứng_ xử
chu_ đáo
thờ i_tiết
thờ _ơ
thờ _cúng
thách _đố
tiết_ kiệm
Phạm_ Hữu_Tình
Phạm_ Hạnh_Phúc
hoa_ phượng
Hành_ chính
Hành_ trình
Tuyết _Nhi
Trà_M ai
quen_ mặt
bút_ bi
Cao _Thắng
Cát_ Hải
Hình_ ảnh
May _mà
Quốc_ Ân
Quốc_ khánh
Vĩnh_ Lộc
Vĩnh_ Minh
cân_ đối
câm_ như_h
dở _ch
huyề n_
hiền_ hòa
lò _dò
lập_ cập
sờ _sờ
tôm_ hùm
vỉ a
xinh_ xắn
xóa_ đói_
xuống_ cấp
Đỗ _Văn_
Đỗ _Thị
Đông_ Tây
Đông_ du
Đội _C
đến_ chốn
đến_ nơi_
thẳng_ tay
trắng_ tay
cải_ cách
cải_ trang
cải_ tiến
Nhã _Trang
phá_h oại
bộc_ lộ
194 4
194 6
buồ n_th
buồ n_bã
báo_h iệu
Quế _Sơn
lúa_ rẫy
_Văn_D ũng
khuyến_ cáo
nuôi_ trồng
nuôi_ nấ
Cử u_Long
Cây _Trâm
Hải_ Lý
Mường _Nhé
No el
Vũ _Ngọc_Bình
cay _c
cực_ nhọc
cười_ cười
cùng_ cực
cùng_ quẫn
diễn_ văn
diễn_ đàn
dứt_ khoát
gần_ gũ
lắp_ ráp
mar k
mar n_S
mưa_ lũ
mưa_ phùn
nấu_ ăn
nấu_ bếp
năng_ động
or _Ubdul
rối_ loạn
rối_ rắm
sụ a
sụ p_đổ
xô _đẩy
Đường_ dây
ngất_ ngây
ngang_ dọc
nhổ _neo
chẳng_ thể
chẳng_ hạn
chống_ chế
chơi_ đùa
thầm_ kín
trông_ chờ
trông_ coi
trông_ cậy
Chi_ cục
Trước_ đây
Trước_ hết
Trước_ mắt
chúng_ mình
Khu_ công_nghiệp
lớn_ tuổi
tay_tr ắng
dự_th ính
hiệp_ hội
thúc_ giục
Nghi_ Lộc
sát_ nách
biến_ dạng
bỗng_ chốc
bỗng_ dưng
Phan_Văn_ Xốm
Phan_Văn_ Khải
64 9
Bố _mẹ
Ia_ Ka
Lịch _sử
Ninh_ Xá
Vụ _việc
bạc_ đầu
bạc_ màu
dọ a_dẫm
hẹ n_l
hối_ hận
li a_
lẻ _loi
lăn_ lộn
lăn_ lóc
mật_ ong
mật_ độ
nương_ rẫy
nương_ náu
nảy _nở
rùng_ rùng
săn_ bắn
tứ _xứ
vinh_ danh
ợi_ phẩm
nhũ n
châu_ mai
châu_ Âu
thấu_ đáo
triệt_ tiêu
n_v ẹn
khẩ n_trương
phà n_nàn
giác_ đấu
giác_ đấu_sĩ
giác_ ngộ
Thông_ qua
Thông_ thường
Thủy _lợi
Chu ông
Trở _lại
Ngô _Đình
Khó _khăn
Khổ _nỗi
tuổ i_thơ
bah ao
giảm_ nghèo
giảm_ sút
Nguyên_ tắc
tỉ_lệ _phần_tr
Bàu _Cạp
nghèo_ đói
điện_ ảnh
kiến_tr úc_sư
tin_t ức
điềm_ nhiên
900 _
Biển _Chết
Du_ lịch
Du_ kích
Dương _Ngọc_Vinh
Dương _Văn_Ni
Gò _Vấp
Hồng_ Minh
Ma tiz
Ma đagui
Tố t_nghiệp
Udon Than
cất_ giấu
cương_ quyết
gầy _dựng
kin s
lỏ ng
mắt_ lá_r
mệnh_ lệnh
rơm oo
su ôn_sẻ
song_ song
sắc_ màu
tậ n_tình
tắm_ rửa
tưởng_ chừng
tưởng_ niệm
Đài _Nam
Đặng_ Hùng_Võ
đu a_chen
đôi_ mươi
Ướ c_
ốm_ yếu
nhá _nhem
nhắm_ mắt_
chấp _thuận
tháp _tùng
trơ _tr
trầm_ trồ
khẩn_ cầu
phì _ph
phì _nhiêu
i_b ặm
từ_ từ
từ_ bỏ
đón_ đầu
đón_ nhận
đói_ nghèo
bảng_ vàng
bảng_ biểu
Phụ _nữ
Phương_ án
Phần_ lớn
Phóng_ viên
tuổi_ trẻ
hor mon
buồn_ rầu
Gia _An
Giải_ quyết
Giải_ phóng
cao_đ ẹp
kế_t iếp
giới_ chức
Lê_Văn_ Khuyên
rộn_r ã
rộn_r àng
Nghĩa_ là
Con_ nhỏ
Cửa_ hàng
Cửa_ biển
đẹp_ mắt
đẹp_ trai
43 8
An_ Giang
Bồ _Đề
CA D
Cẩm_ Ân
La _Ngà
Long_ Thành
Sp ee
Sp alding
Sức_ khỏe
Tra ng_
Tập_ đoàn
Tập_ trung
Vo sabuly
bá n_nguyệt
bướ m
bướ u
bước_ đi
bước_ đầu
dẫn_ đầu
gọ i_là
hồng_ hào
hương_ hồn
hăng gô
hùng_ hổ
hầm_ tàu
huống_ hồ
lính_ thủy
mỹ _nghệ
mang_ tiếng
náo _nức
rú t_lui
tiên_ tiến
vẫy _v
Điều_ kiện
đơ n_thuần
đậu_ hũ
ngỡ _ngàng
ngòi_ nổ
ngòi_ bút
chập_ chờn
chôn_ cất
chậm_ rãi
thao _tác
thăm_ dò
thăm_ thẳm
khôn_ khéo
phan ar
phạm_ tội
Tham_ gia
Chư _Pah
Chư _Prông
Chu_ Quốc_Ân
chiếm_ lĩnh
chiến_l ược
chiến_l ợi_phẩm
xuôi_ ngược
nhỏ_nh ắn
nhỏ_nh oi
hoành_ hành
phục_ kích
ruột_ thịt
ruột_ gan
ngon_ lành
Nguyễn_Công_ Hào
Đồng_D ù
Đồng_D anh
Hồ_H ảo_H
Địa_ chỉ
Địa_ điểm
Phạm_Ngọc_ Khang
Trần_Ngọc_ Ẩn
huyết_ mạch
Nguyễn_Thị_ Loan
hỏi_ han
đêm_ tối
mềm_ nhũn
Bùi_Văn_ Thu
nhìn_ nhận
nỗi_ niềm
Phu_Phả_X ay
Phu_Phả_X ây
khẩu_ trang
Lộc_ Điền
vượt_ cấp
Bạn_ bè
Cố _gắng
Câu_ lạc_bộ
Hệ _thống
Hiệ p_
Hòa_ Bình
Hưởng_ Triều
In ter
Lò _Đúc
Lưu_ Hữu_Phước
Nil ai
Suối _Cạn
Tử u_quán
Tự _thân
Vinh_ Hưng
Web tretho
bụ i_bặm
bi_ kịch
ber t
cai_ nghiện
cấm_ đoán
cắm_ cúi
cãi_ vã
dương_ tính
hủy _diệt
lè _tè
lố i_thoát
lụ a
lông_ lá
mẫu_ giáo
mới_t oanh
nuố t_chửng
oai_ hùng
rà ng_buộc
rê pô
rắ n_r
rung_ chuyển
sóng_ gió
sắm_ sửa
tắt_ thở
tản_ cư
tòa_ soạn
tột_ cùng
vù _vù
vĩ _đại
vẹ n_toàn
vườ n_
war d
xì _x
xích _mích
y_d ược
Ái _Vy
Đất_ nước
Đầu_ tiên
đĩ a_
đẽ o
đụ n
đương_ nhiên
ngần_ ngại
ngôn_ ngữ
nhã n_
nhăn_ nhó
chắp_ vá
thôi_ thì
trùng_ dương
trăng_ hoa
n_W hite
phiền_ phức
giường_ bệnh
Thượng_ Lào
ướt_ đẫm
choáng_ váng
điêu_ khắc
họp_ báo
rau_ muống
hàm_ răng
Chi a_tay
Chao _Phray
tiếc_ rẻ
Khát_ vọng
Phòng_ chống
tan_ vỡ
tan_t ầm
tay_ áo
chủ_ch ốt
cơm_ nước
buông_ tha
cây_x ăng
chứng_t ỏ
hệ_sinh_ thái
Bình_Ch ương
hồn_ nhiên
giáp_ mặt
khán_ giả
Nguyễn_Thành _Phương
Nguyễn_Thành_ Thượng
thịnh_ nộ
chữa_ cháy
bất_khả _kháng
Phú_Th ọ
lưỡi_ câu
sor t
Bộ_ đội
Ngày_ nay
niềm_ tin
khuyên_ can
nhanh_nh ẹn
hỏa_ hoạn
che_ giấu
thấp_th oáng
Hoàng_Ph ượng
khiếm_ khuyết
xóc_ chéo
mạnh_ dạn
ruồng_ bỏ
run_r un
Hòn_ Khoai
thù_h ận
Bùi_Thị _Xuân
dụng_ cụ
lọt_ lòng
buồn_t ẻ
Bunta phan
Vũ_Đình_ Liệu
sụt_ giảm
Joh n
Sav ẳn
đùm_ bọc
Phụng_ Hoàng
Kenne th
Olympi c
Quyết_ tâm
Sakon _Nakhon
rần_r ần
tọa_ độ
yểm_ trợ
AS EAN
Ang kor
Asa hi
Amer ican
A_Kh âm
BT 2
Biệt_ thự
Bản_ kẽm
Bil l_C
Cr imp
Cọ p
Cam_ Ly
Gle n_White
H_ làm_sao
Hợ p_đồng
Hon da
Hán_ Đà
Hợp _tác_xã
Huyện_ ủy
Kw anjai_
Kay marn_S
Kan sas
Lẽ _ra
Lon don
Lập_ nghiệp
Mỏ _Cày
Mon ivong
Môi_ giới
Mãi_ mãi
Niề m
Oxy _shop
Pu ma
Sê rêpô
Sử _dụng
SAR S
Sta dium
Sau_ này
Sing apore
Tắ k_P
Tương_ lai
Tốc_ độ
Tôn_ Đản
Tìm_ kiếm
THC S
Tỉnh_ ủy
Ung_ bướu
Ve dan
Vu_ Gia
Vương_ Tửu_quán
Vien tiane
Xà _xẻo
Yê u_cầu
Yer sin
an_t áng
bằ ng_lăng
bươ n_chải
bật_ mí
bận_ rộn
bấp_ bênh
bừa_ bãi
bởi_ vì
bơi_ lội
bâng_ quơ
ca_ ngợi
cim ex
cập_ nhật
cạn_ kiệt
can_ ngăn
cạm_ bẫy
cặp_ bồ
cằn_ nhằn
dáo _dác
dài_ ngo
dối_ trá
dza thip_Si
gang_ tấc
gắng_ sức
hì _hục
hân_ hoan
hừng_ hực
lé n_lút
lừ _đừ
luyệ n_tập
lác_ đác
lai_ lịch
lặt_ vặt
lau_ chùi
lảng_ tránh
lừng_ danh
lắng_ nghe
lù_l ù
lẳng_l ặng
mú n
manh_ mún
mực_ lá
măng_ xông
mải_ mê
móm_ mém
mét_ vuông
mặn_ chát
nả n_lòng
nượ p
nức_ lòng
nắm_ bắt
nườm_ nượp
ppin es
rụ t_rè
rồi_ đây
sặc_ sụa
sững_ sờ
tầ n_tảo
tồ i_tệ
tăm_ tắp
tải_ trọng
tiễn_ đưa
um_ tùm
vậ n_tải
vang_ vọng
vồn_ vã
viễn_ chinh
ví_ như
viết_ tay
xám_ xịt
xâu_ xé
xởi_ lởi
xưa_ nay
xà_l ách
Ðặng_ Hải_Lý
êki p
ô_t ô
Điện _Phương
Đống_ Đa
Đồi_ Đá
đư a_đẩy
ằn_t iện
ớt_m ồng_tơi
ngành_ nghề
ngẫu_ nhiên
ngỗ_ng ược
nhiế p_ảnh
nhu_ mì
nhuố m
nhuộ m
nhiên_ liệu
nhạy _cảm
nhức_ nhối
nhắc_ nhở
nhấp_ nháy
nhiêu_ khê
nhan_ sắc
nhiệm_ kỳ
nhộn_ nhịp
chài_ lưới
chạnh_ lòng
chùa_ chiền
thi_th oảng
thản_ nhiên
thiện_ chiến
thê_th ảm
trăn_ trở
trật_ tự
trằn_tr ọc
khập_ khiễng
khang_ trang
khấm_ khá
khối_ lượng
khống_ chế
pher omon
phờ_ph ạc
quên_ lãng
quật_ ngã
quặt_ quẹo
quắc_ thước
quét_ dọn
cá_b ống
cái_b ang
có_t iếng
mộc_ mạc
mộ_b ia
củ_đ ậu
Thăn dzathip_Si
Thung _Vình
Thống_ nhất
đã_đ ành
ướp_ lạnh
uốn_t óc
nhà_đ ất
_thập_ đỏ
hàn_h uyên
từ_gi ã
cải_t ạo
Chia ng_Mai
Char les_P
Tranthuy nguyen
đội_t uyển
động_t ĩnh
bài_th uốc
nói_th ẳng
chú_r ể
tiếng_l óng
Khâm_ Thiên
Khủng_ bố
Kháng_ chiến
Phili ppines
tuần_tr a
áo_ph ao
áo_qu ần
đều_đ ặn
hoạn_ nạn
tang_l ễ
côn_tr ùng
long_l anh
lom_kho m
loay_ho ay
tàn_b ạo
đồng_lõ a
Hà_Hữu_ Đồng
đố_k ỵ
luận_ án
luẩn_ quẩn
Mỹ_Ph ước_Tây
nghèo_kh ổ
nghèo_r ớt_mồng_tơi
phụ_huy nh
giấy_thông_ hành
điều_tra_ viên
cốt_l õi
học_lỏ m
đoạn_t uyệt
thoai_th oải
vị_thành_ niên
Kim_Ngọc_ Minh
thư_gi ãn
sinh_hoạt_ phí
lá_ng ón
hợp_thức_ hóa
xây_x ẩm
xuất_quỉ_nhập _thần
Cả_T ú
ngoan_ngo ãn
giám_định_ viên
Nguyễn_Văn_C ương
Babo lat
nguôi_ngo ai
túng_qu ẫn
đồn_b ót
thân_tàn_ ma_dại
tích_lũ y
Lê_Quang _Ninh
đỏ_r ực
cass ette
Tổng_lãnh_ sự
ậu_nhẹ t
Trà_B ồng
Trần_Thị_Th u_Dung
Võ_B ẩm
Võ_Văn_S ung
ra_tiếng_ vào
trợ_gi ảng
Nguyễn_Thị_Minh_ Khai
khoailang bahao
tầm_nhìn_ xa
Buôn_Ma_ Thuột
nick name
Hưng_Lị nh
đa_dạng_ sinh_học
Trương_Thị_Th ương
Phan_Đình _Phùng
mỏng_m anh
câm_như_h ến
xóa_đói_ giảm_nghèo
đến_nơi_ đến_chốn
nuôi_nấ ng
gần_gũ i
tỉ_lệ_phần_tr ăm
UdonThan i
mắt_lá_r ăm
rơmoo c
Spee do
Hồ_Hảo_H ớn
Inter net
Chao_Phray a
Bill_C linton
Kwanjai_ Kieatprapat
Kaymarn_S or_Ubdul
Sêrêpô k
Tắk_P ỏ
Thăndzathip_Si phanar
Charles_P almer
0 5
0 _
0 10
0 20
0 16
0 36
0 91
1 30
1 _tỉ
2 E
2 20
2 30
2 25
2 14
3 8
3 10
3 12
3 40
3 1_
3 60
3 70
3 80
3 21
3 41
3 _tỉ
4 6
4 D
4 20
4 60
4 39
4 43
5 3
5 6
5 7
5 70
5 72
6 8
6 1_
6 52
6 63
6 84
7 1
7 _
7 _triệu
7 2_
7 5_
8 2
8 3
8 5
8 6
8 7
8 50
8 1_
8 27
8 64
9 2
9 4
9 A
9 8_
A 4
A 5
A B
A Y
A d
A l
A u
A z
A rằng
A _M
A _L
A DS
A ron
B _
B ẻ
B ờ
B ử
B ay
B ây
B ường
B in
B ính
B ích
B út
B àng
B ước_
B ia
B ần_
B óc
B ạc
B óng
B ốc
B óng_
B ầu_
B ẩm
B ọt
B ẫy
B ối_
B ão
B ụt
B 52
B ựt
B út_
C u
C ò
C ư
C ỏ
C ự
C AR
C ân
C họ
C úc
C ập
C ực
C ám_
C ấp
C ăng
C ầm
C ọc
C ạnh
C ái_
C ai_
C ar
C úi
C ận_
C an_
C ăng_
C ánh_
C ống_
C ưới
C ộng_tác_viên
D R
D i
D ì
D ư
D ọ
D ày
D ai
D ây
D ùng
D iện
D inh
D ừng
D áng
D ạo
D ịch
D ính
D ậy
D iệu
D ài
D ần_
D iệm
D ốc_
D òng_
D ầu
D ịp
D ựa
D iện_
D ứt
D un
D ĩa
D re
D iễn_
D ũng_
D iệu_
D ường_như
D i_tích
D ông_tố
D ad
E R
E U
E _A
E m_
E ve
F u
F red
F ila
G D
G O
G u
G õ
G ỗ
G ình
G ấp
G ăng
G en
G ắn
G óc
G ấm
G ạn_
G ửi
G DP
G ương_mặt
G hề
G he
G ames
H T
H U
H i
H è
H ơ
H ỏ
H ố
H ỗ
H ong
H anh
H ao
H ường
H òn
H uộ
H át
H iển
H oài
H út
H am_
H iểu
H ong_
H ắc_
H iểm_
H ạn_
H ôn_
H uyền
H iểu_
H ẹn
H CN
H ướng_
H iếm
H ap
H iệu_
H ói_
H ẻm
H AY
I X
I a
I p
I v
I re
I DR
J u
J ar
J ICA
K 7
K i
K j
K o
K ỹ
K et
K iệ
K iế
K ong
K ình
K BKT
K ết
K iều_
K on
K om
K ý_
K al
K iểm
K én
K LĐ
K it
K HĐ
K em_
K sor
L A
L H
L Y
L i
L ạ
L ố
L ỗ
L ủ
L ũng
L eo
L âu
L iền
L in
L áng
L ỗi
L inh_
L át
L ực
L ối
L ính
L ậy
L ấn
L ửa
L ạch
L ên_
L ung
L âu_
L ặn
L ần_
L oại
L ái_
L ôi_
L ầu_
L ứa
L ạc_
L ựa
L ão
L ặng_
L ọc_
L áng_
L at
L ần_lượt
L uyến
L ạc_L
L ận_đận
L E_A
M K
M ê
M ô
M ọ
M ộ
M ờ
M iệ
M ất
M ến
M ân
M ơn
M ời
M ất_
M ạn
M in
M ối
M ạch
M en
M ường_
M ặc
M ít
M iêu
M ang_
M ộc
M ưu_
M ậu_
M iếu
M iền_
M ax
M it
M ệt
M iếng
M ùi_
M âu_thuẫn
M ướt
M aul
N X
N u
N à
N ú
N ỗ
N ộ
N ữ
N ên
N ong
N ao
N òng
N ạo
N úng
N ửa
N ắm
N uôi
N ấn_
N học_
N on
N ồm
N âng
N ổi_
N ếu_
N ặm
N GO
N IDR
O K
O P
O m
O NN
O V_
P a
P e
P o
P à
P ra
P hà
P as
P ray
P CC
P aul
Q uyề
R M
R ô
R ễ
R ượ
R ải
R iết
R ào
R ằng
R ăng
R ầm
R ạch
R ộng
R ượt
R òng_
R om
R ậm
R eal
R ee
R eng
R OP
S G
S T
S i
S o
S y
S à
S ơ
S ẽ
S ới
S a_
S ai
S ân
S an
S ức
S ắt
S ăn_
S âm
S ực
S úng
S ung
S ắm
S to
S ai_
S àn
S ang_
S iêu_
S om
S ầu
S ớm
S amp
S áng_
S ur
S ri_
S óc_
S el
T Q
T V
T ơ
T ế
T ỉ
T ớ
T ứ
T u_
T ai
T BKT
T ần
T an
T ồng
T ương
T ận
T ách
T òng
T ức
T inh_
T ạo
T ắc
T ích
T âm_
T ài
T ượng
T ôm
T ia
T ét
T óm
T óc
T ánh
T àn
T on
T ấm
T ội_
T iêu_
T ính_
T ùng_
T iểu_
T iễn
T òa_
T ầng
T ặng_
T iệc
T ax
T ấp_nập
T uyệt_
T ằn_tiện
U i
U l
U z
U 30
U 17
U yên_
U oát
U _Minh
V ẻ
V ỉ
V ờ
V ở
V ỹ
V iệ
V ay
V ai
V ây
V ân
V ùng
V ân_
V ách
V ăn
V òng
V ái
V ật_
V ượt
V òi
V ừa_
V ầng
V oi
V ợt
V ất_vả
V ượn
V ắng_lặng
V AC
V inam
V TV
W C
W ang_
W il
X a
X ê
X í
X ế
X ứ
X ử
X ưa
X em
X VN
X ương_
X âm_
X ài
X âu_
X ôm
X ia
X óm
X ôm_
X úc_
X at
X HCN
X KLĐ
Y on
Y om
Y al
Y or
Y _học
_ 1
_ K
_ e
_ Ý
_ và
_ cá
_ có
_ ôi
_ một
_ người
_ không
_ về
_ đi
_ này
_ bà
_ 00
_ làm
_ ào
_ biết
_ xe
_ má
_ rồi
_ cứ
_ quy
_ ba
_ gì
_ xuống
_ khó
_ Hải
_ cao
_ chính
_ Bình
_ khoảng
_ ar
_ học_
_ đầy
_ kế
_ ngờ
_ bài
_ riêng
_ ẩm
_ kích
_ độc
_ ứng
_ 100
_ vàng
_ hào
_ kết
_ ợt
_ Trần
_ chút
_ đám
_ bào
_ nóng
_ 2003
_ Bảo
_ giải
_ com
_ chỉ_huy
_ 300
_ 27
_ công_nghiệp
_ 45
_ On
_ í_
_ nghiêng
_ chỉnh
_ 600
_ nghịch
_ Buh
_ cứng
_ Kiên
_ 4_
_ họng
_ em_gái
_ 800
_ đinh
_ 090
_ bối
_ pháp_nhân
_ 354
_ 036
_ Ju
a _S
a th
a xin
a n_lòng
b ã
b õ
b ủ
b ôi
b ong
b anh
b ang
b ăm
b ập
b ái
b úng
b ác_
b ạnh
b ằm
b ét
b ẹp
b ấu_
b ôn_
b ủng_
b òng_
b ẩn
b ứt
b ùa
b ạch_
b iền_
b ẩm_
b it
b a_mẹ
b át_
b ới_
b ển
b ẩn_th
b ắn_t
b es
b ặm
b i_b
c c
c e
c ắ
c ôi
c ăm
c ồng
c uống
c ưng
c ối
c ạch
c en
c ường_
c ạy
c ạc
c ar
c ận_
c ắc_
c ài_
c ấu_
c òng_
c ẩn
c ậu_
c ọc_
c ởi_
c ằn
c ữu
c ột_
c ùi_
c ẩn_tr
c ợt_
c giê
d y
d à
d ấ
d ế
d ồ
d _P
d ướ
d ai
d ác
d inh
d ỗi
d át
d ấp
d ìm
d ầm
d im
d ép
d ăm_
d ập_
d ạt_
d ính_
d ứa
d ậm
d ọc_
d ĩa
d ột_
d ẹt
d ược_
d ồi_
d í_d
d ne
d íp
d ẻo
d y_d
d ặn_
d ỏm
d ỏng
d ge
d ềnh
d ward
e k
e w
e _S
e np
e an
e so
e un
e ur
e _lệ
e _ngại
f g
f t
f ab
f line
g u
g ù
g ạ
g ờ
g ườ
g ang
g ân
g ra
g òn
g án
g ừng
g anh_
g ội
g àng
g ật_
g ãi
g ặt_
g ởi
g ập_
g áp
g an_
g ăng_
g ối_
g ốm
g ấc
g ãi_
g ran
g ườm_
g oat
h ã
h ó
h ủ
h ôi
h iề
h ất
h ao
h ải
h ồng
h uyệ
h ổi
h ách
h òng
h iền
h ừng
h en
h ung
h óm
h óc
h óng
h ái_
h ăm_
h áp
h ạt_
h ăng_
h ầu
h ứng
h ót
h ùa
h iếu
h át_
h ằng_
h a_h
h ãm
h ửng
h óp
h óc_
h ãnh
h am_mê
h ãnh_
h ùn
i r
i s
i u
i n_
i er
i n_r
i ur
i ck
i _Phương
i _Diên
j u
j _S
j ad
j ean
k é
k ì
k ề
k i_
k iêu_
k iểu_
k iểm
k iện_
k iệm_
k ìa
k ịt
k iêng_
k iểng
k aki
k Sur
l d
l f
l t
l â
l ẹ
l ữ
l ỵ
l uy
l ượ
l ười
l u_
l ường
l ân
l ăm
l ết
l inh
l anh_
l am
l ta
l ồng_
l uộc
l ại_
l ắng
l ực_
l èo
l im
l éo
l ắt_
l ười_
l ụng
l ép
l ộng
l iêu_
l òi
l ẩu
l ầy
l ẩn_
l er
l al
l _T
l ót
l im_
l ặng_
l ằn
l ốt
l ượng_
l ơi_
l oài_
l ụt
l ép_
l iếc
l uyến
l iếm
l ùi_
l ửng
l iệu_
l and
l ham
l ướt
l iếp
l ữ_đoàn
l ung_l
l ướt_
l _O
l ẩn_tr
l phia
l ươn
l ận_đận
l bert
m e
m è
m é
m ế
m ụ
m ủ
m ừ
m _C
m ông
m ườ
m ông_
m au
m ương
m eo
m ân_
m uộ
m ách
m ập
m ình_
m in
m ống
m ịch
m ầm
m ền
m éo
m ắc_
m ấu_
m ốc_
m ôn_
m óng_
m an_
m ẩm
m iễn
m ẩn
m il
m ối_
m ến_
m ốt
m iền_
m ắng_
m ía
m úa
m ứt_
m ẫn_
m ệnh
m ễn
m ới_đây
n a
n t
n é
n ạ
n ặ
n ẻ
n ế
n ỉ
n ớ
n ong
n ồng
n ương
n òng
n âu
n anh_
n em
n iên_
n ồng_
n ung_
n êm
n ết_
n ọc
n ặc
n am_
n ạng
n ẹp
n ít
n ài_
n òng_
n ẩy
n oi
n uối
n ơm
n át_
n ằng_
n ớp
n ứt_
n ắn_
n ện
n ac
o C
o v
o y
o ang
o ạch
o _n
o ắt_
o ản
o ạp
o an_
o án_
o la_
o se
o st
o anh_t
o ạt_đầu
o enp
o kSur
p s
p y
p í
p ay
p ong
p er
p ing
p pha
p ap
p a_S
p ick
p ost
r y
r ơ
r ễ
r ố
r ồ
r ình
r ết
r ăn
r âu
r ập
r ồng_
r ọi
r ống
r ắc
r ọc
r ạt
r ời_
r ia
r ảo
r ằm
r ám
r éo
r ong_
r ạc
r ái_
r ốn
r ủng_
r ầu_
r ôm_
r ầy
r èn
r ậm
r uổi
r ỉnh
r ớm
r ùa
r èm
r áp_
r ợp
r ủi
r ing
r ìa
r ít_
r le
r êu
r ịt
r ưởi
r ói
r ắn_
r êu_
s k
s õ
s ù
s ả
s i_
s ương
s ừng
s ành
s áo
s am
s ho
s ta
s ỏi
s ương_
s ám_
s ấp
s lo
s ầm
s ếu
s àng
s ắn
s tra
s ồn
s ảo
s ắt_
s ảnh
s ấm
s òng_
s ầu_
s ấm_
s ảng_
s ậm
s il
s ưu_
s ùi
s ồn_
s ém
s ak
s ủi
s ing
s ếu_
s iêng_
s tan
s ói
s ênh
s hop
s ếp
s ộp
s ủa
s ir
s pap
t t
t ã
t i_
t u_
t ày
t anh
t ất
t ướ
t ước
t ương
t át
t iệt
t úng
t ường_
t ấu
t i_t
t ảo
t iễ
t óm
t iểu
t ong_
t uyên
t ản
t ặc_
t ôi_
t òng_
t ọt
t ẩn_
t ục_
t ướng_
t ụt
t ịt
t ồi_
t óm_
t ton
t su
t ường_trình
t anh_t
t ằn_tiện
u p
u ế
u ở
u ch
u ông
u i_
u ra
u lo
u ẩn_
u man
v o
v ú
v ơ
v ố
v u_
v ần
v ương
v ận
v inh
v ức
v ữa
v ái
v ương_
v ấp
v èo
v ời_
v óc
v ãi
v ar
v ít
v ấn_
v an_
v ầy
v il
v én
v ắng_
v ía
v iếng
v ắn_t
v ằn_
v í_dụ
v íu
v ốn_
v ươn
v inam
w n
w th
w en
w on
w el
x ệ
x ị
x ỏ
x ổ
x ờ
x i_
x iề
x ay
x ước
x ào
x âu
x ơi
x áo
x áng
x âm
x ua
x óc
x ẹp
x iêu
x on
x ập_
x ốc
x áp
x ăng_
x ầm_
x ối_
x ùi
x oi
x ê_d
x íu
x ú_
x ệch
x ốp
x ềnh_
x oàng
y a_
y ết_
y _khoa
y _Phả_X
y _học
z en
z he
z ih
Á n
Í t
Ð ấy
Ð ầu_
Ô tô
à u
á i_tim
ã ng_l
ã _L
è ve
è _nhẹ
ê nh_
ê _ph
ê _lợi
ì _x
ì _đùng
í _T
í _chất
ò _g
ò _chuyện
ò m_ngó
ò _e
ó t_
ó _lẽ
ô t
ô n_l
ô n_t
ô n_luyện
ô _Cát
ô n_tập
ô gam
õ ng_
ù n_
ù n_t
ù _Đ
ù _phú
ý _t
ý _H
ý _thức
Ă n_
Đ _
Đ ả
Đ ẻ
Đ ế
Đ ọ
Đ ố
Đ au
Đ oà
Đ eo
Đ úc
Đ ắt
Đ ặt
Đ iên_
Đ ực
Đ oài
Đ ền
Đ óng
Đ ụng
Đ àn
Đ ạp
Đ ắc_
Đ áp
Đ ội_
Đ an_
Đ ậm_
Đ ến_
Đ uổi
Đ ốm
Đ áy
Đ ăng_ký
Đ oạn
Đ am_mê
đ ế
đ ớ
đ ừ
đ u_
đ anh
đ ình
đ ao
đ ước
đ án
đ òng
đ ình_
đ anh_
đ ảng
đ âm_
đ út
đ ắng
đ ắn
đ ọng
đ ằm
đ ét
đ ạc
đ ắt_
đ ản
đ ăm_
đ uốc
đ ạn_
đ ọt
đ ấm_
đ ẫy
đ ục_
đ ạm_
đ ĩnh_
đ ắm_
đ ẵng
đ ỉnh_
đ ằng_
đ iếng
đ ợi_
đ ớn_
đ ì_đùng
ũ i_
ơ _kh
ơ loong_
ư _Đông
ư ỡi_
ả m_
ả n_lực
ả _thiết
Ầ m
ầ ng_
ầ n_thoại
ầ n_thể
ẩ ng
ẫ m_
ẫ n_n
ậ n_thức
ắ ng_t
ằ n_ng
ẳ ng_lẽ
ẵ n_
ẹ _l
ế _Hùng
ề ng
ề u_
ề _kh
ề n_r
ể n_tập
ỉ a
ỉ m
ỉ n
ỉ u
ị n_
ọ n_ho
ỏ n
ỏ a_
ỏ _G
Ố c_
ồ m_
ồ i_t
ồ n_lực
ổ ng_
ổ i_thơ
ổ _đề
ổ _phần
ỗ i_m
ộ m_
ớ _tr
ở _nh
ở _vậy
ở _ẩn
ở _riêng
ỡ ng_l
ỡ _ngàng
ợ c
ụ y
ụ p_giật
Ủ a
ủ _Ngọc_
ủ _Lý
ứ _h
ử u
ữ _V
ữ _thập_đỏ
_N ông
_N ên
_N iên
_N ứa
_N ốt
_N ew
_N ữ_V
_V ô
_V ũ
_V ang
_V iện
_V ân_
_V ọng
_V iệt_
_V iễn
_V eng
_P họ
_P aul
_P ier
_P ơloong_
_A 5
_A nh_
_S u
_S ở
_S ử
_S ỹ
_S au
_S ết
_S inh
_S ậy
_S im
_S om
_S ap
_S ou
ng ớ
ng ứ
ng ừ
ng ự
ng ải
ng ùng
ng ước
ng ào
ng án
ng ời
ng ậy
ng ại_
ng ấn
ng ôn
ng ưởng
ng ật_
ng ạnh
ng ắt_
ng ặt_
ng ắc_
ng ấm
ng ốn
ng óng_
ng an_
ng òi
ng ót
ng ồn_
ng ớt
ng ượng_
ng ắm_
ng ợp
ng ộn
ng ơi_
ng úm
ng ọt_
ng uyệt_
ng ẩng
ng ằn_ng
ng ồi_t
_R ê
_R ì
_R ong
_R anh
_R ang
_R ồng
_R iêng
_R ẫy
_R aymonde_Dien
_R uch
nh ủ
nh ừ
nh ử
nh ông
nh uy
nh ai
nh ường
nh ồi
nh eo
nh ức
nh ục
nh ích
nh úng
nh ấn
nh oài
nh âm_
nh ung
nh iễ
nh òa
nh uốc
nh áp
nh au_
nh ục_
nh oi
nh ọc_
nh iễu
nh ủi
nh ũng_
nh em_
nh óm_
nh ắn_
nh oáng
nh úm
nh ịn
nh ếch
nh út_
nh ợt_
nh ậu_nhẹt
nh è_nhẹ
nh òm_ngó
nh ẫn_n
nh ẵn_
nh ịn_
nh ọn_ho
_Nu ôi
ch ững
ch ình
ch ang
ch ùng
ch ước
ch iết
ch uyệ
ch ình_
ch áo
ch a_đ
ch ối
ch ua
ch ầm
ch ặp
ch âm_
ch ột
ch ảo
ch ần_
ch ắt_
ch ãi
ch ai_
ch ấn_
ch ầu_
ch ùng_
ch ăng_
ch èn
ch ớm
ch ồm
ch ồn_
ch ột_
ch ưng_
ch ới_
ch ổng
ch ốn_
ch áo_l
ch iêm_
ch ẳng_lẽ
ch ồm_
ch ụp_giật
AR 15
th e
th ất
th iên
th ào
th inh
th òng
th ắt
th ơi
th _W
th ám_
th ạch
th en
th uốn
th ưởng
th ượng
th ước_
th âu_
th iểu
th ong_
th ặng
th ắt_
th uộc_
th ánh
th on
th ôn_
th iêu_
th ọt
th iểu_
th ẩn
th uyề
th ảng_
th ối_
th ỉnh
th ót
th ẹn
th ọc_
th ạch_
th ắm_
th ưởng_
th ak
th ần_l
th at
th êu
th ượng_t
th êm_
th ói
th ướt
th ần_tr
th ép_gai
_D iệ
_D u_
_D ược
_D anh
_D anh_
_D ìn
_D ậu
_D iệm
_D ầu
_D iễm
_D uyến
et ai
et nam
et ing
et _Lào
et thak
_C ả
_C ổ
_C ai
_C ưa
_C ăn
_C ập
_C ưng
_C ảng
_C ung
_C ắn
_C hay
_C on
_C hành
_C ur
_C ola_
_C uông
_C ư_Đông
_C ửu
tr ê
tr ỏ
tr ờ
tr iều
tr uyệ
tr ơn
tr òng
tr úc
tr ơi
tr ành
tr ồng_
tr át
tr ắc
tr ăng
tr ấn
tr út
tr âu_
tr èo
tr ắm
tr ặc
tr ét
tr ướng
tr ận_
tr ăm_
tr áp
tr ượt
tr òng_
tr ánh_
tr ọt
tr ầu
tr ườn
tr ống_
tr ừng_
tr iền_
tr ói
tr uân_
tr i_âm
tr iều_cường
tr ót_
tr ù_phú
tr ắng_t
tr ộm_
tr ớ_tr
n_ có
n_ đầu
n_ nào
n_ máy
n_ công
n_ điểm
n_ chu
n_ giữ
n_ hạ
n_ đoạn
n_ đốc
n_ nhóm
n_ ra_
n_ mạng
n_ sóng
n_ chiếu
n_ Tum
n_ hại
n_ phận
n_ Hữu_
n_ khúc
n_ vút
n_ sốt
n_ móng
n_ gợi
n_ suyễn
n_ Iv
n_ gàng
kh ù
kh et
kh a_
kh anh_
kh ái
kh áng
kh ống
kh âm_
kh ấu
kh ạc
kh ản
kh ấn_
kh ốn
kh ựng
kh úc_
kh iếu
kh ẹt
kh ẩn_th
kh ớp
kh ét_
kh ọt_
kh iêm_
kh ề_kh
kh ứ_h
ng_ gi
ng_ độ
ng_ cao
ng_ viên
ng_ phí
ng_ đứng
ng_ thương
ng_ vật
ng_ vườn
ng_ thiếu
ng_ Trời
ng_ dính
ng_ bi
ng_ quý
ng_ Yến
ng_ Lệ
ng_ Tồng
ng_ bái
ườ i_tình
ph e
ph o
ph ơ
ph ạ
ph u_
ph a_
ph ước
ph ồng
ph ết
ph ập
ph iệt
ph ạch
ph ành_
ph ai_
ph iêu
ph on
ph ấp_
ph ạt_
ph an_
ph ảng_
ph ẫu
ph ò_m
ph ôi_th
ph ẩm_chất
ph ê_ph
ph ản_lực
là ng_m
là n_sóng
i_ gi
i_ từ
i_ đất
i_ chuyện
i_ Ông
i_ lòng
i_ phần
i_ suất
i_ tiếc
i_ dương
i_ xẻ
i_ chết_
i_ tráng
i_ lên_đường
i_ cút
i_ Mọ
i_ nhục
i_ chang
và nh_
gi t
gi ạ
gi ẻ
gi ời
gi ám
gi ấu_
gi ục_
gi ống_
gi ằng_
gi ãi_
gi ặm
gi ẫm_
qu ĩ
qu ệ
qu ỳ
qu ỹ
qu ày
qu ất
qu ây
qu ào
qu ách
qu ặp
qu àng
qu ặn
qu ặng
qu ắt_
qu ốc
qu ẫy
qu ẩy
qu ệt
qu ẹt
qu ần_thể
qu ều_
nh_ thường
nh_ Tùng
nh_ vực
nh_ Lộc
nh_ đạo
nh_ ma
nh_ trọng
nh_ láng
nh_ tháng_
nh_ thơi
t_ ngh
t_ cuộc
t_ Lo
t_ xác
t_ bão
t_ dạ
t_ rét
t_ khao
t_ chít
t_ bùng
cá _đ
cá _tính
cá _biệt
cá i_chết_
m_ từ
m_ lu
m_ lòng
m_ cấp
m_ đặt
m_ thư
m_ bệnh
m_ chế
m_ dụng
m_ giọng
m_ năng
m_ sóc
m_ góp
m_ họp
m_ trải
m_ đồng_tiền
m_ tái
m_ hiếp
m_ khát
m_ sụp
m_ ngát
m_ Khắc_
m_ xuôi_
m_ Har
m_ ró
m_ nhảm
m_ tụm
m_ Lũng
m_ Xia
m_ nớp
m_ xờ
có p
có t
uy _nghi
mộ ng_m
mộ _phần
của _ch
của _c
của _n
của _rơi
c_ người
c_ bộ
c_ hành
c_ thang
c_ cạnh
c_ thúc
c_ trực
c_ Yên
c_ Đình
c_ lóc
c_ ó_lẽ
u_ có
u_ Tr
u_ lo
u_ đều
u_ cần
u_ cố
u_ hành
u_ vật
u_ Minh
u_ mạnh
u_ phỉ
u_ xấu
u_ Thảo
u_ ghen
u_ nại
u_ Bia
u_ hiền
u_ thào
Th i
Th ả
Th ệ
Th ử
Th ông
Th ai
Th ân_
Th ất_
Th áo
Th ương_
Th ích
Th ạch
Th ường_
Th âm_
Th ám
Th ấu_
Th ầy
Th uốc_
Th ốt
Th èm
Th áp_
Th iệp
Th ana
Th ạc_sĩ
Th ạnh_
Th í_dụ
Th ôi_th
Th oạt_đầu
Th ần_thoại
Th ỏa_
Th u_Thảo
ay ai
ay lo
ay car
ong kor
đã _vậy
a_ là
a_ đá
a_ đề
a_ sĩ
a_ sáng
a_ học_
a_ vui
a_ cạnh
a_ sơ
a_ thùng
a_ xẻ
a_ vây
a_ Lang
a_ xoa
a_ Games
ướ m
ướ p
cho án
cho ạng
cho _biết
ngh è
ngh en
ngh ẹn
ngh ía
ngh i_thức
ngh ênh_
như _tr
như _không
ấy _động
ông_ xã
ông_ thú
ông_ bầu
ao _T
ao _đổi
ao _hồ
co ca
co py
co tton
KT 3
uố n_khúc
ùng _Văn_
về _về
an s
an ia
an zih
an _New
an _Ruch
nhà u
nhà ng
nhà _t
nhà _l
nhà _h
nhà _vệ
nhà n_r
nhà _tư
nhà _nông
nhà o_n
nhà n_hạ
họ _tộc
họ a_sĩ
ra te
ra nh_ma
_th ê
_th ơ
_th ẻ
_th ỉ
_th iên
_th ực
_th ấp
_th iệt
_th ảy
_th uốc
_th ầy
_th ẹn
_th ìa
_th ép_gai
vào _s
vào _sinh_
vào _khoảng
_X oan
_X uân_
từ _t
từ ng_l
từ _biệt
từ _nan
đó m
đó _đây
cả n_ng
cả _thảy
iết _Cảnh
Ch è
Ch ơ
Ch ả
Ch ỗ
Ch ờ
Ch ừ
Ch án
Ch am
Ch ồng_
Ch ống
Ch iến
Ch èo
Ch ắt_
Ch ơn_
Ch ảy
Ch ương_trình
Ch iếm
Ch uyên_
Ch i_tiết
Ch í_T
Tr ì
Tr ứ
Tr ừ
Tr ông
Tr ại
Tr eo
Tr ách
Tr ình_
Tr ỗi
Tr ích
Tr ắng
Tr ôm
Tr ái_
Tr ầm_
Tr ùm
Tr ắm_
Tr ưởng_
Tr ộm
Tr iển_khai
Tr ực_thăng
Tr iều_cường
Tr i_Phương
Tr oy
Tr uman
Tr ái_tim
Tr ò_chuyện
Tr ao_đổi
độ _lượng
độ _ẩm
oà ng_Yến
thì a
thì _có
bà _đ
bà n_l
bà i_t
bà _ngoại
bà _ba
00 1
ồng _Phong
_t u
_t ẻ
_t ai
_t ần
_t iện
_t án
_t ơi
_t uộc
_t ối
_t àng
_t èo
_t ặng
_t ức_
_t ấm_
_t iếu
_t ẹo
_t à_l
_t óp
_t àu
_t ầng_
_t ổng_
nó t
nó n_ra_
Nh ập
Nh ầm
Nh ận_
Nh an_
Nh ật_ký
Nh ựt
Nh ậu_nhẹt
Nh ận_thức
Nh ẹ_l
số _h
số _một
chỉ _số
chỉ _bảo
chỉ n_chu
ào _ào
eo n
eo _h
Ng ự
Ng ân
Ng ước
Ng ập
Ng ặt
Ng ắm
Ng ọn
Ng on
Ng ậm_
Ng ựa
Ng ẫm
Ng ỡ_ngàng
Ng ười_tình
mà _g
ngày _là
khi nh_thường
ân_ sắc
ân_ huy_chương
ất_ tổ
ất_ sinh
ất_ thân
ất_ Thiện
p_ ý
p_ nước
p_ lặn
p_ nhập
p_ trưởng
p_ vàng
p_ bóng
p_ khúc
p_ Thân
p_ nháp
công_ ước
công_ ơn
công_ cụ
công_ đoàn
công_ đoạn
công_ thức
công_ nhân_viên
công_ luận
công_ chiếu
công_ trình_
công_ sở
công_ binh
công_ xưởng
công_ tắc
công_ nhật
công_ thức_
công_ cán
công_ dung_
công_ chúa
công_ chánh
chú _tâm
chú a_chát
chú _thích
chú a_sơ
bị a
bị _g
bị _đơn
đị u
đị nh_m
xe n
xe n_l
xe _con
xe _b
xe n_kẽ
chiế n_t
chiế u_cố
ách _m
ách _H
_l a
_l e
_l á
_l ù
_l ớ
_l ên
_l ược
_l ác
_l eo
_l ết
_l ẫn
_l ơi
_l ội
_l át
_l ưng
_l ên_
_l ạt
_l ét
_l iêu
_l ượt
_l ĩnh
_l ọt
_l uật
_l ẫm
_l ãm
_l ưỡi
_l òm
_l ên_th
_l ò_m
_l ơ_kh
_l ưỡi_
_l ụy
Kh á
Kh anh
Kh ương
Kh âu
Kh ắc
Kh ám_
Kh ám
Kh óc
Kh ái_
Kh ánh
Kh óa
Kh ầu
Kh án_
Kh uyến
Kh ói
Kh ắp_nơi
Kh e_S
Kh í_chất
_d ĩ
_d ai
_d ùng
_d iện
_d inh
_d ặt
_d ung
_d ạt
_d ứt
_d ẫm
_d es
_Q uyền
việ t
đá u
đá _v
_h y
_h è
_h ê
_h ò
_h ả
_h ở
_h ại
_h ao
_h òn
_h án
_h iền
_h ấp
_h ấn
_h ôn
_h ồn
_h ạng
_h oại
_h iểm_
_h ội_
_h ỏa
_h ênh
_h ỏng
_h ẻm
_h ỏn
qua n_l
Ph á
Ph ường
Ph eo
Ph ật
Ph áo
Ph ước_
Ph ật_
Ph ải_
Ph it
Ph án_
Ph ila
Ph ẩm_chất
Ph ath
Ph y_Phả_X
Ph ù_Đ
Ph ủ_Lý
Ph u_Bia
Ph a_Lang
Ph ùng_Văn_
ình_ nghĩa
chí _ch
chí n_t
chí _thú
chí _tử
tu cha
tu ềnh_
chị _gái
chị _em_gái
anh_ cả
anh_ nghiệp
anh_ quanh
anh_ dũng
áo _m
áo _cho
áo _bông
ái _Su
in ya_
kho á
kho ái
kho áng_
kho _bạc
inh_ ỏi
_đ ô
_đ ông
_đ ày
_đ ình
_đ ần
_đ ồng
_đ ào
_đ ẫn
_đ ập
_đ iền
_đ ặt
_đ ạt
_đ ẳng
_đ ạp
_đ ấm
_đ ứng
_đ uổi
_đ ẹt
phá _ph
phá _sản
am on
am no
am bang
am sing
am ura
_tr i
_tr ệ
_tr òn
_tr ồng
_tr àng
_tr ánh
đề m
đề n_t
đề _b
đề n_mạng
đề u_đều
ăn_ đường
ăn_ tiền
ăn_ hỏi
ăn_ phòng
ăn_ nằm
ăn_ diện
ăn_ thông
ăn_ chia
ăn_ mừng
ăn_ thoắt
ăn_ đậu_
ăn_ mất_ngủ
ăn_ chốn_
_m ó
_m ả
_m ỉ
_m ong
_m ến
_m ây
_m òn
_m ừng
_m ôn
_m ạch
_m en
_m ặt_
_m ươi
_m ẫu
_m ẫm
_m ãn
_m ượn
_m ệnh
bộ n
bộ p
bộ _mặt
bộ _dạng
bộ n_bề
bộ i_phần
bộ _môn
ho e
ho n
ho t
ho ác
ho án_
ho a_h
em _Re
_s ộ
_s ương
_s ách
_s úng
_s óng
_s ức_
_s iêu
_s ừng_
_s ệt
_s ói
_s oát
quy ên_
quy _hoạch
quy _trình
quy _tắc
quy _cách
quy _chế
quy _mô
quy _luật
a_đ ông
a_đ ơn
a_đ ựng
a_đ òi
a_đ uổi
a_đ ất_tổ
nào _ngờ
sự _tích
sự _thực
_ch a
_ch e
_ch ỗ
_ch ớ
_ch ừ
_ch ữ
_ch ài
_ch ung
_ch ắn
_ch ứng
_ch ót
_ch áu
_ch ứng_
_ch a_đất_tổ
máy _c
máy _n
máy _điện
máy _chủ
máy _lạnh
máy _xách
n_th u
n_th ở
n_th iên
n_th án
n_th ời
n_th ục
n_th ống
n_th ua
n_th uyết
ta l
ta lo
ta n_r
ta ek
ta fab
ta ng_vật
ta m_cấp
ồng_ Lê
ồng_ Khanh
giờ _kh
tay _c
tay _ng
tay _phải
tay _xách
_v n
_v á
_v ũ
_v ả
_v ờ
_v ở
_v ang
_v ời
_v ập
_v út
_v ạy
_v ụng
_v ận_
_v ãng
_v ãng_l
_v ăn_phòng
_nh ã
_nh ố
_nh ao
_nh ác
_nh iệt
_nh ọc
_nh ạt
_nh óc
_nh ớp
_nh ất_sinh
cách _chức
cách _biệt
cách _ly
ba n_t
ba by
cô t
cô ppha
cô i_cút
cô _hồn
vợ i
vợ _bé
bố _con
bố _phòng
bố n_bề
ám_ hiệu
xã _hội_
lo p
lo an
lo áng
lo ét
lo áng_
lo _ngại
lo a_thùng
lo anh_quanh
gì n_giữ
nay _mai
tà _ý
tà i_tử
tà _lọt
ại_ nguyện
thế _lực
thế _chân
ết_ dở
Ông _Dầu
chủ _b
chủ _sở
chủ _hộ
19 3
19 10
19 20
19 30
19 25
19 40
19 39
19 37
cơ _c
cơ _b
cơ _nghiệp
cơ _cực
cơ _may
cơ n_sốt
nghiệ n_hút
_ph ụ
_ph ương
_ph ổi
_ph óng
_ph ẩm
_ph ỏng
en ting
en tal
đồng_ đất
đồng_ phục
đồng_ bọn
đồng_ tiề
đồng_ loạt
đồng_ quà
đồng_ khởi
đồng_ đảng
đầu_ ra
đầu_ hàng
đầu_ cơ
đầu_ đường_
đầu_ tàu
đầu_ hồi
đầu_ đỏ
đầu_ gối
đầu_ lè
đầu_ gối_
Hà _Th
Hà _Lan
Hà _Sen
Hà _Văn_Dũng
bu ri
bu ôn_l
ường_ Kiệt
bảo _nhỏ
bảo _hiểm_
ên_ Quang
đố m
đố c_thúc
Gi ơ
Gi ừ
Gi ải
Gi ác
Gi ành
Gi ống
Gi ấu
Gi ai_
Gi ầu
Gi ấc
Gi an_n
Gi or
Gi lbert
Gi ả_thiết
âm_ lịch
âm_ lượng
âm_ phạm
âm_ phủ
âm_ sắc
âm_ nhạc
i_th ọ
i_th ất
i_th ai
i_th úc
i_th óp
i_th uở
làm_ bạn
làm_ chi
làm_ cỏ
làm_ thân
làm_ phép
làm_ thịt
làm_ lụng
út _Vinh
thu i
thu ôn
thu ận_
thu hu
thu ổng
bao _g
bao _cấp
bao _tải
bao _cao_su
bao _che
giả _định
giả _dạng
giả _vờ
Hùng _Cường
vụ ng
vụ _trưởng
vụ _lợi
Nguy _cơ
n_tr ò
n_tr ả
n_tr ôi
n_tr anh
n_tr ình
n_tr ách
n_tr iệt
n_tr ắng
n_tr ánh
ác_ thú
ác_ miệng
ác_ mộng
n_l ì
n_l ờ
n_l ỵ
n_l ương
n_l ách
n_l ục
n_l âm
n_l át
n_l ấp
n_l ính
n_l ấn
n_l ượng
n_l ý_
n_l iếng
cây _g
cây _viết
cây _trồng
ực_ hóa
n_t ả
n_t ược
n_t ắm
n_t ạp
n_t uột
quả _thật
quả n_tượng
quả _cảm
quả n_đốc
quả n_lý_
tra ng_l
tra u_d
khó e
khó c_lóc
khó _nhọc
ước_ ao
ước_ tính
Hải _Nam
Hải _Anh
âu_ lo
èo _khó
do i
do _đó
cao _ng
cao _độ
cao _thủ
cao _cả
cao _tầng
cao _lớn
cao _thấp
cao _siêu
cao _vút
i_t ả
i_t ề
i_t ụ
i_t ới
i_t ái
i_t áng
i_t âm
i_t ối
i_t ưởng
i_t ượng
i_t ắn
i_t ắm
i_t ám
i_t ươi
i_t ới_
i_t óm_lại
quá t_m
quá _gi
quá ng_qu
quá n_x
quá _trời
quá n_có
quá n_triệt
báo _vụ
báo _điện_tử
lu ck
lu nac
lu i_tới
xu ất_cả
xu ýt_
xu i_xẻ
xu ân_sắc
xu a_đuổi
im a
im et
im er
gh è
gh in
gh im
gh ép
gh èn
gh ềnh
tự _x
tự _lực
tự _ý
tự _lập
tự a_đề
ật_ số
nghĩ _ng
Qu ỹ
Qu ần_
Qu ái_
Qu ý_
Qu ợt
Qu án_
Qu ẹt
Qu ới_
Qu ách_H
ời_ trồng
khách _kh
khách _quê
khách _vãng_l
tổ ng_t
tổ _hợp
tổ n_thương
tổ n_hại
tỉ _mỉ
tin _Sim
tin ental
mẹ _già
mẹ _kế
mẹ _cha
mấy _khi
mấy _mươi
tử _hình
tử _chiến
tử _huyệt
thể u
thể _chất
thể _loại
thể _diện
ạnh _An
tố c_hành
chá n_ng
chá t_chít
chứ a_đựng
hộ _pháp
hộ i_tề
một_ mặt
một_ không_
một_ trăm
một_ phần_tư
lấy _làm
trở _tay
trở _dạ
trở _lên
Mỹ _Th
_c ờ
_c an
_c ận
_c ập
_c ội
_c uộc
_c ậy
_c ấn
_c ung
_c ột
_c ạp
_c ụt
_c ò_g
_c ổ_phần
hay _sao
hay _chớ
thủ _qu
thủ _thế
thủ _tướng
thủ _thỉ
thủ _lĩnh
am_ tường
tình_ ý
tình_ đầu
tình_ bạn
tình_ trường
tình_ sâu
tình_ nghĩa
tình_ nguyện_
tình_ tiết
ngay _tức_
phí m
phát_ nổ
phát_ kiến
phát_ đơn
phát_ pháo
Tu ần
Tu ân
Tu ổi
Tu la
Tu ổi_thơ
nghề _tự
tiếp _tế
tiếp _tân
Bà n
Bà _xã
Bà n_thờ
Bà u_Tr
trẻ o
trẻ _hóa
hệ _trọng
hệ _quả
Có _mặt
Có _vẻ
ần_ hẹn_l
giao _tranh
giao _nhận
giao _thừa
_n ợ
_n úng
_n áy
_n ẹt
_n ách_m
thành_ thật
thành_ lũ
thành_ danh
thành_ hôn
Lan ka
khu m
khu ôn
khu ấy_động
bỏ _ho
bỏ _xác
bỏ _cuộc
éo n
Chương _Dương
thứ _sáu
thứ _thiệt
thứ _hạng
_qu ang
_qu ân
_qu ào
_qu ậy
_qu ạch
_qu ốc_
dự _phòng
dự ng_đứng
hồ n_b
hồ n_v
hồ i_tưởng
ong_ Toàn
ong_ Quân
ong_ Khảo
10 8
10 9
thời_ sự
thời_ cơ
thời_ giá
thời_ buổi
thời_ trang
thời_ hạn
điể n_hình
to i
to an
to áng
to ét
to ạc
to _b
to il
to án_
to a_xe
to day
to _tát
to cimex
to _cao
to ại_nguyện
không_ quân
không_ chừng
không_ tài_nào
địa_ lý
địa_ ốc
địa_ hình
địa_ danh
địa_ phận
địa_ linh_
địa_ võng
_b í
_b ạ
_b ề
_b ở
_b ần
_b ác
_b ết
_b ắt
_b uộc
_b ạo
_b óng
_b ụng
_b ẩn
_b ão
_b õm
ắt_ ẩn_th
giá _lạnh
giá n_đoạn
ái_ ngại
giú i
chạy _vạy
con_ nuôi
con_ bài
con_ nối
con_ nợ
con_ đẻ
con_ rể
con_ nít
Nam _Phước
nhỏ _lẻ
đủ _đầy
nhân_ sĩ
nhân_ loại
nhân_ phẩm
nhân_ thân
nhân_ khẩu
nhân_ tiện
nhân_ kiệt
nhân_ hậu
nhân_ thọ
nhân_ chủng_
ar enting
nước_ lợ
nước_ hoa
nước_ miếng
nước_ mắm
nước_ nôi
nước_ tương
sao _B
liên_ đoàn
liên_ quân
liên_ thông
liên_ ngành
liên_ danh
liên_ cảng
liên_ đới
nghèo _túng
hoà nh
hoà i_thai
hoà n_trả
hoà n_lương
kinh_ sợ
kinh_ hoảng
kinh_ hãi
kinh_ hồn_b
đại_ tu
đại_ bản_
đại_ phó
đại_ bác
đại_ sứ_quán
Nguyễn_ Tuấn
Nguyễn_ Thế
Nguyễn_ Minh
Nguyễn_ Quốc
Nguyễn_ Xuân
Nguyễn_ Huy
Nguyễn_ Quỳnh_
Nguyễn_ Trương_
Nguyễn_ Hoàng_
Nguyễn_ Tấn_
Nguyễn_ Hải_
Nguyễn_ Đinh
Nguyễn_ Huệ
Nguyễn_ Khắc_
Nguyễn_ Thanh_Sơn
Nguyễn_ Thiện
Nguyễn_ Quang_Trung
Nguyễn_ Hữu_Tình
Nguyễn_ Hữu_Hạnh
Nguyễn_ Hiểu_
Nguyễn_ Tri_Phương
Nguyễn_ Khuyến
Nguyễn_ Giầu
Nguyễn_ Hùng_Cường
Nguyễn_ Hải_Anh
điệ n_ng
điệ p_khúc
_Ch ăm
_Ch iên
_Ch inh
_Ch úng
_Ch ung
_Ch im
_Ch iêng
_Ch ấp_
_Ch ánh_
_Ch uối
_Ch ữ_thập_đỏ
ấn_ công
phụ p
phụ _x
phụ _trợ
phụ _sản
phụ _tá
phụ _cận
giấy _kh
giấy _bạc
giấy _chứng_
NP K
20 6
20 7
nhà_ nhà
nhà_ xe
nhà_ ống
nhà_ cầu
thực_ khách
thực_ tập
thực_ trạng
thực_ thụ
thực_ tiễn
chính_ khách
chính_ hiệu
chính_ luận
chính_ cống
_Th ụ
_Th iên
_Th ắm
_Th iện_
_Th iêm
_Th ế_Hùng
_Th ường_Kiệt
_Ph í
_Ph ủ
_Ph ạm
_Ph ụng
gia n_b
mù _sương
mù a_đông
mù _chữ
chữ _nhật
chữ _viết
chữ _thập_đỏ
chữ _quốc_
thông_ thoát
thông_ dụng
thông_ lệ
thông_ thạo
bệ t
lý _lẽ
lý _luận
lý _giải
quê _cha_đất_tổ
cuố n_x
cuố n_chiếu
cuố ng_quý
cuố c_bộ
cuố n_trôi
du_ thuyền
du_ đãng
hiệ n_thân
đường_ sông
đường_ đạn
đường_ nét
đường_ nhựa
điều_ độ
điều_ hòa
điều_ trị
điều_ phối
ản_ xuất
chu m
chu a_chát
chu ôt
cố p
cố _công
cố _xứ
ức_ chế
ức_ Hơn
trả _bài
học_ việc
học_ hỏi
học_ cụ
học_ phần
học_ kỳ
học_ cơ_sở
học_ vấn
học_ lực
Hà_N am
vô _kh
vô _dụng
vô _hình
vô _vọng
vô _phương
vô _can
ơn_ ớn
ắc_ Đẩu
tâm sự
yê n_thân
đo an
bất_ thành
bất_ bình
bất_ động_
bất_ mã
bất_ chợt
bất_ lợi
bất_ đắc_
bất_ khuất
bất_ hảo
bất_ cẩn
bất_ trắc
on eo
on line
on ov
Công_ nghiệp
Công_ thương
Công_ Hòa
Công_ nghệ
Công_ văn
Công_ Đoàn
_Văn_ Minh
_Văn_ On
_Văn_ Khoán
_Văn_ Kình
_Văn_ Án
_Văn_ Đực
_Văn_ Thiệp
tho ang_
tho áng_
tho át_
tho ạt_đầu
tho ăn_thoắt
tho i_thóp
tho ắt_ẩn_th
Chú a
già _đời
già _sức_
cuộc_ gọi
cuộc_ thi
dây _dẫn
dây _neo
dây _nóng
dây _thép_gai
vậy _là
vậy _sao
Chị u
Chị _em
_kh ẽ
_kh ai
_kh ôn
bắt_ mắt
bắt_ nguồn
bắt_ mạch
bắt_ nhịp
bắt_ vạ
cụ m_từ
ài_ Láng
Người _Phụ
chuyể n_b
chuyể n_thể
ấu_ thơ
ốc_ vít
ng_l ồ
ng_l ời
ng_l ảng
ng_l ánh
ng_l ẫy
ng_l âng
ng_l ợn
ng_l ẻo
cáo _già
cáo _buộc
xa lông
xa phia
Từ _Sơn
Từ _chối
Từ _Liêm
Và m_C
Và ng_Tồng
Và m_Lũng
lú p
lú m_đồng_tiền
lú _lẫn
nguy _nan
nguy ền_r
người_ người
người_ làm
người_ đời
người_ bệnh
người_ quản_lý
nhớ _đời
nhớ p_nháp
Thu ở
Thu ôn
Phú _Vang
Phú c_Yên
Tuấn _Anh
30 _
cử _tọa
cử _hành
cử _tri
mở n
mở _mắt
ấp_ úng
trung_ thành
trung_ đội
trung_ lập
trung_ đoàn
trung_ niên
trung_ tướng
trung_ du
trung_ học_cơ_sở
đổ _nát
đổ _máu
đổ _thừa
thợ _cả
thợ _điện
thợ _may
thợ _nề
khu_ kinh_tế
khu_ tập_thể
nghị _sĩ
hình_ bóng
hình_ dáng
hình_ sắc_
hình_ chóp
hình_ chữ_nhật
nhờ _vả
nhờ _cậy
ôn_ hòa
hàng_ họ
hàng_ hàng
hàng_ chợ
hàng_ dữ_liệu
hàng_ hải
đầy _r
tài_ công
tài_ phụ
tài_ nghệ
tài_ giỏi
tài_ hoa
TP _HCM
kế _tục
mũ _lưỡi_
Hai _Nên
Hai _Sết
Hai _Dìn
lộ n_x
lộ t_xác
lộ _thiên
lộ ng_lẫy
ạt_ vía
thư _điện_tử
tham_ ô
tham_ mưu_
đối_ lập
đối_ phó
Lo ong_Khảo
sách _giáo
sách _đỏ
sách _báo
sách _vở
sinh_ ra
sinh_ thành
sinh_ đôi
sinh_ trưởng
sinh_ lợi
sinh_ thái_
sinh_ nở
sinh_ thái
sinh_ nhai
sinh_ con_đẻ
tế _bào
đà m
hành_ hung
lá ng_gi
lá _cờ
chỗ _đứng
Trung_ thành
Trung_ Thành
Trung_ úy
lư ỡng_l
nổ ng
nổ _súng
tuy ển
óng_ ả
óng_ ánh
_Ng a
_Ng ữ
_Ng ự
_Ng ại
_Ng ập
_Ng ô_Cát
Tuy ến
Tuy ển_tập
Tuy ên_Quang
kết_ nghĩa
kết_ thân
kết_ nối
kết_ hôn
ruộ ng_vườn
văn_ hoá
òng_ Xuân
Thanh _Niên
thế_ ấy
thế_ này
thế_ nhưng
thế_ gian
hợp _thành
tư _bản
tư _pháp
tư ng_bi
Đó n_đầu
giữ _chân
giữ _gì
quốc_ phòng
quốc_ huy
quốc_ khánh
Theo _dõi
chiến_tr ận
quyết_ chí
quyết_ chiến
_M y
_M al
_M ad
_M ã_L
_ng ơ
_ng ầm
_ng ạt
an_ nghỉ
an_ nhàn
bé n
bé _con
bé _tẹo
bình_ an
bình_ điện
bình_ phẩm
bình_ phong
bình_ thản
kỳ _quan
kỳ _thú
kỳ _tích
kỳ _bí
ính_ lại
Thọ _Thành
gà _công_nghiệp
gà _đồng
hạ _bộ
hạ _lưu
hạ _cá
hạ _điền
lịch _trình
lịch _lãm
xây _đắp
_Sơn _Nh
_Sơn _Nam
Ngh ĩa
Ngh ẹn_ngào
Ngh i_Diên
Ngh èo_khó
xuất_ quân
xuất_ xứ
xuất_ ngoại
xuất_ huyết
Nhà _Đ
Nhà _trường
Nhà _Chung
lao _công
vu n_vút
vu i_tươi
Cả _Đ
Cả m_giác
Cả _Nứa
cư ỡi
cư _ngụ
cư a_xẻ
chợ p
chợ _trời
thanh_ kiểm_tra
thanh_ thản
quan_ san
quan_ niệm
kiểm_ nghiệm
kiểm_ sát_
ôm_ chầm
dù i
đào _x
đào _đào
chó t
chó i_chang
chó _sói
giám_ hiệu
đặc_ cách
đặc_ khu
đặc_ dụng
đặc_ lợi
đặc_ quyền_
đặc_ khu_kinh_tế
Trường _Chinh
Nguyễn _Du
Nguyễn _Ngọc_
Nguyễn _Công
Nguyễn _Phú
Nguyễn _Ngọc_Vinh
Nguyễn _Văn_Dũng
Nguyễn _Việt_
Nguyễn _Anh_
Nguyễn _Rê
Nguyễn _Sơn_Nam
kê _khai
lâu _Nh
sản_ vật
Thái_ Lộc
Thái_ Thịnh
Thái_ Huyền
bờ _gi
bờ _rào
bờ m_xờ
bờ _đập
so óc
so i_m
so n_thế
sử _học
sử _thi
sá p_nhập
đơn_ phương
đơn_ kiện
đơn_ sõ
cảm_ kích
trở_ ra
trở_ mình
50 _
50 _tỉ
_L ê
_L iên
_L ời
_L inh
_L ành
_L ung
_L ợi
_L ĩnh
dịch _bệnh
lạ _mắt
lạ _lùng
lạ m_dụng
lạ _tai
lạ _lẫm
Thế _Vinh
Thế _hệ
Thế _ra
Thế _chiến
Thế _thì
Thế _rồi
Thế _vận_
đánh_ máy
đánh_ bạn
đánh_ thuê
đánh_ vòng
đánh_ thức
đánh_ cắp
đánh_ trố
đánh_ vần
Ba _Phước
Ba _Rô
Ba by
Ba _Sen
Ba sil
Ba tt
_H y
_H ồi
_H ương
_H ằng
_H òa
_H ữu
_H era
_H oàng
_H oàng_Yến
dân_ công
dân_ chúng
dân_ đen
dân_ quân_
dân_ chơi
dân_ dã
dân_ vạn
Công_ty _cổ_phần
cửa_ quyền
cửa_ mở
cửa_ miệng
cửa_ quan
cửa_ tiệm
cửa_ rả
cửa_ nát_
Mu ỗi_m
lã ng_phí
lã i_suất
tâm_ tư
tâm_ tình
tâm_ khả
tâm_ thần
tâm_ địa
tâm_ lực
tâm_ can
tâm_ hôn
tâm_ nhang
tâm_ huyết
ầm_ ầm
ngu ýt
ngu ồn_lực
chi t
chi u
chờ _mong
ha tsu
kỹ _càng
kỹ _thu
nông_ trường
nông_ nhàn
Xu oi
Xu _Căn
Xu ất_thân
mặt_ khác
mặt_ trận
mặt_ trời
mặt_ mũi
mặt_ nặng_
mặt_ nạ
xe_đ iện_
xe_đ ẩy
giải_ cứu
giải_ khát
giải_ phẫu
12 V
xác_ thực
ãy _sừng_
Việt_ Hùng
Việt_ Minh
Việt_ Bắc
Việt_ Kiều
Việt_ Tài
mu ỗng
mu ông_thú
mu an_Ruch
ẩn_ bị
ẩn_ danh
ẩn_ chứa
ẩn_ náu
ủy _thác
cảnh_ trí
cảnh_ tượng
đàn_ anh
đàn_ đá
cà _tàng
tú a
tú p
tú ng_thiếu
tú m_tụm
tú c_trực
tú _lơ_kh
ng_t í
ng_t ải
ng_t ăm
ng_t iên
ng_t ạo
ng_t ủi
phân_ xã
phân_ viện
phân_ tranh
phân_ chia
phân_ xanh
phân_ vai
phân_ phát
phân_ xưởng
phân_ vân
phân_ bón
Minh _Sơn
Minh _Cảnh
Minh _Danh
_Đ ô
_Đ ược
_Đ ồng
_Đ ăng
_Đ àn
_Đ ỉnh
_Đ ức_Hơn
_Đ ài_Láng
bí _quyết
bí _danh
bí t_bùng
chế ch
199 4
hợp_ xướng
Hòa _Cường
Hòa _Phát
Vậy _thì
dễ _chịu
dễ _ợt
dễ _bề
gó i_lên_đường
gó c_cạnh
Đây _đó
đồ _án
đồ _đạc
đồ _dùng
đồ _sộ
Thị _Ngh
Thị _Ngọc
Thị _Lý
Thị _Huệ
Thị nh_Lộc
Thị _Liên
trang_ web
trang_ thiết_bị
Bộ _đồ
Bộ _tư
_x o
_x ẻ
_x ở
_x át
_x éo
_x ạc
_x uyến
_x ỉn
_x âm_phạm
thân_ ái
thân_ quen
thân_ thiện
thân_ mến
_ho a
_ho ảnh
_ho _cò_g
hoạt_ bát
Lào _Cai
mô tơ
mô _phỏng
tích _góp
Đà m_Khắc_
Đồng _Chu
ấm_ no
ấm_ ngoài_
n_b è
n_b ẩy
n_b át_
khổ _sở
khổ _cực
khổ _tâm
khổ _luyện
khổ _nỗi
khổ ng_lồ
bệnh_ lý
bệnh_ hoạn
cổ _động
cổ _độ
cổ _tay
cổ _xưa
cổ _truyền
cổ _họng
cổ ng_cao
cổ _đông
cổ _vũ
er son
er ting
hổ m
hổ n_h
hổ _thẹn
ảng_ cách
phong_ độ
phong_ cách
phong_ kiến
phong_ tình
phong_ thổ
phong_ tỏa
nghỉ _hè
chứng_ nhân
chứng_ thương
chứng_ bệnh
chứng_ thực
chứng_ minh_
chứng_ giám
hiện_ giờ
Muay_Th ai
Lê _Minh
Lê _Thị
Lê nh_đênh
Lê _Duy
Lê _Phụ
Lê _Ngô_Cát
Lê _Mã_L
Lê _Lợi
al ô
al es
al zhe
may _mà
may _ra
may _vá
toà ng
thương_ vụ
thương_ nghiệp
thương_ gia
thương_ tâm
thương_ hại
thương_ hàn
thương_ tiếc
trách _cứ
Ngày _xưa
Hồ _sơ
Hồ _Raymonde_Dien
Hồ _Duyến
Hồ _Xuân_
_T _
_T ô
_T âm
_T oàn
_T iệp
_T HAY
_T òng_Xuân
il k
il eun
liệt_ giường
sợ _sệt
ngã o
gây _dựng
gây _lộn
gây _hấn
võ _quan
ến_ tiếc
chất_ cháy
chất_ vấn
chất_ đốt
chất_ hữu_
khí a
khí t_khao
khí a_cạnh
phương_ cách
phương_ diện
phương_ hướng
phương_ châm
qui_ cách
qui_ đổi
xe_ hàng
xe_ kéo
xe_ gắ
ghe _tàu
ghe _chài
nguyên_ sinh
nguyên_ lý
nguyên_ sơ
nguyên_ văn
25 A
ti a_sáng
Đông _Phước
ưu_ ái
ưu_ điểm
ưu_ việt
thả _sức
thả nh_thơi
Hồng _Sơn
Hồng _Việt
Hồng _Nhung
Tư _tưởng
Tư _liệu
Tư _Thắng
Tư _Lý
Tư _Liêm
Tư _On
Tư _Sử
Tư _dinh
Vì _sao
biên_ ải
biên_ dịch
biên_ chế
biên_ lai
tương_ đồng
tương_ truyền
đỏ _g
đỏ _lòm
đỏ _hỏn
đỏ _chót
đỏ _quạch
đỡ _đần
đấu_ thủ
đấu_ trí
đấu_ thầu
_Văn _An
_Văn _Sâm
_Văn _Ngh
_Văn _Ngữ
chăm_ chút
độc_ ác
độc_ tố
độc_ kế
độc_ địa
độc_ chiêu
197 4
197 6
197 9
thủy _thần
thủy _lợi
thủy _tinh
thủy _văn
thủy _lưu
thủy _mặc
thủy _chung
thủy _cung
Bình_ Tuy
Bình_ quân
Bình_ Đông
Bình_ Đào
Bình_ yên
Bình_ Trị
Bình_ Định
Tiế n_trình
Tiế ng_tăm
di_ lý
di_ sản
di_ hại
di_ chứng
di_ hài
lễ _hội
lễ _phép
lễ _lạt
tiêu_ chí
tiêu_ điều
tiêu_ hóa
tiêu_ tan
tiêu_ xài
tiêu_ diệt
vi p
vận_ dụng
vận_ động_viên
trưởng _Phòng
Thành _Cổ
tiếp_ cứu
tiếp_ lời
tiếp_ nối
ban_ mặt
ban_ công
ban_ ngày_
ban_ nhạc
ban_ giám_hiệu
hội_ quán
hội_ trưởng
hội_ chứng
hội_ ngộ
Long _Phước
Nó i_chuyện
Nó i_tóm_lại
_là _vậy
bồ _hòn
bồ n_tắm
bồ i_tụ
ma_ tuý
ma_ vương
ma_ trơi
đất_ đá
đất_ trời
đất_ sét
đất_ khách_quê
quân_ số
quân_ nhân
quân_ binh
quân_ ngũ
quân_ phiệt
_thế _mà
_thị t
_thị _trường
chuyên_ án
chuyên_ viên
chuyên_ sâu
chuyên_ doanh
chuyên_ khoa
_r ê
_r ả
_r ề
_r iết
_r ời
_r ợn
ca sin
ca _Cola_
ca talo
tù _túng
tù _và
tù m_lu
tù _đày
tạo _hình
tạo _hóa
tập_ đoàn
tập_ luyện
tập_ huấn
xảy _ra
đạo _lý
đạo _quân
Thanh_ Hà
Thanh_ Mỹ
Thanh_ niên
Thanh_ Xuân
Thanh_ Lân
bảy _lượt
tổng_ thể
tổng_ giám_đốc
tổng_ cộng
tổng_ tham_mưu
tổng_ cục_trưởng
tổng_ biên_tập
vô_ ích
vô_ vàn
cam era
gạo _cội
hi_ hữu
vật_ lý
vật_ chứng
vùng_ xa
vùng_ sâu_
vùng_ vẫy
óa_ học
trường_ học
trường_ làng
trường_ kỳ
trường_ ca
bản_ sao
bản_ chất
bản_ năng
Tổ n_thất
_g a
_g ừ
_g ăm
_g ộc
_g ãy_sừng_
cung_ cách
mê nh
tác_ nghiệp
tác_ hại
tác_ đẳng_
_Nh u
_Nh ã
_Nh ỏ
_Nh ật
_Nh am
_Nh át
_Nh ựt
_Nh ất_Thiện
đề_ cao
2004 _
thiết_ lập
thiết_ thân
thiết_ thực
kế_hoạch _hóa
nổi_ nóng
Hai_ Bình
bày _đặt
Đào _Xuân
Đào _Trọng_
Đào _Lập
ngõ _hẻm
ngõ _cụt
thường_ thường
thường_ phục
thường_ lệ
nghệ t
nghệ _nhân
nghệ _danh
chuẩn_ xác
11 1
11 _
11 _A
500 _triệu
Con _Cuông
Con tinental
cỏ _năng
cỏ _lác
im_ ắng
im_ ỉm
đau_ thương
đau_ yếu
đau_ ốm
đau_ đáu
ồn_ ã
hào _phóng
hào _quang
hào _hoa
Trà _Nam
Trà _trộn
Trà n_lan
Trà _Lập
động_ chạm
động_ kinh
hoàn_ hảo
Đồng_ đội
Đồng_ minh
Đồng_ hương
Đồng_ Tháp_
ọc_ thép
thuốc_ thang
thuốc_ tây
Trần_ Hưng_
Trần_ Đức_
Trần_ Quang
Trần_ Hồng_
Trần_ Tố
Trần_ Đình_
Trần_ Mạnh_
Trần_ Triết
Trần_ Hường
Trần_ Thệ
máy_ ủi
máy_ giặt
Kỳ _quan
Kỳ _Châu
Kỳ _Nhân
Kỳ _diệu
Kỳ _Đồng
Kỳ _Tâm
lâm_ trận
lâm_ sản
lâm_ phận
vẻ n_vẹn
vẻ _vang
trọ n_vẹn
trọ ng_tải
phủ i
phủ _phê
phủ _sóng
gió _Lào
gió _mây
Thành_ phố
Thành_ công
Thành_ tích
Thành_ Long
Thành_ Hưng
Thành_ Triệu
Nguyễn_Văn_ Hùng
Nguyễn_Văn_ Hải
Nguyễn_Văn_ Tuấn
Nguyễn_Văn_ Minh
Nguyễn_Văn_ Hòa
Nguyễn_Văn_ Hồng
Nguyễn_Văn_ Toàn
Nguyễn_Văn_ Hạnh
Nguyễn_Văn_ Hóa
Nguyễn_Văn_ Hậu
Nguyễn_Văn_ Tú
Nguyễn_Văn_ Quí
Nguyễn_Văn_ Kiểu
Nguyễn_Văn_ Tập
Nguyễn_Văn_ Thiệu
Nguyễn_Văn_ Tấn
Nguyễn_Văn_ Trãi
Nguyễn_Văn_ Quỳnh
Nguyễn_Văn_ Thuật
Nguyễn_Văn_ Minh_Tiến
Nguyễn_Văn_ Trỗi
lãnh_ địa
lãnh_ đạm
18 1
18 90
Cô _giáo
Cô _gái
Cô _Tô
Cái _Rô
Tân_ Thành
Tân_ Kỳ
Tân_ Thuận
Tân_ Định
Tân_ Tạo
Võ _sư
Võ _Chí
Võ _Công
Võ _Văn_C
Võ _Lâm
Võ _Thanh
Võ _Hữu_
Võ _Thành_Long
Võ _Trần
Võ _Sỹ
Võ _Danh_
Võ _Đức_Hơn
Võ _Tòng_Xuân
duy _tâm
duy _tu
da_ thịt
da_ mồi
da_ dớn_
heo _may
nữ _sinh
nữ a_là
ra_ tử
ra_ chui_
suy _tưởng
tìm_ bắt
tìm_ tòi
thật_ thà
khỏ a
khẳng_ khái
phản_ ảnh
phản_ kích
phản_ cảm
phản_ kháng
Như _Ý
Phạm _Văn_Án
kinh_tế _thị_trường
ngoại_ tỉnh
ngoại_ kiều
ngoại_ tình
ngoại_ lệ
ngoại_ tệ
ngoại_ xâm
Xuân_ Tùng
Xuân_ Giang
Xuân_ Đường
Xuân_ Ái
16 _
16 63
Tây _Sơn
Tây _Nam
Tây _Nam_
Tây _Hồ
Tây _Đô
bóng_ ma
bóng_ mát
bóng_ chày
bóng_ loáng
ữu _Nhựt
ngư _nghiệp
ngư _trường
nhất_ trí
trợ _thủ
giày _vò
giày _đinh
giày _xéo
bàn_ chông
bàn_ chải
bàn_ phím
quan_tr ắc
Quảng _Ngạn
Nhà_ xe
Nhà_ báo
Nhà_ đầu_tư
Nhà_ xuất_bản
Nhà_ Trắng
40 ft
Nam_ Bộ
Nam_ Hải_Vân
Nam_ Trung_bộ
Nam_ Đàn
bạn_ hàng
bạn_ gái
mất_ sức
mất_ trắng
mất_ mạng
mất_ hút
mất_ hồn
mất_ ăn_mất_ngủ
tí a
tí _chút
tí m_tái
thơ m_ngát
thất_ thu
thất_ thoát
thất_ lạc
thất_ bát
thất_ đức
thất_ thố
thất_ thểu
n_ng ắn
n_ng ợi
n_ng ợp
n_ng ụp
n_ng òm
Trần _Văn_S
Trần _Du_
Trần _Nhất_Thiện
nghĩa_ cử
nghĩa_ tình
nghĩa_ nặng_
cầu_ thủ
cầu_ may
cầu_ chì
cầu_ gai
cầu_ lông
cầu_ trời_
Cứ u
danh_ tiếng
danh_ tính
danh_ lam
sơ _sơ
sơ mi
sơ n_thủy
sơ _kết
sơ _lược
sơ _hở
sổ _tay
sổ _sách
ven _Cor
đi_ đi
đi_ nữa
đi_ đứng
đi_ lui
đi_ đập_
đi_ lặp_
ắp_ mắm
trí _khôn
trực_ tuyến
phần_ mộ
phần_ nào
phần_ phật
Giá _cả
Giá p_Thân
17 _
Qua n_điểm
bo k
bo l
bo x
bo xi
bo t_Lo
bo _mạch
căn_ nguyên
căn_ vặn
hầu_ bao
lợ p
lợ n_s
lợ m_giọng
ma de
ma i_táng
sư _học_
sư _thầy
sư _phụ
tiểu_ thương
tiểu_ tiện
tiểu_ xảo
vay _mượn
yên_ chí
yên_ lòng
yên_ ấm
yên_ bình
ẩm_ thực
chi_ bằng
chi_ trả
chi_ đoàn
chi_ ly
chi_ li
chi_ chít
thi_ sĩ
thi_ cử
thi_ đua
thi_ hài
trước_ nay
trước_ tác_đẳng_
phòng_ bệnh
phòng_ tránh
phòng_ trừ
phòng_ khám
phòng_ thường_trực
amp li
Ai _Cập
Na gas
Na pa_S
cú ng_bái
huy ên_th
huy nh_đệ
nội_ vụ
nội_ chính
nội_ địa
nội_ trú
tỏ ng
tính_ đi_t
tính_ mệnh
trụ _trì
trụ _bám
trụ _cột
khô _ráo
khô _cứng
phép _tính
quí _tộc
quí _mến
quần_ chúng
quần_ hội
quần_ bò
quần_ jean
nghi_ hoặc
nghi_ lễ
Khu ê
Gia_ cảnh
Nguyễn_Thị _Châu
Nguyễn_Thị _Thanh_
Nguyễn_Thị _Hiệp
Nguyễn_Thị _Huệ
Nguyễn_Thị _Viện
Nguyễn_Thị _Sinh
Nguyễn_Thị _Dậu
Nguyễn_Thị _Chiên
Nguyễn_Thị _Ngại
Nguyễn_Thị _Lành
Nguyễn_Thị _Hằng
thiếu_ úy
Anh_ trai
Anh_ hùng
Anh_ Đào
Anh_ chị_em
Anh_ chàng
Anh_ Quân
Liên _Chiểu
bổ _nhiệm
bổ n_phận
bão _lũ
dị _nghị
dị u_d
dị _ứng
dị u_hiền
hòa_ âm
hòa_ giải
hòa_ thuận
hòa_ tan
hòa_ quyện
tội_ lỗi
phó _thác
phó _mặc
phó _tổng_
phó _văn_phòng
phó ng_lợn
Chủ _trương
pháp_ chế
buôn_ làng
Sự _nghiệp
Sự _thật
Sự _kiện
bế p_trưởng
biế ng
biế n_thế
biế n_thiên
bánh_ ú
bánh_ trái
bánh_ lái
bánh_ tráng
cờ lê
cờ _đỏ
la de
la za
la ser
ly _thân
lên_ đồng
lên_ cơn
mồ _mả
sạch _bóng
sức_ khoẻ
đe n_s
đe m_lòng
đe n_trắng
đe _nẹt
đe n_ngòm
đèo _đẹt
ngụ a
ngụ p
ngụ p_lặn
nhanh_ nhất
nhanh_ nhả
thầy _thuốc
trao _tặng
198 0
198 1
198 3
ghi_ ghi
lưu_ giữ
lưu_ danh
lưu_ trú
lưu_ niệm
lưu_ luyến
tuyên_ xử
tuyên_ huấn
nghiêm_ nghị
nghiêm_ trang
nghiêm_ minh
nghiêm_ khắc
nghiêm_ chỉnh
nghiêm_ cấm
biểu_ lộ
biểu_ ngữ
dày _cộ
hóa_ ra
mì _chính
nặng_ đẻ
nặng_ trĩu
ưa_ chuộ
chảy _máu
thừa_ tự
n_r ăng
n_r ạt
n_r én
n_r ịn
bào _thai
Nghệ _sĩ
_huy ết
hoang_ sơ
hoang_ vắng
chủ_ máy
chủ_ quyền
chủ_ nghĩa
đồng_hồ _mặt_
tuyệt_ sắc
tuyệt_ chủng
GT CC
Hội _Chữ_thập_đỏ
Lâm_ nghiệp
Lâm_ Xuân
_Tr ung
biệt_ tích
biệt_ tài
hậu_ sinh
hậu_ cần
hậu_ phương
hậu_ chiến
mày _nhẹ
nề n_n
nề _hà
nề n_móng
nộ i_tình
nộ i_tâm
rượ u_đ
rượ u_cần
vẽ _vời
xé _lẻ
xa_ cách
xa_ tít
xa_ vời_
Đại_ diện
Đại_ Minh
Đại_ sứ_quán
Đại_ La
đeo _bám
đeo _đuổi
chân_ thật
chân_ tình
chân_ tướng
chân_ vịt
chân_ tại_chỗ
chân_ rết
trình_ viên
trình_ làng
tranh_ cử
tranh_ giành
tranh_ thủy_mặc
Kho a_học_
Kho ảng_cách
Xuân _Cường
13 5
13 97
Bảo _Sơn
Bảo _đảm
Bảo _Lộc
Bảo _Hải
Bảo _mẫu
Mal tby
Ni ce
Ni xon
cộng_ sự
dao _động
dao _găm
hỗ n_tạp
lặ n_ngụp
sở _thích
sở _chỉ_huy
sở _dĩ
vũ _bão
Đại _Phước
đê _tiện
che l_O
che n_lấn
chắc_ ăn
chắc_ hẳn
chắc_ mẩm
thích _hợp
thích _nghi
trái_ lại
trái_ xo
khởi_ động
khởi_ công
khởi_ hành
que n_thân
Thủ _tục
Thủ _đô
Thủ _Thiêm
Không_ gian
Không_ tài_nào
máy_bay _lên_th
24 6
Củ a
Do lta
Do wn
Do anh_nghiệp
Dân _Chúng
Huy nh_đệ
Huy _Kiên
Hương _Sơn
Hương _Cảng
Nông_ dân
Nông_ lâm
Nông_ Đức_
Năm_ Đông
Năm_ ngoái
Năm_ Kiếm
Năm_ lần_
Vợ _con
dã _tâm
hu ýt_
hu ê_lợi
hu ân_huy_chương
lẽ o
lẽ _ra
lẽ _nào
lâu_ Bh
re ng
re sort
re _des
rẻ _rề
tá _hỏa
tịch _thu
tịch _liêu
vỡ _nợ
xo a_xoa
áy _náy
ưng_ ý
khai_ cuộc
khai_ quang
khai_ man
khai_ trương
khắc_ họa
khắc_ tinh
phù _phép
phù _hộ
phù _nề
phù _đi
phù _dung
Thứ _sáu
Cho _nên
chỉ_huy _sở
Phong _Nha
quyề n_lực
tai_ ác
tai_ mắt
195 1
195 2
195 7
195 8
chức_ vị
chức_ tước
hiệu_ nghiệm
hiệu_ lực
hiệu_ triệu
hiệu_ lệnh
yêu_ chiều
yêu_ thích
yêu_ dấu
yêu_ mến
yêu_ đương
_Ngọc_ Lân
_Ngọc_ Hảo
_Ngọc_ Quan
_Ngọc_ Hiển
Hoàng _Văn_Khoán
Hoàng _Ngọc_Lân
bàn_tay _trắng
70 1
Ba_ Lan
Ba_ Hương
Ba_ Đình
Ba_ Đồn
Ba_ phần_tư
Ba_ Bường
Ba_ Tơ
Bạch _Hồ
Tân _Cảnh
Tân _Sơn_Nh
ga n_lì
ing er
lô côt
lắc_ lư
lắc_ đầu_lè
lang_ bạt
tấn_ xã
tận_ hưởng
tầm_ cỡ
tầm_ thước
tầm_ tã
tầm_ sư_học_
vỏ _chai
ằng_ Đông
ngân_ hàng_dữ_liệu
chào _hàng
chào _giá
chào _hỏi
chào _mừng
cheo _leo
thượng_ gia
thượng_ hạng
thượng_ vàng_
thượng_ thặng
thượng_ nghị_sĩ
khiế u_nại
Già u_có
Quảng_ Trạch
tin_ dùng
tin_ mừng
tin_ đồn
đảm_ nhận
đảm_ trách
14 2
14 3
14 4
14 8
14 72
14 73
22 9
300 _triệu
Bu ồn
Bu ổi_sáng
Kiên_ quyết
Kiên_ trì
NT MK
_cả n
dấu_ ấn
kiên_ định
kiên_ cường
kiên_ trì
mục_ nát
rủ _rê
siêu_ sao
siêu_ thoát
tiề m_năng
tất_ thắng
vi_ vu
xó _chợ
ới_ đi_lui
nhận_ biết
nhận_ diện
Trung _Nguyên
Trung _Duy
Trung _Dân
đột_ phá
đột_ tử
đột_ kích
đột_ nhiên
Phương _Nam
Hàng_ họ
Hàng_ phố
Hàng_ quán
Hàng_ hóa
Hàng_ Bài
Hàng_ Bồ
Hàng_ Bạc
ghé _mắt
ghế _bà
tự_t ử
tự_t iện
Quỳnh_ Long
Quỳnh_ Lâm
Quỳnh_ Thạch
tốt_ đẹp
tốt_ tươi
Bạch_Đ ằng_Đông
27 _
80 _
Bang lade
Duy _Phước
Duy _Trung
Lý _Nam_
Lý _lịch
Lý _Thường_Kiệt
Mà u
NV ONN
dò m_ngó
dò _dẫm
mưu_ kế
mưu_ trí
mưu_ chước
ni u
ru bi
ru m_Xia
tức_ thì
tức_ thời
tức_ khắc
vã n_cảnh
nhiệt_ huyết
trà n_lan
trú _chân
trú _ngụ
trú ng_thương
gia_ bảo
gia_ công
gia_ cầm
gia_ sản
gia_ trưởng
gia_ dụng
gia_ tài
gia_ tộc
gia_ bại_
gia_ thất
qua_ tiếng_
qua_ loa
qua_ lia_
Thời_ giá
Thời_ gian_b
định_ giá
định_ vị
định_ hình
định_ kỳ
định_ hướng
định_ chế
định_ thần
đối_th oại
Phú_ Giáo
Tiến_ hành
Tiến_ Đạt
tùy _ý
tùy _tùng
Ban _Chấp_
Dù _vậy
Dù _là_vậy
Lã ng_mạn
Lã _Vọng
Lã nh_đạo
Sáu _Chí
Sáu _Vô
Sáu _Rồng
Sáu _Chành
Tài_ sản
Tài_ liệu
bò _sát
bề nh
bề _bộ
bề _dày
he n_suyễn
lấn_ át
no w
no _đủ
say _xỉn
sang_ tay
tạm_ biệt
Đức_ Thọ
Đức_ Hòa
Đức_ Trạch
thỏ _thẻ
giế m
ana ser
ana khet
ngày_đ ường
doanh_ số
doanh_ thu
doanh_ nhân
Nguyễn_Thanh_ Tùng
Nguyễn_Thanh_ Huy
chuyển_ dời
vui_ cười
vui_ mừng
lão _làng
lão _nông
Tổng_ công_ty
Tổng_ đội
Tổng_ cộng
Tổng_ bí_thư
truyền_th ông
Dankia _Re
23 7
45 7
An _Cư_Đông
Kim_ Giang
Kim_ Thoa
On line
Văn_ Tưởng
Văn_ Bé
Văn_ Đình_
Văn_ Miếu
bê _bối
bê nh_vực
bê u_xấu
bê _bết
ck et
dạ _con
dạ _dạ
hò m_thư
hải_ hành
hải_ quan
la_ liệt
la_ mắng
la_ rầy
la_ địa_võng
nụ _cười
năm_ kia
năm_ chục
năm_ xưa
năm_ suốt_
năm_ 1953
sa lon
sa n_lấp
sa ghin
sạt_ nghiệp
tụ _hội
tụ _tập
tụ _điểm
tách _biệt
ép_ duyên
đa_ mang
đa_ phương
đa_ năng
đa_ tài
thiên_ đường
thiên_ la_địa_võng
thẩm_ tra
thẩm_ phán
trong_ suốt
trong_ lành
trong_ trẻo
trong_ ấm_ngoài_
quà ng_qu
có_ giá
có_ nghĩa
có_ một_không_
đội_ ơn
đội_ viên
đội_ nón
đội_ lốt
đội_ nón_ra_
Ngoài_ lề
ngày_ ngày
ngày_ nay
ngày_ kia
công_nghệ _thông_
Phan _Rang
Phan _Chánh_
Phan _Văn_Sâm
Phan _Ngọc_Hiển
_sao _vàng
cô_ chú
tự_ ái
tự_ vẫn
tối_ ngày
tối_ cao
tối_ mũi
tối_ mật
tối_ mắt_
kháng_ sinh
điện_thoại_ cầm_
Thuận _An
150 _triệu
Huế _My
Báo _điện_tử
Cà _phê
Cơ _thể
Cơ _hội
Cơ _sở
Cơ lâu_Nh
Cơ lâu_Bh
Cầu_ thủ
Cầu_ Giấy
Cầu_ Gỗ
Cầu_ Treo
Kết_ luận
Kết_ thúc
Kết_ nạp
Nụ _hôn
Tà _Phọ
Tà _Lung
Yên _Phụ
Yên _Sở
bậ c_thang
câu_ hỏi
câu_ thúc
câu_ đối
hả _dạ
hả _hê
hố _ga
hiểm_ ác
hiểm_ họa
hiểm_ hóc
hữu_ ích
hữu_ tuyến
hướng_ đạo
le x
le _Sap
le n_Iv
le _le
le n_lách
lê nh_láng
lê _thê
lê _la
linh_ nghiệm
linh_ kiện
linh_ cảm
linh_ hồn
linh_ cữu
tủ i_nhục
vừa_ lứa
vừa_ vặn
xanh_ bóng
xanh_ mát
xanh_ xao
xanh_ rớt
í_ ới
đảng_ bộ
nhập_ cuộc
nhập_ cảnh
chè _lá
chung_ sống
chung_ chung
chung_ thủy
chung_ kết
chung_ qui
chung_ đụng
trưởng_ đoàn
trưởng_ ban
pháo _kích
giật_ thót
Trị nh
Trị nh_Tùng
Trương_ Thị_
Trương_ Hồng_Sơn
Trương_ Bảo_Hải
xe_l am
quanh_ quanh
quanh_ năm_suốt_
Phan_ Thị_
cứu_ giúp
cứu_ trợ
cứu_ chữa
cần_ câu
cần_ xé
thứ_ năm
_Văn_C ự
_Văn_C an
_Văn_C ầu
Trần_Văn_ Loan
Trần_Văn_ Lộc
Trần_Văn_ Lợi
Trần_Văn_ Lang
Trần_Văn_ Tấn
Trần_Văn_ Truyền
biết_ ơn
biết_ bao_nhiêu
biết_ tỏng
26 6
Bất_ cứ
Bất_ kỳ
Bảy _Lê
Bảy _Nhát
Bùi _Ngọc_Quan
Cộng_ đồng
Cộng_ hòa
Ho ảng
Minh_ Tuấn
Minh_ Hóa
Minh_ Tâm
Ne il
Số _lượng
Số t_rét
bi đông
bi da
bì _bõm
bán_ chạy
bán_ mạng
bán_ buôn
bán_ công_khai
bán_ rong
bán_ sơn_
canh_ giữ
canh_ chừng
cam_ chịu
cam_ sành
cam_ đoan
de j_S
de lphia
lỗ _chỗ
leo _lét
mỏ ng
mỏ ng_dính
mỏ _lết
mặc_ cả
mặc_ sức
mặc_ kệ
sứ _mạng
sứ _mệnh
sai_ bảo
sai_ sót
vệ n
xúc_ tiến
êm_ đềm
Đặng _Công_
Đặng _Văn_Ngữ
Đặng _Văn_Cự
đoà n_thể
ngó _ngàng
ngó _nghiêng
ngó t_ngh
thâm_ u
thâm_ tâm
thâm_ nhập
thâm_ tái
thâm_ sơn_
thâm_ quầng
thiệt_ hơn
thiệt_ thòi
giây _lát
Thùy _Dung
Thùy _Trâm
Cha tucha
Nhân_ viên
Nhân_ công
Nhân_ danh
Nhân_ chứng
Nhân_ Đạo
Người_ xưa
Khách _sạn
Quả n_lý
Quả _là
Quả _tình
Quả _đấm
Quang _Dũng
tỉnh_ thành
tỉnh_ đội
tỉnh_ ủy
tỉnh_ khô
tỉnh_ ngộ
tỉnh_ bơ
tỉnh_ táo
tỉnh_ lị
tỉnh_ lỵ
ký_ riêng
sáng_ mắt
sáng_ lập
sáng_ suốt
sáng_ kiến
sáng_ ngời
bồi_ bàn
bồi_ hồi
bồi_ lắng
Hoàng_ Lam
Hoàng_ Hoa_
Hoàng_ Quý_
Hoàng_ Minh_Sơn
Hoàng_ Thị_Ngọc
Hoàng_ Xuân_Đường
Hoàng_ Minh_Tâm
trọng_ thể
trọng_ thương
trọng_ bệnh
trọng_ trách
trọng_ dụng
trọng_ yếu
tín_ đồ
bom_ bi
bom_ xăng
truyền_ đạt
truyền_ con_nối
Rơ_Châm_ Yoih
600 _
Hữu_ Huấn
Má u_ghen
To ky
To m_Har
bưu_ cục
bưu_ thiếp
cấp_ độ
cấp_ ủy
cấp_ phát
cấp_ bách
căng_ tròn
kiề m_chế
lời_ lỗ
lời_ ra_tiếng_vào
lời_ qua_tiếng_
lòng_ đường
lòng_ dạ
san ulo
ve lt
vòng_ tay
vòng_ vòng
vòng_ tròn
vòng_ vây
Út_ Lắm
Út_ Tòng
Đinh_ Mướt
Đinh_ Xuân_Cường
Đinh_ Trung_Duy
đò n_bẩy
đông_ đủ
đâu_ đấy
chết_ đuối
chết_ ngạt
chết_ tiệt
tha n_thở
tha buri
thù _nghịch
thổ n_thức
thổ _tả
trá _hình
truy _lùng
truy _cập
truy _bắt
khe n_gợi
khe _khẽ
khe n_ngợi
phú n
phầ n_tử
iết_ Tường
Thác_ Mơ
Thực_ chất
Thực_ Tiễn
nhà_tr ẻ
nhà_tr ai
Chợ _G
Chợ _Rẫy
Chợ _Được
Chín_ Thái
tiếng_ ra_tiếng_vào
_lệ nh
cầm_ lòng
cầm_ hơi
cầm_ cập
hồi_ sinh
hồi_ sức
điểm_ tâm
điểm_ danh
chữ_ nghĩa
lúc_ gió
lúc_ mưa_
Nghĩ _bụng
hợp_lý _hóa
toàn_ quyền
toàn_ cục
toàn_ quốc
Định _Công
xét_ duyệt
xoay _xở
thuyết_ khách
New _O
New Yor
New _Sou
năng_l ượng
36 5
36 _
36 36
Ban_ ngày
Ban_ đêm
Bệnh_ nhân
Bệnh_ xá
Bệnh_ tật
Dân_ số
Dân_ chính
Dân_ nghèo
Dân_ gian
Dân_ tộc
Hạ nh_phúc
Hạ _tầng
Hạ _bạc
Hạ _nghị
Hạ _tầng_
Hạ _Hồi
Kinh_ Mới
Kinh_ khủng
Kinh_ Đô
Lá _Vàng
Mai_ Quốc_
Mai_ Ái_
Mai_ Quế
Mai_ Huỳnh
Mai_ Bử
Mai_ Thị_Lý
Mar ie
Một_ mình
Tình_ nhân
Tình_ cảm
Tình_ trạng
Vĩnh _Phúc
Vĩnh _Viễn
Vĩnh _Cửu
Xe _cộ
Xe _tải
Yên_ tâm
Yên_ Tiến
hô _hấp
ka rate
kính_ lặn
kính_ cận
kính_ lúp
lây _truyền
mờ _mịt
mờ _mờ
mờ _nhạt
minh_ họa
minh_ bạch
minh_ oan
minh_ mẫn
mạch _ngầm
mong_ mỏi
rào _chắn
sân_ sau
sân_ chơi
sân_ khấu
xao _xuyến
xương_ máu
xương_ thịt
đa n_lát
ứng_ viên
ứng_ biến
ngả _lưng
ngộ p
ngộ _độc
chu_ vi
chu_ toàn
chu_ tất
chăn_ thả
chen tong
thống_ kê
thống_ thiết
trị nh_trọng
khích _lệ
khích _bác
Thiên _Cung
sống_ còn
sống_ dở_ch
tiết_ diện
Phạm_ Tuấn
Phạm_ Yên
Phạm_ Hồng_Minh
Phạm_ Tuân
Phạm_ Xuân_Ái
chịu_ thua
hoa_ tay
loại_ hình
Hành_ động
Hành_ khách
Hành_ trang
Hành_ vi
Hành_ tinh
ghê _rợn
hộp _thư
gian_ dâm
sửa_ sang
sửa_ soạn
Huỳnh_ Đỗi
Huỳnh_ Tiền
đô_thị _hóa
quen_ quen
bút_ tích
bút_ danh
bút_ lục
90 _
Bùi_ Hồng_Việt
Bùi_ Huy_Kiên
Cao _tay
Cao _su
Cao _Hùng
Cao _Văn_Hùng
Cao _đẳng
Cát_ Tiên
May _sao
PT TH
Quốc_ hội
Quốc_ tịch
Quốc_ Tế
Ra jad
Vĩnh_ Thanh
Vĩnh_ Long
Vĩnh_ Linh
Vĩnh_ Trinh
ba_ má
ba_ lô
ba_ rê
ba_ khía
bạch _tuộc
cướ p_giật
cân_ bằng
căng tin
câm_ điếc
cựu_ chiến_binh
dụ _dỗ
hạn_ hẹp
hiền_ khô
lò _xo
lập_ kế
lập_ luận
lập_ trình_viên
mò _mẫm
măng sông
nú m
nú p_bóng
neo _đơn
reo _hò
sờ _sợ
sờ _mó
tươ i_tắn
tôm_ cá
xuống_ nước
Ái_ Tử
Đỗ _Qu
Đỗ _Quốc
Đỗ _Hữu_
Đỗ _Thế_Hùng
Đông_ Bắc
Đối_ đầu
Đối_ mặt
Đối_ diện
đến_ cùng
ngũ _tuần
chưa_ cưới
thề u_thào
thảo _hiền
thẳng_ đứng
thẳng_ băng
thí_ điểm
trắng_ bóc
trắng_ toát
trắng_ trợn
khám_ xét
làng_ xóm
làng_ chơi
làng_ nhàng
giỏ i_gi
Tháp _tùng
cải_ hóa
cải_ lương
đề_c an
194 1
194 3
194 7
194 9
buồ m_xuôi_
thuế _thân
Quế _Võ
Quế _Phong
khuôn_ khổ
dự_ bị
dự_ báo
Học_ sinh
Học_ lực
thảm_ đỏ
thảm_ họa
Tư_H ạnh
khuyến_ mãi
khuyến_ nông
dưỡng_ sức
dưỡng_ thương
dưỡng_ bệnh
đèn_ đỏ
đèn_ xanh
đèn_ đóm
đèn_ măngsông
nuôi_ dạy
55 5
55 9
Bị n_rịn
Co ong
Co ca_Cola_
Cụ _thể
Cụ _Hồ
Cần_ Đơn
Ed ward
Hải_ Trạch
Lên in
Lập _An
Liên_ hiệp
Liên_ Hiệp_
Liên_ Trì
No kia
Sá ng_tạo
TT XVN
Tú _Anh
Tết _Nguyên_
Vũ _Thanh_
Vũ _Toàn
_B ạc
_B ỏ_G
béo _tròn
béo _bở
cay _cực
cực_ tả
cười_ phá
cười_ trừ
cười_ chê
cười_ duyên
cười_ nhạt
cùng_ với
cùng_ cốc
cùng_ ngõ_hẻm
go lf
go m_góp
gò _má
hôn_ mê
kil ôgam
lơ _lửng
lơ _xe
lơ _lớ
lơ _ngơ
lương_ tâm
lương_ khô
lương_ thực
lương_ bổng
lắp_ bắp
mức_ nước
mức_ sống
mưa_ gió
mưa_ rào
năng_ nổ
nằm_ vùng
nằm_ bẹp
or n
ro sh
ro wth
ro cket
rã nh
rã _đám
rã _rời
tả _tơi
tiền_ của
tiền_ đề
tiền_ đồ
tiền_ phong
tiền_ khởi_nghĩa
tiền_ mãi_lộ
tiền_ bối
vỗ _tay
vai_ diễn
vòi_ hơi
xà _bông
xà _bần
xô _xát
xơ i_tái
yếu_ ớt
yếu_ đuối
Đường_ xá
Đường_ Xuân_Tùng
đỗ _đạt
Ấn_ Quang
ngất_ ngư
ngất_ ngưởng
ngang_ ngửa
ngang_ tàng
chấ n_thủy
chật_ cứng
chạm_ khắc
chống_ cự
chơi_ xỏ
thô _sơ
thô _vụng
thô i_thúc
tha_ thứ
tha_ hồ
tha_ hương
tha_ thẩn
than i
than dej_S
trì _trệ
trông_ ngóng
trục_ xuất
trục_ trặc
phế ch
phỏ ng
giở _chứng
quý nh
quầy _quậy
Thổ _địa
Thật_ tình
Chi_ phí
Chi_ chít
Trước_ sau
Khu_ vực
Khu_ tập_thể
lớn_ bé
lớn_ khôn
Hàm_ răng
bảo_t àng
Nguyên _Ngọc
Bà_Tr iệu
hiệp_ sĩ
thúc_ ép
kêu_ la
kêu_ gào
sát_ sao
sát_ thương
sát_ cánh
sát_ hại
biến_ cách
biến_ động
biến_ cố
biến_ mất
biến_ sắc
tầm_v óc
xót_ ruột
Phan_Văn_ Trị
Phan_Văn_ Đặng
Phan_Văn_ Quán
súng_ cối
tươi_ sống
tươi_ đẹp
tươi_ rói
New_Zealand _Hera
64 4
Bo okSur
Bố p
Hầu_ như
II I
Jơ rum_Xia
Lương _Văn_Minh
Lương _Văn_Can
Lưu _Diệ
Máy _móc
Ninh_ Thuận
Pak Se
Su Su
Su san_
bọ _cạp
bạc_ phơ
bạc_ phếch
bằng_ cấp
bằng_ chứng
bằng_ phân
bằng_ khen
bằng_ phẳng
bằng_ sáng_chế
cu a_đá
cõ n
cõ i_âm
cõ i_dương
cặ n_kẽ
cày _ải
dáng_ điệu
dáng_ dấp
dáng_ vóc
es en
hang_ cùng_ngõ_hẻm
kiệt_ cùng
kiệt_ quệ
kín_ mít
kín_ cổng_cao
li ty
lẻ n
lẻ _tẻ
lan ta
lăn_ lưng
lăn_ xả
lầm_ lì
lầm_ than
mật_ báo
mật_ mã
nương_ thân
nương_ tựa
ri d
sa_ bồi
sa_ mạc
sa_ sầm
săn_ tìm
săn_ bắt
săn_ đón
săn_ lùng
sung_ túc
san_ sẻ
tò _vò
tệ _bạc
tệ _hại
tứ _tuần
tứ _tán
vững_ tin
vững_ chắc
vững_ chãi
xả _thân
Ông_ già
úp _thìa
Ủy _viên
ngập_ đầu
ngập_ mặn
ngập_ ngụa
châu_ Á
châu_ lục
chép_ chép
_Công_ sứ
tra_ hỏi
triệt_ phá
triệu_ tập
triệu_ chứng
triệu_ triệu
n_h ở
n_h èn
n_h ữu
khác_ nào
phúc_ đức
vàng_ mã
vàng_ mười
vàng_ vọt
vàng_ ươm
vàng_ hoe
giai_ cấp
uyên_ ương
Thú _Đỉnh
Thông_ tin
Thông_ tấn_xã
Thạnh _Phước
Thạnh _Ngãi
Thủy _thủ
Thủy _Nguyên
Thủy _sản
như_thế _này
Chu lal
Chu _Văn_Thiệp
Chu ẩn_bị
Chu _Văn_An
Trở _thành
nóng_ chảy
nóng_ sốt
nóng_ hổi
Ngô _Thanh_
Ngô _Thu_
Ngô _Quyền
Ngô _Hy
chút_ đỉnh
Khó e
Khổ ng_Lệ
đám_ ma
đám_ tang
tuổ i_thọ
khoảng_ trống
bốc_ mộ
bốc_ xếp
nghiệp_ đoàn
giảm_ xóc
giảm_ thiểu
quái_ lạ
quái_ vật
quái_ đản
Bàu _Cát
Bà_R én
Nguyễn_Đức_ Thắng
điện_ đàm
tư_cách _pháp_nhân
Cảnh_ báo
Cảnh_ tượng
lạc_ quan
lạc_ hậu
túi_ tiền
túi_ bụi
Lê_H ồng_Phong
Lê_H ồng_Khanh
tin_t ặc
tinh_kh ôi
Huỳnh _Văn_Hùng
Huỳnh _Văn_On
Huỳnh _Ngự
Huỳnh _Văn_Ngh
hào_h ùng
Phạm_Văn_C hệ
tạp_ chí
tạp_ chất
tạp_ pí
xâm_l ăng
Đặng_Văn_ Tình
núi_ non
Ấn_Độ _Dương
37 5
37 9
700 _
CL B
Du_ học
Danh_ Hải
Danh_ sách
Hồng_ Lĩnh
Hồng_ Bàng
Hóa_ học
Hóa_ giải
Lao _Bảo
Ma eso
Mười_ bảy
Mười_ Thơ
Pơ _thi
Sa thandej_S
Tố i_tối
Tố _Hữu
Tờ _mờ
Tờ ngôn
Tiên_ Hưng
Tức_ tốc
Udon thani
Vũng_ Găng
Xô _viết
_Kh anh
_Kh ang
_Kh amsing
bơ _vơ
bạo _lực
bạo _bệnh
bạo _phổi
bại_ trận
bức_ điện
cương_ nghị
cương_ vị
cương_ lĩnh
dĩ _nhiên
dĩ _vãng
dòng_ họ
gạch _men
ki stan
kẹo _cao_su
lỏ ng_lẻo
lái_ xe
lấp_ xấp
lấp_ liếm
mệ t_l
mừng_ tuổi
mừng_ công
mừng_ vui
mừng_ rỡ
mừng_ quýnh
rì u
rì _rào
rành_ rẽ
su ýt
su m_họp
sông_ núi
sông_ rạch
sào _huyệt
song_ hành
song_ phương
song_ ngữ
sắc_ phục
sắc_ sảo
tơ i_tả
tậ n_tâm
tậ n_tụ
tậ n_thu
tán _Công_sứ
tấm_ lòng
tấm_ bé
tắm_ giặt
tắm_ táp
tắm_ gội
tưởng_ nhớ
vờ n
vết_ tích
Đá ng_lẽ
Đá _Bạc
Đa_ Bút
Đặng_ Kỳ
Đặng_ Thái_Huyền
Đặng_ Hoàng_Lam
đu ợc
đu a_đòi
đù n
đù a_vui
đờ _đẫn
đắc_ ý
đôi_ khi
đôi_ chút
đôi_ vừa_lứa
ngậm_ bồ_hòn
ngắn_ gọn
nhấn_ chìm
chiều_ cao
chiều_ dài
chiều_ tối
chiều_ hướng
chiều_ chiều
chục_ ngàn
chục_ vạn
thò _lò_m
thần_ công
thần_ khí
trơ n_tuột
trổ _tài
trầm_ tư
trầm_ lặng
trầm_ tĩnh
phì _cười
phiêu_ lưu
giơ _xuống
giơ _lên_
giận_ dữ
giận_ dỗi
từ_ điển
đón_ tiếp
đói_ khát
Trường_ Thọ
Trường_ Thịnh
_tử _nhất_sinh
Nhật_ ngữ
đáng_ giá
đáng_ sợ
bảng_ hiệu
Phần_ nhiều
Phần_ đông
Phần_ mềm
tuổi_ đời
tuổi_ xuân
tuổi_ già_sức_
theo_đ uôi
hoan_ hỉ
_sinh_ học
đứng_ tên
đứng_ ngồi
đứng_ bóng
đứng_ dậy
đứng_ như_tr
buồn_ cười
buồn_ buồn
buồn_ xo
Giải_ pháp
bao_b ì
Phú_H ội
Phú_H òa
thư_ ký_riêng
Nghề _nghiệp
Nghị_ định
cưỡng_ chế
Lê_Văn_ On
Lê_Văn_ Tú
Lê_Văn_ Trăng
Định_ Bình
Định_ thần
bồ_ kết
xứng_ đôi_vừa_lứa
hiếu_ học
hiếu_ khách
hiếu_ kỳ
hiếu_ chiến
hiếu_ thảo
Làm_ gì
Làm_ ruộng
tiền_l ẻ
tiền_l ệ
rộn_r ịp
Nghĩa_ vụ
Nghĩa_ Hòa
Nghĩa_ Hoàn
Con_ người
Con_ số
Con_ cái
Cửa_ giả
Bom_ đạn
đẹp_ đẽ
43 H
59 4
An_ Hiệp
An_ Lão
Bi tocimex
Bồ i_thường
Bấy _nhiêu
Bắc_ bộ
Bắc_ Giang
Bắc_ Đẩu
Bắc_ Trung_bộ
Cẩm_ Xuyên
Cẩm_ Lĩnh
Dự _báo
Hậu_ Giang
Hiệp _Phước
Kua lang
La _Văn_Cầu
Long_ Tân
Long_ Tre
Lang_ thang
Mã _Thành_Long
Mục_ tiêu
Nước_ mặn
Nậm _Cắn
Ro b
Ro bert
Ro ose
Ro lex
Sức_ ép
Sức_ mạnh
Tô _Văn_Đực
Tra cimex
Tra i_tráng
Tập _tục
Tam _Nông
Tác_ chiến
Vo òng
Vo vinam
Xác_ xơ
bá n_lẻ
bá u_vật
bách _bộ
bách _hóa
bách _khoa
bực_ bội
bắp _thịt
bạt_ mạng
băng_ hình
băng_ đạn
băng_ băng
băng_ tải
cự _ly
dỗ _dành
dẫn_ điện
dẫn_ chương_trình
gọ n_gàng
gay _cấn
gậy _gộc
gánh_ vác
hồng_ ngoại
hồng_ nhan
hương_ ước
hương_ nhang
hảo _hán
hùng_ hồn
hùng_ dũng
hầm_ hào
hầm_ ngầm
huống_ gì
huống_ nữa
kiều_ hối
kim_ tiêm
ló e
ló t_dạ
ló ng_lánh
lôi_ cuốn
lính_ tráng
lính_ đánh_thuê
mỹ _mãn
mỹ _phẩm
mang_ thai
mang_ nặng_đẻ
náo _động
náo _nhiệt
nếu_ không
nâng_ niu
rú m_ró
ròng_ rọc
rầm_ rập
ss en
ss inger
sò _huyết
sơn_ nữ
sơn_ son_thế
te ur
tao _nhã
tiên_ cảnh
tiên_ quyết
tái_ hiện
tái_ sinh
tái_ mét
tái_ định_cư
tiện_ ích
tượng_ trưng
va_ vấp
vĩnh_ hằng
wa eng
ì_ oạp
Đề u
Đề _xuất
Đề _nghị
Điều_ tra
Điều_ khiển
đơ n_lẻ
đơ m_đặt
đời_ mới
đậu_ mèo
được_ cái
được_ lòng
được_ giá
được_ chăng_
ngồi_ không
ngồi_ xổ
ngồi_ chồm_
ngồi_ bệt
nhe n_nhóm
nháy _mắt
chả _thế_mà
chao _đảo
chập_ chững
chập_ choạng
chôn_ vùi
chôn_ nhau_
chậm_ chạp
chậm_ trễ
chừng_ như
thao _thao
thao _thức
thấm_ thoắt
trố n_tránh
trố n_lính
trữ _lượng
trinh_ nguyên
triết_ học
khôn_ lớn
khôn_ ngoan
phu m_sóc
phạm_ vi
phạm_ luật
quơ _quào
cám_ ơn
Tham_ dự
Tham_ tán_Công_sứ
nhà_s ản_xuất
Chu_ kỳ
Chu_ Minh_Tuấn
Triều _Phú
Trực _Ninh
thì_th ầm
Nha_ Mân
chỉnh_ lý
chỉnh_ sửa
chỉnh_ đốn
chỉnh_ tề
Ngoại_ thương
màu_ da
chiếm_ đóng
chiếm_ đoạt
Khắc_ Hùng
Khắc_ tinh
máu_ mặt
máu_ lửa
máu_ xương
máu_ me
Phong_ cách
khoai_ mì
tàu_ xe
tàu_ biển
tàu_ chiến
tàu_ điện_ng
Gió _chướng
giản_ đơn
cây_c ỏ
quản_tr ị
quá_ ư
xuôi_ tay
hoành_ tráng
hoành_ phi
phục_ viên
phục_ hồi
hiện_th ực_hóa
vô_h ại
vô_h ạn
vô_h iệu
vô_h ồn
đàm_ phán
văn_nghệ _sĩ
ngon_ ơ
ngon_ miệng
Nguyễn_Văn _Chí
Nguyễn_Văn _Phúc
Nguyễn_Văn _Nhã
Nguyễn_Công_ Hùng
Nguyễn_Công_ Trứ
lạnh_ lẽo
muôn_ nghìn
đồi_ núi
Lê_Văn _Vinh
Lê_Văn _Anh
Lê_Văn _Nhân
Lê_Văn _Nuôi
Hồ_Văn_ Hiền
Hồ_Văn_ Trương
Hồ_Văn_ Kha
Hồ_Văn_ Xuoi
Hồ_H enri_Martin
Hồ_H ữu_Nhựt
Trần_Minh_ Quang
heo_h ắt
Phạm_Ngọc_ Thăng
Phạm_Ngọc_ Khải
thơ_ mộng
Trần_Ngọc_ Kim
Trần_Ngọc_ Đoàn
mãnh_ thú
huyết_ áp
huyết_ quản
Nguyễn_Thị_ Yến
Nguyễn_Thị_ Kim_Thoa
hỏi_ dò
hỏi_ cung
đêm_ đêm
đêm_ suốt_
che_ch ắn
mềm_ yếu
mềm_ mại
Trương_Xuân_ Đào
Bùi_Văn_ Luyện
Bùi_Văn_ Huấn
Chợ_L ách
lây_l ất
nỗi_ lòng
nỗi_ buồn
ríu_ ran
thẳng_th ừng
cơ_quan_ hành_chính
khẩu_ phần
khẩu_ hiệu
Bhling _Cưng
Lộc_ Bình
Lộc_ Lâm
vượt_ bậc
vượt_ biên
49 6
Bí _thư
Bí _mật
Bí _quyết
Biên _Phủ
Bạn_ đọc
Bởi_ vì
Bởi_ thế
Bởi_ vậy
Câu_ thơ
Hệ _lụy
Hộ _chiếu
Hộ _Phòng
Hộ _khẩu
Hiệ n_thời
Hay _là
Hòa_ Hiệp
Hưởng_ thọ
In do
Ký _sự
Ký _Con
Lục_ quân
Lục_ Lạc
Lục_ Yên
Lưu_ Hòa_Phát
Ma_ túy
Nil an
Suối _Vàng
Tự _hào
Tất_ nhiên
Tất_ bật
Tất_ tả
Tam_ Kỳ
Tam_ Giang
Tam_ Kang
Vị _trí
Vinh_ Hiền
Web site
be cgiê
be kistan
bẻ _gãy_sừng_
bụ m
bi_ hùng
ber ia
bãi_ biển
bãi_ bỏ
bãi_ khóa
cù n
cắt_ cổ
cắt_ xén
cắt_ rốn
cai_ sữa
cấm_ vận
cắm_ đầu
cãi_ lộn
dè _dặt
dương_ gian
diễ u_hành
diễ n_thuyết
diễ n_tả
gấp_ rút
gấp_ khúc
gấp_ gáp
gợi_ ý
gợi_ chuyện
gợi_ cảm
hư _hỏng
hung_ dữ
hung_ bạo
hung_ hăng
héo _mòn
hai_ lòng
hai_ chục
hai_ bàn_tay_trắng
hủy _hoại
lố _nhố
lụ t_bão
lông_ nhông
lia bit
lùng_ bùng
lùng_ sục
lùng_ nhùng
mổ _xẻ
mỡ _máy
man y
mẫu_ mực
mới_t inh
nuố i_tiếc
nơi_ ăn_chốn_
oo dward
oai_ vệ
rà n_rạt
rè n_luyện
rả i_thảm
rắ n_lục
rung_ động
sóng_ thần
sắm_ vai
tề _tự
tề _chỉnh
teo _tóp
táo _bạo
tắt_ ngúm
tản_ mác
tôn_ kính
tôn_ nghiêm
tôn_ vinh
tòa_ sen
tĩnh_ lặng
tĩnh_ dưỡng
tĩnh_ mịch
tột_ độ
tới_ nỗi
tới_ lui
tới_ nơ
vĩ _mô
vẹ m
vườ n_tược
xinh ê
Đất_ đai
Đơn_ cử
Đơn_ vị
Đơn_ giản
Đầu_ tư
Đỉnh _Nham
Điện_ Minh
Điện_ Bàn
Điện_ Biên_Phủ
đụ ng_độ
đương_ chức
đập_ đập
đập_ đi_đập_
đậm_ đà
đậm_ nét
đậm_ đặc
đưa_ mắt
đưa_ chân
đưa_ đón
_Ni ssen
_Si thuhu
ngây _thơ
ngần_ ngừ
ngôn_ hạnh
nhơ _nhớp
nhăn_ nhở
chắp_ nối
thè m_khát
thập _tử_nhất_sinh
thôi_ nôi
thăng_ bằng
thăng_ hoa
thăng_ trầm
thắng_ thế
thắng_ cảnh
thắng_ bại
tráo _trở
trời_ đất
trời_ dướ
trùng_ hợp
trăng_ gió
n_W oodward
khăn_ xếp
khăn_ gói
khăn_ gói_lên_đường
phiền_ hà
phẫn_ chí
phẫn_ uất
phẫn_ nộ
giường_ nằm
cát_ Bà
cát_ đen
cát_ vàng
Thượng_ Hải
Thiếu_ niên
Thiếu_ lâm
Thiếu_ tá
choáng_ ngợp
điêu_ đứng
họp_ mặt
rau_ cỏ
hàm_ ếch
Chi ba
Chiế n_công
Chiế n_tranh
Chiế n_hữu
Chao _ôi
bài_ bản
bài_ trí
bài_ vở
Ngọc_ Hà
Ngọc_ Hương
Ngọc_ Bích
tiếc_ nuối
Khát_ khao
mát_ mắt
mát_ lạnh
mát_ lành
Phước _An
Phòng_ mạch
Phát_ hiện
Phát_ triển
Phát_ biểu
tuý p
tuý p_nước
áo_l en
áo_l ặn
hoảng_ hồn
hoảng_ hốt
hoảng_ loạn
tan_ cửa_nát_
tan_t ác
tay_ ấp
chủ_ch ứa
cơm_ mà_g
buông_ lỏng
cây_x anh
chứng_t ích
hệ_sinh_ cảnh
Bình_Ch ánh
hồn_ ma
giáp_ trận
khán_ phòng
hoàng_ gia
hoàng_ hôn
hoàng_ kim
Nguyễn_Thành _Vinh
Nguyễn_Thành_ Luân
Nguyễn_Đình_ Hùng
Nguyễn_Đình_ Thân
Nguyễn_Đình_ Mạnh
Nguyễn_Bá _Ngọc
Nguyễn_Bá _Đông
Nguyễn_Bá _Thụ
thịnh_ hành
chính_trị _viên
chữa_ trị
chui_ lủi
chui_ ra_chui_
bất_khả _xâm_phạm
Phú_Th ạnh
lưỡi_ búa
Bộ_ chỉ_huy
Lê_ Hà
Lê_ Trung_Thành
Lê_ Trần_Hường
Lê_Minh_ Thành
Lê_Minh_ Xuân
Lê_Minh_ Quang
Ngày_ ngày
niềm_ nở
khuyên_ răn
Võ_Thị _Thắng
Võ_Thị _Lĩnh
Võ_Thị _Hoàng_Yến
Trần_S ỏ
Trần_S ầm
Trần_S ong_Toàn
Nguyễn_Thị_T ư
Nguyễn_Thị_T ình
Nguyễn_Thị_T iêu
đen_ nhánh
đen_ nháy
đen_ kịt
nhanh_nh ẩu
hỏa_ tuyến
che_ khuất
thấp_th ỏm
Hoàng_Ph ủ_Ngọc_
khiếm_ thị
xóc_ đĩa
mạnh_ khỏe
ruồng_ bố
run_r ẩy
dạng_ thức
sel ler
Hòn_ Đất
thù_h ằn
Bùi_Thị _Lan
dụng_ ý
lọt_ thỏm
buồn_t ủi
Bunta phan_
Vũ_Đình_ Trúc
sụt_ sùi
Joh n_Woodward
Sav anakhet
đùm_ túm
Phụng_ Hiệp
Axan _Pơloong_
Jimmy _Phạm
Kenne dy
Olympi an_New
Quyết_ Thắng
Sakon Nakhon
rần_r ật
tọa_ lạc
yểm_ hộ
090 3
550 _
At âu
At lanta
Bến _Cát
Bến _Dược
Bãi _Sậy
Ca bot_Lo
Cá _độ
Cổ _tích
Cổ ng_Trời
Cam ry
Cam _Ranh
Căm_ thù
Căm_ hờn
Cồn_ Giá
Cồn_ Lá
Dĩ _nhiên
Dĩ _An
Dạy _học
Dấu_ hỏi
Dấu_ vết
Dẫu_ sao
Dẫu_ vậy
Gó p_phần
Gó p_ý
Har var
Le n_lỏi
Le per
Lục _Ngạn
Lục _Vân_
Lương_ Thế_Vinh
Lương_ Thị_Huệ
Lại_ nữa
Lại_ Thị_Liên
Mi tre
Mi chel_O
Mơ _ước
Mạnh_ dạn
Par is
Par inya_
Rà _soát
Se a_Games
TH PT
Ti de
Tay _trắng
Tao _Đàn
Tai_ ương
Tai_ nạn
Tối_ qua
Tối_ cao
Vi etnam
Vi _Chăm
Vạn _An
Vạn _Phúc
Vùng_ đất
Vùng_ biển
_3 4_triệu
_6 19
_6 77
_8 20
_8 _triệu
_cho ác
_22 3_tỉ
ac e
binh_ lính
binh_ pháp
bồng_ bế
bồng_ bềnh
bậy _bạ
bần_ bật
bần_ hàn
bùng_ nổ
bùng_ nhùng
bắp_ vế
bắp_ ngô
căm_ thù
căm_ hờn
dơ _bẩn
day _dứt
dào _dạt
dung_ nhan
dạn_ dày
dạn_ dĩ
dồn_ ép
dồn_ dập
dẫu_ cho
dẫu_ sao
dớn_ da_dớn_
gừ _gừ
gai_ ốc
gai_ góc
gầm_ rú
gầm_ gừ
hỉ _hả
hớ _hênh
hớ n_hở
ham_ muốn
ham_ thích
lí _nhí
lí u_lo
lả m_nhảm
lả _lơi
lị m
lần_ mò
lan_ rộng
lan_ can
lăng_ kính
lăng_ mạ
lục_ tục
lục_ đục
lọc_ khí
lọc_ lừa
mai_ một
mai_ phục
mười_ mấy
mười_ lăm
nơ m_nớp
nao _núng
of i
of fline
oá n_thán
oá n_trách
ró n_rén
rỉ _rả
rợ n_ngợp
rất_ mực
rất_ đỗi
ráo _hoảnh
ráo _riết
rác_ thải
rác_ rưởi
râu_ tóc
râu_ quai_
rơi_ rụng
rơi_ vãi
st esen
sà ng_lọc
té _tát
tộ i_tình
tộ c_người
tần_ số
tần_ ngần
táp lô
vồ _vập
vong_ hồn
vong_ linh
văng_ tục
văng_ vẳng
vâng_ vâng_
xu_ thế
xu_ hướng
xảo _quy
xấp_ ngửa
xấp_ xỉ
xiêu_ lòng
xiêu_ vẹo
Ý_ kiến
Ý_ Yên
Đờ i_thường
Đờ i_thuở
Điệ n_thoại
Điệ n_lực
Đầm _Sen
Đầm _Rong
Đấu_ sĩ
Đấu_ tranh
Động_ vật
Động_ Lực
Đổi_ mới
Đổi_ đời
Đêm_ ngày
Đêm_ tối
đày _ải
đi_t ới_đi_lui
đẳng_ cấp
đúng_ mức
đúng_ đắn
Ấp_ ủ
Ấp_ úng
ngoài_ trời
nhao _nhao
nham_ nhở
nham_ thạch
nhạt_ phai
nhạt_ nhòa
cha_ anh
cha_ truyền_con_nối
chập _tối
chiêu_ tập
chiêu_ thức
chọc_ tiết
chọc_ ghẹo
thố ng_lĩnh
thập_ niên
thập_ kỷ
than_ phiền
than_ vãn
tháng_ chạp
_Cor ps
trễ _tràng
trên_ hết
trên_ trời_dướ
trắc_ ẩn
trắc_ địa
trưng_ cầu
trưng_ bày
trứng_ cá
trứng_ nhàu
khỉ _ho_cò_g
khái_ niệm
khái_ quát
khốn_ khó
khốn_ khổ
phim_ ảnh
phim_ tài_liệu
giê ng
giấc_ ngủ
giấc_ mơ
quạt_ máy
quạt_ điện
cá_m è
cá_m ú
cá_ch ạch
cá_ch ép
Tha bo
Thể _loại
Thiên_ Lý
Thiên_ duyên
Thánh _Paul
Chiều_ tối
Chiều_ chiều
Chẳng_ hạn
Chẳng_ mấy_khi
Truyề n_hình
Truyề n_thống
Tràm _Chim
Trọng_ tài
Trọng_ Hoàn
Nhân _Dân
Ngư _phủ
Ngư _trường
tiến_tr ình
tiến_tr iển
tiếng_t ai
tiếng_t ăm
Khảo _sát
Khai_th ông
Khai_th ác
Khởi_ nghiệp
Khởi_ nghĩa
quang_ cảnh
quang_ gánh
quai_ hàm
Phi chit
Phân_ cấp
Phân_ tích
chích _choác
tuk tuk
tung_ hô
tung_ hoành
tung_t ăng
tung_t ích
khoái_ cảm
khoái_ khẩu
phác_ họa
phác_ thảo
cứng_ rắn
cứng_ đờ
hoá _chất
long_ trọng
long_ não
tàn_t ệ
tàn_t ật
chủng_ loại
bảo_ kê
bảo_ quản
đốt_ phá
đốt_ sống
Giao _thông
Giao _tranh
Giồng_ Lầu_
Giồng_ Trôm
khói_ hương
khói_ lửa
Quê _Hương
Quan _Sơn
chạy_ ăn
chạy_ bàn
Nguyễn_Tiến_ Thảo
Nguyễn_Tiến_ Đạt
Nguyễn_Hữu _Cầu
Nguyễn_Hữu _Cả
Nguyễn_Thiện_ Luân
Nguyễn_Thiện_ Thuật
_Thu_ Hằng
vuông_ vức
vuông_ hình_sắc_
Cảm_ ơn
Cảm_ hứng
Nguyễn_C hơn
Nguyễn_C ao_T
Lê_Thanh_ Hải
Lê_Thanh_ Tấn
đỏ_đ en
đỏ_đ èn
thủy_t ạ
thủy_t ề
khuynh_ hướng
khuynh_ gia_bại_
Tràng_ Tiền
Tràng_ Thi
Trần_Thanh _Nguyên
Trần_Thanh _Nghị
Trần_Thị _Xoan
Trần_Thị _Ngọc_Hảo
Phạm_V iết_Cảnh
Phạm_V iết_Tường
nghiêng_ mình
nghiêng_ ngả
Trần_Văn _Nam
Trần_Văn _Nhật
Trần_Duy _Phát
Trần_Duy _Khang
sơ_s ót
sơ_s uất
cúm_ gà
cúm_ gia_cầm
Nguyễn_Thị_Th u
Nguyễn_Thị_Th ửa
Mai_Văn_ Lắm
Mai_Văn_ Khuê
bão_t ố
bão_t uyết
hỗn_ hợp
hỗn_ loạn
lặp_ đi_lặp_
chào_ bán
chào_ đón
đèn_n eon
đèn_n éon
bề_ trên
bề_ ngoài
Trương_Gia_ Triều
Trương_Gia_ Mô
Phan_Thanh_ Hoàng
Phan_Thanh_ Thạc
Hoa_ Kỳ
Hoằng_ Hóa
Hoằng_ Tân
bia_ mộ
bia_ lon
mỏi_ mong
mỏi_ mòn
354 _tỉ
Độc_ kế
Độc_ Lập
dở_ch ừng
huyền_ ảo
huyền_ bí
Đỗ_Văn_ Mai
Đỗ_Văn_ Hạt
Đỗ_Thị _Lời
Đỗ_Thị _Thu_Hằng
Đội_C ó
Đội_C ấn
buồn_th ảm
buồn_th iu
cay_c ú
cay_c ay
mark eting
mark erting
hẹn_l ần_hẹn_l
lia_ qua_lia_
Ngô_Đình _Diệm
Ngô_Đình _Nhu
Hồng_Minh _Vũ
Ước_ muốn
Ước_ mơ
nhắm_mắt_ xuôi_tay
nhắm_mắt_ đưa_chân
trơ_tr ọi
trơ_tr ụi
phì_ph ì
phì_ph èo
438 a
438 b
Trang_ trại
Trang_ Tuyết_Nhi
Vosabuly _Sau
vẫy_v ùng
vẫy_v ẫy
Hiệp_ Lợi
rắn_r ết
rắn_r ỏi
vườn_ ruộng
vườn_ quốc_gia
xì_x ào
xì_x ầm
đĩa_ mềm
đĩa_ nhạc
nhãn_ tiền
nhãn_ hiệu
American baby
dài_ngo ằng
dài_ngo ẵng
010 4
340 55
341 _tỉ
AB AC
Ad am
Al len_Iv
Au stra
Az it
A_M uối
A_L ưới
Aron a
Bây _chừ
Bước_ đầu
Bần_ cùng
Bóng_ đá
Bầu_ trời
Bối_ cảnh
Bút_ lục
Cư _dân
CAR LY
Chọ n
Cám_ ơn
Cầm _Văn_Kình
Cái_ Mơn
Cai_ Lậy
Car ton
Cận_ cảnh
Can_ Lộc
Căng_ thẳng
Cánh_ Đồng_Chu
Cống_ hiến
Di amon
Dư _luận
Dọ n_dẹp
Dai hatsu
Dịch _vụ
Diệu _Nhàn
Dần_ dà
Dốc_ Tứ
Dòng_ Xài
Diện_ mạo
Dun lop
Dre am
Diễn_ đàn
Dũng_ Khang
Diệu_ Giác
Dad dy_d
Em_ út
Fu lham
Gu anzih
Gõ _cửa
Gen ève
Gạn_ hỏi
Ghề nh
HT X
Hi rosh
Hè n_nào
Hơ n_thua
Hỏ i_thăm
Hố _Bỏ_G
Hỗ _trợ
Hao _hao
Hòn _Chuối
Huộ i_Mọ
Ham_ muốn
Hong_ Kong
Hắc_ Hổ
Hiểm_ họa
Hạn_ chế
Hôn_ nhân
Hướng_ Điền
Hap ro
Hiệu_ triệu
Hói_ Mít
Ia _Phí
Ip arenting
Ire land
Jar oenp
Ki ssinger
Kj ang
Ko n_Tum
Kỹ _thuật
Ket many
Kiệ n_toàn
Kiế n_thức
Kiều_ Oanh
Kon sta
Kom pong
Ký_ ức
Kal axin
Kit amura
KHĐ T
Kem_ Kjang
Ksor _Buh
Li beria
Lố i_thoát
Lin da
Linh_ tính
Lên_ đường
Lâu_ lâu
Lần_ mò
Lái_ xe
Lôi_ cuốn
Lạc_ Tánh
Lặng_ thinh
Lọc_ lừa
Láng_ Thượng
Lạc_L ong_Quân
LE_A _
Mê _Linh
Miệ ng
Mất_ mát
Min sk
Mường_ Mộc
Miêu _Nha
Mang_ tiếng
Mưu_ sinh
Mậu_ Thân
Miền_ Tây
Max wel
Mit tafab
Mùi_ vị
Maul ayai
NX B
Nà ng_tiên
Nú i_Ông
Nỗ _lực
Nộ i_thất
Nữ _sinh
Nong waeng
Nao _Quang
Nạo _vét
Nấn_ ná
Nhọc_ nhằn
Non thaburi
Nổi_ tiếng
Nếu_ như
Nặm _Ngập
NIDR R
Om o
Pa ven_Cor
Pe ace
Po chentong
Pà _Chay
Pra muan_Ruch
Pas teur
Pray _Veng
PCC C
Paul _ar
Quyề n_lợi
Rượ u_mạnh
Rào _cản
Răng _Cưa
Rạch _Cát
Ròng_ rã
Rom ania
Rậm _Rì
Real _Mad
Ree bok
ROP L
Si em_Re
Sy dne
Sà ng_lọc
Sơ _đồ
Sa_ Huỳnh
Sai nt
San ofi
Săn_ lùng
Sto p
Sai_ phạm
Sang_ nãm
Siêu_ thị
Som luck
Sầu _Riêng
Samp ong
Sáng_ sớm
Sri_ Lanka
Sóc_ Trăng
Sel fg
Tỉ _lệ
Tu_ Đinh
Tương _Dương
Tinh_ thần
Tắc _Vân
Tâm_ lý
Ton le_Sap
Tội_ nghiệp
Tiêu_ chuẩn
Tính_ chất
Tùng_ Lâm
Tiểu_ đội
Tòa_ soạn
Tặng_ phẩm
Tax i
Tuyệt_ đối
Ul tra
Uz bekistan
Uyên_ Hưng
Vỉ a_hè
Việ n_trưởng
Vân _Diên
Vân_ Gia
Vật_ dụng
Vừa_ mới
VAC B
Vinam ilk
VTV 4
Wang_ Hong
Wil son
Xê _Đăng
Xử _lý
Xương_ sống
Xâm_ Lăng
Xâu_ chuỗi
Xôm that
Xôm_ tụ
Xúc_ động
Xat Thai
Yon ex
Yom iur
Yal y
_00 00
_45 9
_í_ e
_Ju stesen
bã i_tắm
bủ a_vây
bác_ tài
bấu_ víu
bôn_ ba
bủng_ beo
bòng_ bong
bạch_ cầu
biền_ biệt
bẩm_ sinh
bát_ ngát
bới_ bới
bẩn_th ỉu
bắn_t ỉa
bes t
bi_b ô
cắ n_răng
cen ter
cường_ điệu
cạc tông
cận_ chiến
cắc_ cớ
cài_ đặt
cấu_ trúc
còng_ queo
cậu_ bé
cọc_ cạch
cởi_ mở
cột_ sống
cùi_ chỏ
cẩn_tr ọng
cợt_ nhả
dấ n_thân
d_P laza
dăm_ bảy
dập_ dềnh
dạt_ vô
dính_ dáng
dọc_ ngang
dột_ nát
dược_ phẩm
dồi_ dào
dí_d ỏm
dẻo _dai
dặn_ dò
eur o
gu e
gườ m
gra m
ganh_ đua
gật_ gù
gặt_ hái
gập_ ghềnh
gan_ dạ
găng_ tay
gãi_ gãi
gran ite
gườm_ gườm
hã m_hiếp
hó a_đơn
hủ _tiếu
hiề n_thục
huyệ n_lỵ
hách _dịch
hái_ lượm
hăm_ dọa
hạt_ tiêu
hăng_ hái
hát_ hò
hằng_ tâm
ha_h ả
hóc_ hiểm
hãnh_ diện
in_ ấn
in_r oneo
ju do
ki_ cóp
kiêu_ hãnh
kiểu_ dáng
kiện_ cáo
kiệm_ lời
kiêng_ dè
lâ ng_lâng
lữ _hành
luy ến_tiếc
lượ n_lờ
lu_ bù
lanh_ lợi
lồng_ lộng
lại_ sức
lực_ lượng_
lèo _tèo
lắt_ léo
lười_ biếng
liêu_ xiêu
lầy _lội
lẩn_ khuất
l_T aylo
lim_ dim
lặng_ ngắt
lơi_ lỏng
loài_ người
lép_ vế
lùi_ xùi
liệu_ cơm_mà_g
lung_l inh
lướt_ thướt
lẩn_tr ốn
mế n_thương
mủ i_lòng
mừ ng_tủi
mườ i_tám
mông_ mênh
mân_ mê
muộ i
mách _bảo
mình_ mẩy
méo _mặt
mắc_ cỡ
mấu_ chốt
mốc_ meo
môn_ bài
móng_ vuốt
man_ rợ
mil imet
mối_ hàng
mến_ yêu
miền_ xuôi
mắng_ chửi
mứt_ gừng
mẫn_ cán
né _tránh
nặ ng_lời
nế m_trải
nanh_ nọc
niên_ thiếu
nồng_ thắm
nung_ nấu
nết_ na
nam_ giới
nài_ nỉ
nòng_ cốt
nằng_ nặc
nứt_ nẻ
nắn_ nót
oắt_ hiện
oan_ nghiệt
oán_ hận
oanh_t ạc
pay _tà_l
rố t_cuộc
rồng_ rắn
rời_ rạc
rong_ ruổi
rái_ cá
rủng_ rỉnh
rầu_ rầu
rôm_ rả
ráp_ nối
ring git
rít_ rịt
rle ans
rắn_ chắc
rêu_ phong
sù m_sụp
sả n_lượng
si_ mê
sho w
sương_ mù
sám_ hối
slo gan
sắt_ đá
sòng_ phẳng
sầu_ riêng
sấm_ sét
sảng_ khoái
sưu_ tập
sồn_ sồn
sak _Sithuhu
sếu_ đầu_đỏ
siêng_ năng
shop ping
sir ileun
spap er
ti_ co
tu_ từ
tày _đình
tướ ng_lĩnh
tường_ tận
ti_t iện
tảo _tần
tiễ u_phỉ
tong_ tả
tặc_ lưỡi
tôi_ luyện
tòng_ phạm
tẩn_ mẩn
tục_ lệ
tướng_ quân
tồi_ tàn
tóm_ cổ
tanh_t ưởi
ui_ chao
uẩn_ khúc
vố n_liếng
vu_ khống
vương_ giả
vấn_ nạn
van_ xin
vil la
vắng_ vẻ
vắn_t ắt
vằn_ vện
vốn_ dĩ
won do
xi_ ghem
xiề ng
xào _xạc
xáo _trộn
xập_ xệ
xăng_ dầu
xầm_ xì
xối_ xả
xê_d ịch
xú_ uế
xềnh_ xệch
yết_ hầu
Ðầu_ tiên
ì_x èo
ò_e _í_e
ôn_t ồn
õng_ ẹo
ùn_ ùn
ùn_t ắc
ý_t ứ
ý_H ạo
Ăn_ Trộm
Đả _đảo
Đố i_tượng
Đoà n_Hữu_
Đúc _Nhỏ
Điên_ điển
Đắc_ Tô
Đội_ trưởng
Đan_ Mạch
Đậm_ nét
Đến_ nỗi
đớ n_hèn
đu_ đủ
đình_ chỉ
đanh_ thép
đâm_ đơn
đắt_ giá
đăm_ chiêu
đạn_ bom
đấm_ đá
đẫy _đà
đục_ khoét
đạm_ bạc
đĩnh_ đạc
đắm_ đuối
đỉnh_ điểm
đằng_ đẵng
đợi_ chờ
đớn_ đau
ũi_ xanh
ảm_ đạm
Ốc_ đảo
ổ_đề _kháng
ở_nh ờ
_Nữ_V N
_Pier re_des
ngào _ngạt
ngại_ ngần
ngật_ ngưỡng
ngắt_ quãng
ngặt_ nghèo
ngắc_ ngứ
ngóng_ vọng
ngan_ ngát
ngồn_ ngộn
ngượng_ ngùng
ngắm_ nghía
ngơi_ nghỉ
ngọt_ mát
nguyệt_ san
ngằn_ng ặt
ngồi_t ù
nhuy ễn
nheo _nhóc
nhâm_ nhi
nhiễ m_bệnh
nhục_ nhã
nhọc_ nhằn
nhũng_ nhiễu
nhem_ nhuốc
nhóm_ họp
nhắn_ nhủ
nhếch _nhác
nhút_ nhát
nhợt_ nhạt
nhẫn_n ại
nhẵn_ mặt
nhịn_ đói
nhọn_ho ắt
chuyệ n_trò
chình_ ình
cha_đ ẻ
châm_ cứu
chần_ chừ
chắt_ bóp
chai_ sần
chấn_ chỉnh
chầu_ giời
chùng_ chình
chồn_ hương
chột_ dạ
chưng_ hửng
chới_ với
cháo_l òng
chiêm_ nghiệm
th_W ales
thám_ hiểm
thước_ đo
thâu_ đêm_suốt_
thong_ thả
thắt_ lưng
thuộc_ lòng
thôn_ xóm
thiêu_ thân
thiểu_ số
thuyề n_bè
thảng_ thốt
thối_ chí
thọc_ sâu
thạch_ cao
thắm_ thiết
thưởng_ thức
thần_l inh
thượng_t ọa
thêm_ bớt
thần_tr í
etai nang
etthak orn
_Cur ie
truyệ n_ngắn
trồng_ trọt
trâu_ bò
trận_ địa
trăm_ ngàn
tròng_ trành
tránh_ mặt
trống_ hoác
trừng_ phạt
triền_ miên
truân_ chuyên
trót_ lọt
trắng_t inh
trộm_ cắp
trớ_tr êu
kha_ khá
khanh_ khách
khâm_ phục
khấn_ phật
khúc_ khuỷu
khẩn_th iết
khét_ tiếng
khọt_ khẹt
khiêm_ tốn
khề_kh à
khứ_h ồi
phu_ nhân
pha_ chế
phành_ phạch
phai_ mờ
phon e
phấp_ phỏng
phạt_ góc
phảng_ phất
phò_m ã
phôi_th ai
phê_ph án
làng_m ạc
i_từ ng_tí
vành_ đai
giấu_ giếm
giục_ giã
giống_ hệt
giằng_ chéo
giãi_ bày
giẫm_ chân_tại_chỗ
quày _quả
quắt_ queo
quẫy _đạp
quều_ quào
nh_tháng_ tốt
cá_đ ối
cái_chết_ trắng
mộng_m ị
của_ch ìm
của_c ải
của_n ả
Thân_ hình
Thất_ bại
Thương_ mại
Thích _Thiện_
Thường_ vụ
Thâm_ tâm
Thấu_ hiểu
Thuốc_ phiện
Thốt _Nốt
Thana sak_Sithuhu
Thạnh_ Hóa
Thôi_th úc
Thỏa_ thuận
aycar e
ongkor n
nghênh_ chiến
nhà_t ình_nghĩa
nhà_l ầu
nhà_h óa_học
nhà_vệ _sinh
nhàn_r ỗi
nhà_tư _tưởng
nhào_n ặn
vào_s ổ
vào_sinh_ ra_tử
từ_t ốn
từng_l i_từng_tí
cản_ng ại
Cham etainang
Chồng_ chưa_cưới
Chắt_ chiu
Chơn_ Thành
Chuyên_ gia
Chí_T ượng
Trách _nhiệm
Trình_ độ
Trái_ đất
Trầm_ ngâm
Trắm_ cỏ
Trưởng_ ban
Troy _Justesen
bà_đ ỡ
bàn_l uận
bài_t oán
_tấm_ bánh
Nhận_ dạng
Nhan_ đề
Nhẹ_l âng
số_h iệu
eo_h ẹp
Ngậm_ ngùi
ngày_là nh_tháng_tốt
công_trình_ phụ
công_thức_ hóa_học
công_dung_ ngôn_hạnh
chúa_sơ n_lâm
bị_g ậy
định_m ệnh
xen_l ẫn
xe_b ọc_thép
chiến_t ích
Khắc _Chiêng
Khám_ phá
Khái_ niệm
Khán_ đài
Khe_S oi
đá_v ôi
quan_l iêu
Pháo _Đài_Láng
Phước_ Long
Phật_ Bà
Phải_ chăng
Phit sanulo
Phán_ đoán
Phila delphia
Phath et_Lào
Phy_Phả_X ây
Phù_Đ ổng
Phùng_Văn_ Khầu
chí_ch ết
chín_t ới
tuềnh_ toàng
áo_m ưa
áo_cho àng
khoáng_ sản
phá_ph ách
amno en
đền_t ội
đề_b ạt
ăn_đậu_ ở_nhờ
hoán_ đổi
hoa_h ồng
quyên_ góp
máy_c ày
máy_n ổ
máy_xách _tay
tan_r ã
taek wondo
giờ_kh ắc
tay_c ầm
tay_ng ang
tay_xách _nách_m
ban_t ặng
xã_hội_ hóa
loáng_ thoáng
chủ_b iên
chủ_sở _hữu
cơ_c ấu
cơ_b ắp
đồng_tiề n_bát_
đồng_quà _tấm_bánh
đầu_đường_ xó_chợ
đầu_gối_ tay_ấp
Hà_Th ân
buôn_l ậu
bảo_hiểm_ nhân_thọ
Giai_ đoạn
Gian_n an
Gior dan
thuận_ buồm_xuôi_
bao_g ồm
cây_g ỗ
quản_lý_ nhà_nước
trang_l ứa
trau_d ồi
cao_ng ất
i_tới_ chốn
quát_m ắng
quá_gi ang
quáng_qu àng
quán_x uyến
quán_có c
báo_vụ _viên
lunac y
xuất_cả nh
xuýt_ xoa
xui_xẻ o
tự_x ưng
nghĩ_ng ợi
Quần_ soóc
Quái_ vật
Quán_ Thánh
Quới_ Thành
Quách_H ồng_Lê
khách_kh ứa
khách_vãng_l ai
tổng_t ấn_công
tin_Sim onov
chán_ng án
Mỹ_Th ạnh_An
thủ_qu ĩ
tình_nguyện_ viên
ngay_tức_ thì
nghề_tự _do
Bàu_Tr òn
thành_lũ y
bỏ_ho ang
hồn_v ía
to_b ự
toil et
toán_ học
địa_linh_ nhân_kiệt
nhân_chủng_ học
sao_B ắc_Đẩu
liên_cảng _A5
kinh_hồn_b ạt_vía
đại_bản_ doanh
Nguyễn_Tuấn _Ngọc
Nguyễn_Thế _Khanh
Nguyễn_Minh _Phụng
Nguyễn_Quốc _Cường
Nguyễn_Xuân _Phúc
Nguyễn_Huy _Hoàng
Nguyễn_Quỳnh_ Lộc
Nguyễn_Trương_ Thiên_Lý
Nguyễn_Hoàng_ Trúc
Nguyễn_Tấn_ Lạc
Nguyễn_Hải_ Yến
Nguyễn_Khắc_ Trường
Nguyễn_Thiện _Nhân
Nguyễn_Hiểu_ Trường
phụ_x ế
giấy_kh en
giấy_chứng_ minh
chữ_quốc_ ngữ
cuốn_x éo
cuống_quý t
vô_kh ối
bất_động_ sản
bất_mã n
bất_đắc_ dĩ
Công_nghệ _sinh_học
thoang_ thoảng
thoáng_ đãng
thoát_ ly
thoắt_ẩn_th oắt_hiện
Người_Phụ _Nữ_VN
chuyển_b iến
Vàm_C ái_Su
nguyền_r ủa
đầy_r ẫy
mũ_lưỡi_ trai
lộn_x ộn
tham_mưu_ trưởng
sách_giáo _khoa
sinh_thái_ học
sinh_con_đẻ _cháu
láng_gi ềng
lưỡng_l ự
giữ_gì n
_Mal tby
hạ_cá m
Nhà_Đ èn
Cả_Đ ỏ
kiểm_sát_ viên
đào_x ới
đặc_quyền_ đặc_lợi
Nguyễn_Ngọc_ Thiện
Nguyễn_Phú _Bình
Nguyễn_Việt_ Hùng
Nguyễn_Anh_ Tuấn
bờ_gi ậu
bờm_xờ m
soi_m ói
Thế_vận_ hội
đánh_trố ng_lảng
Baby center
Basil _Nissen
Batt ambang
dân_quân_ tự_vệ
Muỗi_m òng
tâm_khả m
kỹ_thu ật_số
mặt_nặng_ mày_nhẹ
xe_điện_ ngầm
tú_lơ_kh ơ
Thị_Ngh è
Bộ_tư _lệnh
Đàm_Khắc_ Lĩnh
cổ_độ ng_viên
hổn_h ển
chứng_minh_ thư
Lê_Minh _Châu
Lê_Thị _Thắm
Lê_Duy _Hiệp
Lê_Mã_L ương
alzhe imer
Hồ_Xuân_ Hòa
_THAY ER
chất_hữu_ cơ
xe_gắ n_máy
đỏ_g ay
Bình_Trị _Thiên
ban_ngày_ ban_mặt
đất_khách_quê _người
casin o
catalo gue
tùm_lu m
vùng_sâu_ vùng_xa
Đào_Xuân _Nhung
Đào_Trọng_ Lịch
Đào_Lập _Công
Đồng_Tháp_ Mười
Trần_Hưng_ Đạo
Trần_Đức_ Thịnh
Trần_Hồng_ Quân
Trần_Tố _Nga
Trần_Đình_ Quang
Trần_Mạnh_ Hoài
Võ_Chí _Công
Võ_Công _Sơn
Võ_Văn_C ậm
Võ_Thanh _Sơn
Võ_Hữu_ Tuyên
Võ_Trần _Chí
Võ_Danh_ Hải
Tây_Nam_ Bộ
Trần_Văn_S inh
Trần_Du_ Lịch
nghĩa_nặng_ tình_sâu
cầu_trời_ khấn_phật
boxi ng
lợn_s ữa
trước_tác_đẳng_ thân
Nagas aki
Napa_S etthakorn
huyên_th uyên
tính_đi_t ính_lại
Nguyễn_Thị_Thanh_ Mai
dịu_d àng
phó_tổng_ thư_ký
cờ_đỏ _sao_vàng
đen_s ì
nhanh_nhả u
dày_cộ p
ưa_chuộ ng
đồng_hồ_mặt_ trời
nền_n ếp
rượu_đ ế
xa_vời_ vợi
Khoa_học_ tự_nhiên
Nice goat
trái_xo an
máy_bay_lên_th ẳng
Nông_Đức_ Mạnh
Năm_lần_ bảy_lượt
huýt_ sáo
phù_đi êu
Tân_Sơn_Nh ất
lắc_đầu_lè _lưỡi
tầm_sư_học_ đạo
thượng_vàng_ hạ_cám
ghế_bà nh
Banglade sh
Lý_Nam_ Đế
Thời_gian_b iểu
Ban_Chấp_ hành
bề_bộ n
anaser re
Dankia_Re sort
Văn_Đình_ Tuyết
trong_ấm_ngoài_ êm
quàng_qu ạc
có_một_không_ hai
đội_nón_ra_ đi
công_nghệ_thông_ tin
Phan_Chánh_ Tâm
tối_mắt_ tối_mũi
điện_thoại_cầm_ tay
Cơlâu_Nh ới
Cơlâu_Bh ưới
Tà_Phọ t
Trương_Thị_ Ái_Vy
quanh_năm_suốt_ tháng
Phan_Thị_ Ba
bán_sơn_ địa
Đặng_Công_ Lân
ngót_ngh ét
thâm_sơn_ cùng_cốc
Chatucha k
Hoàng_Hoa_ Thám
Hoàng_Quý_ Trung
Hoàng_Thị_Ngọc _Diễm
Toky o
Tom_Har kins
lời_qua_tiếng_ lại
Chợ_G ạo
lúc_mưa_ lúc_gió
New_O rleans
NewYor k
New_Sou th_Wales
Hạ_nghị _viện
Hạ_tầng_ cơ_sở
Mai_Quốc_ Bình
Mai_Ái_ Trực
Mai_Quế _Tiệp
Mai_Bử u_Minh
Marie _Curie
sống_dở_ch ết_dở
Rajad amnoen
Đỗ_Qu ý_Hạo
Đỗ_Quốc _Việt
Đỗ_Hữu_ Khương
giỏi_gi ang
Coca_Cola_ Mỹ
Edward _Maltby
Liên_Hiệp_ Quốc
Tết_Nguyên_ đán
Vũ_Thanh_ Thủy
New_Zealand_Hera ld
BookSur ge
Lưu_Diệ c_Đình
Susan_ Gilbert
kín_cổng_cao _tường
Chulal ongkorn
Ngô_Thanh_ Bình
Ngô_Thu_ Hiền
Khổng_Lệ _Hòa
Huỳnh_Văn_Ngh iêm
tạp_pí _lù
Maeso t
Sathandej_S kindeoymp
Tờngôn _Dâu
mệt_l ử
tận_tụ y
thò_lò_m ũi_xanh
giơ_lên_ giơ_xuống
tuổi_già_sức_ yếu
đứng_như_tr ời_trồng
Roose velt
Tracimex co
mang_nặng_đẻ _đau
sơn_son_thế p_vàng
được_chăng_ hay_chớ
ngồi_xổ m
ngồi_chồm_ hổm
chôn_nhau_ cắt_rốn
tàu_điện_ng ầm
bẻ_gãy_sừng_ trâu
liabit lity
nơi_ăn_chốn_ ở
tề_tự u
tới_nơ i_tới_chốn
đập_đi_đập_ lại
tan_cửa_nát_ nhà
chui_ra_chui_ vào
Hoàng_Phủ_Ngọc_ Tường
Buntaphan_ Xômthat
Axan_Pơloong_ Đinh
Olympian_New spaper
Cabot_Lo dge
Harvar d
Leper s
Lục_Vân_ Tiên
Michel_O wen
Parinya_ Jaroenp
Sea_Games _22
dớn_da_dớn_ dác
râu_quai_ nón
vâng_vâng_ dạ_dạ
xảo_quy ệt
trên_trời_dướ i_đất
khỉ_ho_cò_g áy
Giồng_Lầu_ Già
vuông_hình_sắc_ cạnh
Nguyễn_Cao_T oản
khuynh_gia_bại_ sản
lặp_đi_lặp_ lại
hẹn_lần_hẹn_l ữa
lia_qua_lia_ lại
Vosabuly_Sau sirileun
Allen_Iv erson
Austra lia
CARLY LE_A_
Cánh_Đồng_Chu m
Diamon d_Plaza
Daddy_d aycare
Guanzih ling
Hirosh ima
Hố_Bỏ_G ùi
Konsta tin_Simonov
Kompong _Som
Maxwel l_Taylo
Maulayai ng
Paven_Cor saghin
Pramuan_Ruch anaserre
Paul_ar kins
Real_Mad rid
Siem_Re ap
Sydne y
Saint _Pierre_des
Somluck _Khamsing
Selfg rowth
Yomiur i
lực_lượng_ vũ_trang
liệu_cơm_mà_g ắp_mắm
pay_tà_l ạt
Đoàn_Hữu_ Đấu
thâu_đêm_suốt_ sáng
Thích_Thiện_ Hoa
Thanasak_Sithuhu bol
Phitsanulo k
tay_xách_nách_m ang
đồng_tiền_bát_ gạo
thuận_buồm_xuôi_ gió
Parinya_Jaroenp hon
Maxwell_Taylo r
Saint_Pierre_des _Corps
