{"<BOS>":0,"<EOS>":1,"<PAD>":2,"<unk>":3,"<mask>":4,"!":5,"\"":6,"%":7,"&":8,"(":9,")":10,"+":11,",":12,"-":13,".":14,"/":15,"0":16,"1":17,"2":18,"3":19,"4":20,"5":21,"6":22,"7":23,"8":24,"9":25,":":26,";":27,"<":28,">":29,"?":30,"@":31,"A":32,"B":33,"C":34,"D":35,"E":36,"F":37,"G":38,"H":39,"I":40,"J":41,"K":42,"L":43,"M":44,"N":45,"O":46,"P":47,"Q":48,"R":49,"S":50,"T":51,"U":52,"V":53,"W":54,"X":55,"Y":56,"Z":57,"_":58,"a":59,"b":60,"c":61,"d":62,"e":63,"f":64,"g":65,"h":66,"i":67,"j":68,"k":69,"l":70,"m":71,"n":72,"o":73,"p":74,"q":75,"r":76,"s":77,"t":78,"u":79,"v":80,"w":81,"x":82,"y":83,"z":84,"À":85,"Á":86,"Â":87,"Ê":88,"Í":89,"Ð":90,"Ô":91,"Ú":92,"Ý":93,"à":94,"á":95,"â":96,"ã":97,"è":98,"é":99,"ê":100,"ì":101,"í":102,"ò":103,"ó":104,"ô":105,"õ":106,"ù":107,"ú":108,"ý":109,"Ă":110,"ă":111,"Đ":112,"đ":113,"ĩ":114,"ũ":115,"Ơ":116,"ơ":117,"Ư":118,"ư":119,"ạ":120,"Ả":121,"ả":122,"Ấ":123,"ấ":124,"Ầ":125,"ầ":126,"Ẩ":127,"ẩ":128,"ẫ":129,"ậ":130,"ắ":131,"ằ":132,"ẳ":133,"ẵ":134,"ặ":135,"ẹ":136,"ẻ":137,"ẽ":138,"ế":139,"ề":140,"ể":141,"ễ":142,"ệ":143,"ỉ":144,"ị":145,"ọ":146,"ỏ":147,"Ố":148,"ố":149,"ồ":150,"ổ":151,"ỗ":152,"ộ":153,"ớ":154,"Ờ":155,"ờ":156,"Ở":157,"ở":158,"ỡ":159,"ợ":160,"ụ":161,"Ủ":162,"ủ":163,"ứ":164,"ừ":165,"ử":166,"ữ":167,"ự":168,"ỳ":169,"ỵ":170,"ỷ":171,"ỹ":172,"–":173,"’":174,"“":175,"”":176,"⁄":177,"_N":178,"_V":179,"_P":180,"_NP":181,"_VP":182,"_A":183,"_S":184,"CT":185,"NCT":186,"UNCT":187,"_PUNCT":188,"_Ad":189,"_Pr":190,"ng":191,"_Adv":192,"_PP":193,"_Adj":194,"_Pre":195,"_R":196,"OO":197,"OS":198,"_ROO":199,"_ROOT":200,"np":201,"_Nnp":202,"nh":203,"_Pro":204,"_Nu":205,"_AP":206,"_Num":207,"ch":208,"AR":209,"BAR":210,"_SBAR":211,"BOS":212,"EOS":213,"th":214,"_Nc":215,"_SC":216,"_D":217,"et":218,"_Det":219,"_C":220,"_CC":221,"tr":222,"n_":223,"ux":224,"_Aux":225,"kh":226,"ng_":227,"ông":228,"ườ":229,"ph":230,"là":231,"i_":232,"và":233,"ên":234,"gi":235,"iệ":236,"iế":237,"qu":238,"nh_":239,"t_":240,"_Prt":241,"..":242,"cá":243,"m_":244,"có":245,"uy":246,"ượ":247,"ới":248,"mộ":249,"củ":250,"ười":251,"của":252,"ôi":253,"c_":254,"u_":255,"một":256,"người":257,"ại":258,"iề":259,"ày":260,"ược":261,"không":262,"được":263,"Th":264,"ay":265,"ững":266,"ong":267,"anh":268,"_Ny":269,"ình":270,"đã":271,"ất":272,"a_":273,"ướ":274,"cho":275,"ai":276,"ngh":277,"như":278,"những":279,"ấy":280,"ến":281,"ang":282,"ông_":283,"ây":284,"...":285,"tôi":286,"ao":287,"ải":288,"co":289,"ươ":290,"KT":291,"trong":292,"BKT":293,"uố":294,"với":295,"ần":296,"ường":297,"ân":298,"đến":299,"ùng":300,"về":301,"đi":302,"an":303,"nhà":304,"ước":305,"ũng":306,"các":307,"họ":308,"iều":309,"lại":310,"ăm":311,"ra":312,"cũng":313,"_th":314,"_Nnpy":315,"hà":316,"vào":317,"_X":318,"au":319,"từ":320,"này":321,"đó":322,"cả":323,"con":324,"iết":325,"Ch":326,"Tr":327,"độ":328,"oà":329,"thì":330,"để":331,"bà":332,"òn":333,"00":334,"ồng":335,"_t":336,"iê":337,"nó":338,"Nh":339,"số":340,"ưa":341,"đầ":342,"chỉ":343,"ồi":344,"ác":345,"phải":346,"làm":347,"uyệ":348,"iên":349,"ào":350,"ương":351,"ận":352,"iể":353,"iện":354,"eo":355,"năm":356,"Ng":357,"_Nb":358,"mà":359,"án":360,"ơn":361,"uyện":362,"nhưng":363,"ngày":364,"khi":365,"ân_":366,"ời":367,"ất_":368,"trên":369,"p_":370,"công_":371,"uộ":372,"ổi":373,"nhiều":374,"chú":375,"ết":376,"mình":377,"bị":378,"biết":379,"tiế":380,"đị":381,"còn":382,"hai":383,"ằng":384,"xe":385,"chiế":386,"_SQ":387,"ật":388,"ách":389,"ăn":390,"_l":391,"inh":392,"LBKT":393,"RBKT":394,"Kh":395,"òng":396,"ẫn":397,"_d":398,"nói":399,"ức":400,"_Q":401,"âu":402,"úc":403,"lên":404,"má":405,"việ":406,"ập":407,"_QP":408,"đá":409,"bả":410,"iền":411,"_h":412,"qua":413,"nước":414,"ạn":415,"Ph":416,"ình_":417,"chí":418,"học":419,"ắt":420,"tu":421,"ơi":422,"ừng":423,"ành":424,"việc":425,"chị":426,"sẽ":427,"ng_tôi":428,"đang":429,"anh_":430,"áo":431,"đây":432,"ữa":433,"ái":434,"in":435,"hàng":436,"mới":437,"áng":438,"rất":439,"theo":440,"ặt":441,"kho":442,"rồi":443,"ỗi":444,"inh_":445,"_đ":446,"ội":447,"vì":448,"phá":449,"am":450,"sau":451,"_tr":452,"ục":453,"đề":454,"đường":455,"ăn_":456,"hơn":457,"đầu":458,"_m":459,"bộ":460,"đất":461,"chuyện":462,"cứ":463,"ho":464,"vẫn":465,"thấy":466,"em":467,"VN":468,"_s":469,"lớ":470,"quy":471,"cái":472,"iên_":473,"a_đ":474,"nào":475,"sự":476,"âm":477,"_ch":478,"nên":479,"máy":480,"n_th":481,"chúng_tôi":482,"ta":483,"ồng_":484,"giờ":485,"ung_":486,"át":487,"ọi":488,"tay":489,"ỏi":490,"_v":491,"uộc":492,"ực":493,"uống":494,"ống":495,"ạo":496,"sống":497,"cùng":498,"_nh":499,"ương_":500,"dân":501,"cách":502,"ba":503,"ắc":504,"_W":505,"cô":506,"vợ":507,"bố":508,"ám_":509,"động":510,"tại":511,"ấp":512,"ịch":513,"ưng":514,"xã":515,"ăng":516,"đứ":517,"ối":518,"êm":519,"ìm":520,"ính":521,"chưa":522,"trước":523,"ậy":524,"ảng":525,"_WH":526,"lo":527,"ừa":528,"iệt":529,"ua":530,"gì":531,"ích":532,"nay":533,"tà":534,"oàn":535,"ưở":536,"ại_":537,"thế":538,"iệu":539,"tiền":540,"úng":541,"đưa":542,"ết_":543,"Ông":544,"ầm":545,"ấn":546,"_XP":547,"rừng":548,"ôn":549,"đồng":550,"ửa":551,"chủ":552,"19":553,"cơ":554,"lần":555,"lúc":556,"ạch":557,"nhau":558,"nhận":559,"khác":560,"tuổi":561,"bằng":562,"nghiệ":563,"_thể":564,"bán":565,"_ph":566,"en":567,"đồng_":568,"uốn":569,"đầu_":570,"iển":571,"oài":572,"ếu":573,"Hà":574,"Tôi":575,"bu":576,"ọc":577,"ường_":578,"bảo":579,"tìm":580,"ên_":581,"đố":582,"định":583,"chuy":584,"ặp":585,"000":586,"nhất":587,"a_đình":588,"Gi":589,"dư":590,"âm_":591,"i_th":592,"làm_":593,"hiện":594,"lớn":595,"gần":596,"út":597,"ạm":598,"thu":599,"bao":600,"xuống":601,"giả":602,"Hùng":603,"vụ":604,"ắng":605,"Nguy":606,"mỗi":607,"ài":608,"n_tr":609,"ưởng":610,"gia_đình":611,"vừa":612,"ác_":613,"n_l":614,"_Xp":615,"bên":616,"đều":617,"cây":618,"ền":619,"ạy":620,"ực_":621,"nơi":622,"n_t":623,"ượng":624,"ty":625,"àng":626,"chiếc":627,"ung":628,"ành_":629,"từng":630,"ắn":631,"ấu":632,"iến":633,"quả":634,"tra":635,"khó":636,"ước_":637,"Hải":638,"tiếng":639,"âu_":640,"èo":641,"Nguyễ":642,"ôm":643,"ắm":644,"Nhưng":645,"do":646,"ngoài":647,"cao":648,"sang":649,"ồn":650,"i_t":651,"quá":652,"báo":653,"lu":654,"xu":655,"im":656,"gh":657,"tự":658,"ật_":659,"nghĩ":660,"gặp":661,"hết":662,"muốn":663,"Anh":664,"Qu":665,"viên":666,"ọng":667,"ạt":668,"iệt_":669,"có_thể":670,"ời_":671,"khách":672,"tổ":673,"kể":674,"ột":675,"ia":676,"tỉ":677,"tin":678,"ảo":679,"mẹ":680,"ặn":681,"bạn":682,"cầ":683,"mấy":684,"gọi":685,"tử":686,"thể":687,"nữa":688,"ạnh":689,"ặc":690,"đầu_t":691,"mua":692,"sĩ":693,"tố":694,"ằm":695,"chá":696,"chứ":697,"hộ":698,"tên":699,"ìn":700,"một_":701,"lấy":702,"ám":703,"trở":704,"Những":705,"Mỹ":706,"_c":707,"biển":708,"hay":709,"thủ":710,"am_":711,"mặt":712,"tình_":713,"ngay":714,"phí":715,"phát_":716,"Tu":717,"tháng":718,"nghiệp":719,"ẳng":720,"trường":721,"chính":722,"_giờ":723,"hỏi":724,"ạng":725,"nghề":726,"tiếp":727,"dưới":728,"nghe":729,"Bà":730,"_con":731,"lòng":732,"trẻ":733,"iễ":734,"ét":735,"cuộc":736,"hệ":737,"Có":738,"ần_":739,"huyện":740,"giao":741,"_n":742,"uôi":743,"ọn":744,"thành_":745,"đứa":746,"Lan":747,"khu":748,"Bình":749,"bỏ":750,"nhân":751,"mắt":752,"oại":753,"éo":754,"Chương":755,"_I":756,"óm":757,"thứ":758,"giữa":759,"iểu":760,"_qu":761,"óc":762,"thành":763,"viết":764,"phòng":765,"ướng":766,"dự":767,"hồ":768,"ong_":769,"ạc":770,"10":771,"Một":772,"thời_":773,"phố":774,"uyên":775,"mang":776,"óng":777,"ặng":778,"chồng":779,"điể":780,"hợ":781,"nằm":782,"to":783,"không_":784,"địa_":785,"Sau":786,"_b":787,"cấp":788,"nuôi":789,"tới":790,"ắt_":791,"làng":792,"giá":793,"iều_":794,"uộc_":795,"ái_":796,"ãi":797,"giú":798,"200":799,"Việt":800,"ản":801,"chạy":802,"con_":803,"Trong":804,"ám_tử":805,"Nam":806,"nhỏ":807,"thường":808,"ai_":809,"công":810,"sinh":811,"đủ":812,"ẹp":813,"ợi":814,"nhân_":815,"khoảng":816,"tỉnh":817,"ar":818,"nước_":819,"sao":820,"úi":821,"ắp":822,"khá":823,"công_ty":824,"gái":825,"liên_":826,"nghèo":827,"hoà":828,"sông":829,"đời":830,"đội":831,"Khi":832,"kinh_":833,"vùng":834,"đại_":835,"ảnh":836,"ười_":837,"Không":838,"Nguyễn_":839,"sáng":840,"ánh":841,"ít":842,"điệ":843,"thám_tử":844,"_Ch":845,"ấn_":846,"_RP":847,"trình":848,"phụ":849,"giấy":850,"NP":851,"ụng":852,"chết":853,"20":854,"nhìn":855,"thị":856,"nhà_":857,"_WHNP":858,"thực_":859,"iêng":860,"chính_":861,"_Th":862,"cần":863,"_Ph":864,"gia":865,"điểm":866,"mù":867,"ặt_":868,"chữ":869,"thông_":870,"thật":871,"thêm":872,"bệ":873,"lý":874,"nếu":875,"quê":876,"Các":877,"cuố":878,"du_":879,"hiệ":880,"àn":881,"đường_":882,"điều_":883,"ạp":884,"ậu":885,"ép":886,"ản_":887,"ởi":888,"chu":889,"bắt":890,"cố":891,"đâu":892,"ận_":893,"ức_":894,"trả":895,"gian":896,"iệm":897,"học_":898,"Hà_N":899,"rằng":900,"vô":901,"ơn_":902,"ắc_":903,"thiế":904,"Hà_Nội":905,"tâm":906,"yê":907,"òa":908,"đo":909,"ặc_":910,"iêu":911,"đầu_tiên":912,"bất_":913,"on":914,"ngồi":915,"giúp":916,"ảy":917,"quán":918,"Công_":919,"ký":920,"ấm":921,"_Văn_":922,"tho":923,"Chú":924,"bà_con":925,"iểm_":926,"Tùng":927,"già":928,"tàu":929,"cầu":930,"điện_th":931,"cuộc_":932,"dây":933,"vậy":934,"ăm_":935,"mất":936,"óa":937,"Chị":938,"cứu":939,"âu_chuyện":940,"không_thể":941,"_kh":942,"bắt_":943,"cụ":944,"ài_":945,"n_bộ":946,"Người":947,"chuyể":948,"lập":949,"sát":950,"ập_":951,"_chồng":952,"bốn":953,"_000":954,"kéo":955,"đêm":956,"ấu_":957,"ốc":958,"ốc_":959,"ng_l":960,"ất_cả":961,"_chức":962,"đứng":963,"RP":964,"hầm":965,"lắm":966,"lặn":967,"chân":968,"cáo":969,"uốc":970,"đánh":971,"quyền":972,"_WHRP":973,"loại":974,"ang_":975,"kiế":976,"xa":977,"xin":978,"xem":979,"phía":980,"Từ":981,"Và":982,"lú":983,"mọi":984,"ôi_":985,"điện":986,"nguy":987,"người_":988,"nhớ":989,"thúng":990,"Thu":991,"Phú":992,"thuê":993,"Tuấn":994,"30":995,"cử":996,"mở":997,"suố":998,"vực":999,"áp":1000,"đặt":1001,"ấp_":1002,"ốn":1003,"trung_":1004,"hoặc":1005,"đổ":1006,"ạn_":1007,"thú":1008,"thợ":1009,"khu_":1010,"phần":1011,"nghị":1012,"hình_":1013,"vị":1014,"ộng":1015,"tổ_chức":1016,"_quan":1017,"Chúng_tôi":1018,"hình":1019,"sức":1020,"ửi":1021,"nhờ":1022,"Kim":1023,"ôn_":1024,"điều":1025,"đoàn":1026,"ộc":1027,"hàng_":1028,"đầy":1029,"bản":1030,"tài_":1031,"điện_thoại":1032,"TP":1033,"YM":1034,"kế":1035,"mũ":1036,"xóm":1037,"_SYM":1038,"vợ_chồng":1039,"Hai":1040,"lộ":1041,"ạt_":1042,"ngờ":1043,"thư":1044,"tham_":1045,"vài":1046,"cảnh":1047,"đối_":1048,"Lo":1049,"dùng":1050,"dài":1051,"sách":1052,"thời_gian":1053,"núi":1054,"sinh_":1055,"tế":1056,"đẹp":1057,"chẳng":1058,"cháu":1059,"đà":1060,"ủng_":1061,"hành_":1062,"bài":1063,"lớp":1064,"hiểu":1065,"lá":1066,"ội_":1067,"chỗ":1068,"ây_giờ":1069,"Trung_":1070,"chúng":1071,"chuyển":1072,"15":1073,"cửa":1074,"gửi":1075,"kia":1076,"lư":1077,"lời":1078,"nổ":1079,"tuy":1080,"óng_":1081,"_Ng":1082,"khỏi":1083,"ượt":1084,"iêu_":1085,"buổi":1086,"làm_việc":1087,"luôn":1088,"Tuy":1089,"_động":1090,"kết_":1091,"ruộ":1092,"văn_":1093,"òng_":1094,"thay":1095,"Thanh":1096,"_tục":1097,"thế_":1098,"hợp":1099,"lính":1100,"tư":1101,"Đó":1102,"đúng":1103,"giữ":1104,"quốc_":1105,"Theo":1106,"bàn":1107,"chiến_tr":1108,"quyết_":1109,"một_số":1110,"_M":1111,"_ng":1112,"an_":1113,"bé":1114,"bình_":1115,"bởi":1116,"câu_chuyện":1117,"kỳ":1118,"ính_":1119,"đôi":1120,"ựng":1121,"cát":1122,"Thọ":1123,"Nhiều":1124,"Họ":1125,"căn":1126,"gà":1127,"hạ":1128,"lịch":1129,"tất_cả":1130,"xây":1131,"đọc":1132,"đấu":1133,"_Sơn":1134,"trận":1135,"hành":1136,"Ngh":1137,"xuất_":1138,"cháy":1139,"Nhà":1140,"lao":1141,"vu":1142,"ầu_":1143,"trời":1144,"tui":1145,"quyết":1146,"Cả":1147,"Nếu":1148,"cư":1149,"cười":1150,"miền":1151,"rõ":1152,"ùng_":1153,"đảo":1154,"chợ":1155,"chục":1156,"thanh_":1157,"quay":1158,"quan_":1159,"suốt":1160,"khu_vực":1161,"_cáo":1162,"kiểm_":1163,"niên":1164,"ôm_":1165,"đông":1166,"ngo":1167,"thu_":1168,"phương":1169,"quanh":1170,"đoạn":1171,"càng":1172,"dù":1173,"sâu":1174,"òi":1175,"ăng_":1176,"đào":1177,"chó":1178,"chống":1179,"giám_":1180,"_án":1181,"dẫn":1182,"đặc_":1183,"thương":1184,"Trường":1185,"anh_em":1186,"Nguyễn":1187,"người_ta":1188,"kê":1189,"lâu":1190,"sản_":1191,"thôi":1192,"Thư":1193,"Thái_":1194,"chiến_":1195,"bắt_đầu":1196,"bờ":1197,"câu":1198,"dòng":1199,"so":1200,"sử":1201,"thời":1202,"_hội":1203,"_nhiên":1204,"riêng":1205,"sá":1206,"tận":1207,"tối":1208,"đơn_":1209,"ẩm":1210,"giới":1211,"quân":1212,"cảm_":1213,"trở_":1214,"lúa":1215,"50":1216,"_L":1217,"dịch":1218,"hôm":1219,"lạ":1220,"tác":1221,"xử":1222,"_An":1223,"Thế":1224,"đánh_":1225,"phát_hiện":1226,"Ba":1227,"Năm":1228,"_H":1229,"diện":1230,"dân_":1231,"kẻ":1232,"thuộc":1233,"trò":1234,"khủng_":1235,"uyền":1236,"Công_ty":1237,"cửa_":1238,"Mu":1239,"lã":1240,"trăm":1241,"xuất":1242,"au_":1243,"dạy":1244,"hướng":1245,"om":1246,"rộng":1247,"tâm_":1248,"ánh_":1249,"ĩnh":1250,"ầm_":1251,"ọt":1252,"ngu":1253,"ngôi":1254,"chi":1255,"chờ":1256,"_dựng":1257,"chịu":1258,"đốc":1259,"ha":1260,"kỹ":1261,"nông_":1262,"tập":1263,"ý_":1264,"ầu":1265,"ậm_":1266,"iểu_":1267,"đầu_tư":1268,"thực_hiện":1269,"cuộc_sống":1270,"Xu":1271,"lượng":1272,"mặt_":1273,"ẩu":1274,"chở":1275,"khiến":1276,"phút":1277,"Nhu":1278,"xe_đ":1279,"giải_":1280,"iễn":1281,"bệnh":1282,"12":1283,"Còn":1284,"cầm":1285,"xác_":1286,"ãy":1287,"đấy":1288,"ịp":1289,"ứa":1290,"phục":1291,"Thái":1292,"_thành":1293,"công_việc":1294,"cơ_quan":1295,"nghiệm":1296,"điều_tra":1297,"kiếm":1298,"mũi":1299,"tham_gia":1300,"CP":1301,"Việt_":1302,"bây_giờ":1303,"hồi":1304,"kiện":1305,"kích":1306,"kiến":1307,"mu":1308,"xong":1309,"ầy":1310,"ẩn_":1311,"ủy":1312,"_Par":1313,"thi":1314,"thôn":1315,"ườn":1316,"cán_bộ":1317,"cảm":1318,"cảnh_":1319,"tốt":1320,"mùa":1321,"đàn_":1322,"_Part":1323,"Lúc":1324,"ai_th":1325,"bước":1326,"cà":1327,"cũ":1328,"sản":1329,"tú":1330,"tính":1331,"vật":1332,"vọng":1333,"èn":1334,"Đến":1335,"cha":1336,"triển":1337,"ng_t":1338,"phân_":1339,"giáo":1340,"độc":1341,"địa_đ":1342,"_vậy":1343,"Loan":1344,"quyết_định":1345,"địa_đạo":1346,"Lộc":1347,"Minh":1348,"_Đ":1349,"bí":1350,"mưa":1351,"õi":1352,"ẳng_":1353,"chế":1354,"chung":1355,"_thông":1356,"199":1357,"bao_giờ":1358,"phát_triển":1359,"hợp_":1360,"cuối":1361,"ruộng":1362,"Thái_Lan":1363,"Hòa":1364,"SV":1365,"Vậy":1366,"da":1367,"dễ":1368,"gó":1369,"hóa":1370,"Đây":1371,"đồ":1372,"ẩn":1373,"trang":1374,"i_cùng":1375,"giớ":1376,"u_cầu":1377,"Thị":1378,"Thắng":1379,"_thống":1380,"chiến":1381,"cơm":1382,"trang_":1383,"chiến_tranh":1384,"xây_dựng":1385,"Bộ":1386,"_x":1387,"bình":1388,"biệt":1389,"kiều":1390,"ứng":1391,"chiều":1392,"thăm":1393,"thân_":1394,"uyề":1395,"công_an":1396,"địch":1397,"_dụng":1398,"đáng":1399,"_ho":1400,"hoạt_":1401,"iên_cứu":1402,"_vệ":1403,"196":1404,"trở_thành":1405,"thành_phố":1406,"yêu":1407,"Lào":1408,"mô":1409,"nửa":1410,"tích":1411,"Đà":1412,"Đồng":1413,"ưu":1414,"ải_":1415,"ấm_":1416,"nhiên":1417,"thông":1418,"n_b":1419,"khổ":1420,"khai_th":1421,"chuyến":1422,"hệ_thống":1423,"thị_tr":1424,"bệnh_":1425,"Việt_kiều":1426,"cổ":1427,"er":1428,"hổ":1429,"hiệu":1430,"viện":1431,"xế":1432,"ảng_":1433,"ậm":1434,"phong_":1435,"quen":1436,"ay_Th":1437,"nghỉ":1438,"đóng":1439,"_tịch":1440,"Pháp":1441,"tuần":1442,"n_lý":1443,"nghĩa":1444,"chứng_":1445,"tiếp_tục":1446,"hiện_":1447,"thoát":1448,"Muay_Th":1449,"nguồn":1450,"Gòn":1451,"Lê":1452,"Sài_":1453,"al":1454,"cơn":1455,"cắt":1456,"liền":1457,"may":1458,"nổi":1459,"tình":1460,"toà":1461,"ạc_":1462,"chất":1463,"thương_":1464,"trách":1465,"trạm":1466,"iểm":1467,"Ngày":1468,"_nhiệm":1469,"quản_lý":1470,"ấn_đề":1471,"ôm_nay":1472,"sử_dụng":1473,"hoạt_động":1474,"Muay_Thái":1475,"Sài_Gòn":1476,"Bắc":1477,"Hồ":1478,"ND":1479,"_T":1480,"bè":1481,"bám":1482,"dám":1483,"il":1484,"liệt_":1485,"miệ":1486,"oa":1487,"sợ":1488,"àm":1489,"đơn":1490,"ẫy":1491,"ối_":1492,"ừa_":1493,"ngã":1494,"chừng":1495,"trồng":1496,"công_tác":1497,"thông_tin":1498,"_khăn":1499,"khai_thác":1500,"gây":1501,"mãi":1502,"nặng":1503,"võ":1504,"vốn":1505,"òa_":1506,"ến_":1507,"ộng_":1508,"ục_":1509,"nhanh":1510,"chất_":1511,"chọn":1512,"khí":1513,"phương_":1514,"qui_":1515,"nghiên_cứu":1516,"xe_":1517,"chiếm":1518,"_mặt":1519,"_sở":1520,"_nhiêu":1521,"ghe":1522,"giao_thông":1523,"nguyên_":1524,"Tuy_nhiên":1525,"lao_động":1526,"giám_đốc":1527,"khủng_bố":1528,"xe_đạp":1529,"25":1530,"Mỗi":1531,"km":1532,"mạnh":1533,"ti":1534,"tinh_":1535,"tôm":1536,"uổi":1537,"vườn":1538,"Đông":1539,"đập":1540,"đen":1541,"ưu_":1542,"ạm_":1543,"ỉnh":1544,"ụi":1545,"ựa":1546,"ngàn":1547,"nhập":1548,"thả":1549,"thẳng":1550,"trai":1551,"uốc_":1552,"pháp":1553,"khó_khăn":1554,"iễm":1555,"dự_án":1556,"địa_chỉ":1557,"_hoạch":1558,"miệng":1559,"Hồng":1560,"Rồi":1561,"Tư":1562,"Vì":1563,"_độ":1564,"biên_":1565,"hùng":1566,"niề":1567,"tương_":1568,"ín":1569,"ót":1570,"đỏ":1571,"đỡ":1572,"đấu_":1573,"_Văn":1574,"chăm_":1575,"tranh":1576,"quan":1577,"độc_":1578,"_dõi":1579,"_đổi":1580,"197":1581,"thủy":1582,"nước_ngoài":1583,"trung_tâm":1584,"thanh_niên":1585,"quan_hệ":1586,"ậm_chí":1587,"liệt_sĩ":1588,"Bình_":1589,"Hu":1590,"Tiế":1591,"di_":1592,"kg":1593,"lũ":1594,"lễ":1595,"tiêu_":1596,"uật":1597,"vi":1598,"vận_":1599,"vượt":1600,"ùi":1601,"Đị":1602,"đổi":1603,"ớm":1604,"nhóm":1605,"chia":1606,"trưởng":1607,"phạm":1608,"iện_":1609,"có_mặt":1610,"Thành":1611,"Chỉ":1612,"tiếp_":1613,"theo_dõi":1614,"ban_":1615,"_phê":1616,"_phạm":1617,"bảo_vệ":1618,"hội_":1619,"hàng_xóm":1620,"sản_xuất":1621,"mua_":1622,"Long":1623,"Nó":1624,"_Z":1625,"_là":1626,"bồ":1627,"diễn":1628,"ma_":1629,"nỗi":1630,"tăng":1631,"tấm":1632,"vòng":1633,"vấn_đề":1634,"đất_":1635,"ồm":1636,"chắc":1637,"khả":1638,"quân_":1639,"_thế":1640,"_thị":1641,"Trước":1642,"_lý":1643,"ương_trình":1644,"chuyên_":1645,"n_toàn":1646,"đối_với":1647,"vui":1648,"đàn_ông":1649,"Vy":1650,"Với":1651,"_r":1652,"ca":1653,"dung":1654,"kỷ":1655,"sắt":1656,"tù":1657,"tạo":1658,"tập_":1659,"xảy":1660,"ĐL":1661,"đạo":1662,"ngủ":1663,"chương_trình":1664,"thức":1665,"Thanh_":1666,"bảy":1667,"bao_nhiêu":1668,"doanh":1669,"tổng_":1670,"chính_quyền":1671,"vô_":1672,"đơn_vị":1673,"cà_phê":1674,"trách_nhiệm":1675,"niềm":1676,"100":1677,"BND":1678,"UBND":1679,"_em":1680,"bọn":1681,"cam":1682,"dần":1683,"dụng":1684,"gạo":1685,"hi_":1686,"hôm_nay":1687,"liệu":1688,"mời":1689,"mối":1690,"vật_":1691,"vùng_":1692,"xanh":1693,"ìm_":1694,"óa_":1695,"chơi":1696,"thở":1697,"thằng":1698,"trường_":1699,"khai":1700,"khắp":1701,"phẩm":1702,"giọng":1703,"coi":1704,"nói_":1705,"_lời":1706,"bản_":1707,"_hiểm":1708,"anh_hùng":1709,"_mạng":1710,"i_thiệu":1711,"địa_phương":1712,"du_kích":1713,"thiếu":1714,"giới_thiệu":1715,"Cường":1716,"Lần":1717,"Quốc":1718,"Sinh":1719,"Tổ":1720,"_U":1721,"_g":1722,"_nghiệp":1723,"cung_":1724,"gốc":1725,"mê":1726,"toàn":1727,"tác_":1728,"yếu":1729,"ão":1730,"ãng":1731,"đòi":1732,"ầng":1733,"ẩy":1734,"_Nh":1735,"_Nam":1736,"chấp_":1737,"ng_ta":1738,"iệm_":1739,"màu":1740,"_do":1741,"đề_":1742,"xã_hội":1743,"đồng_chí":1744,"buồn":1745,"2004":1746,"nhân_viên":1747,"kinh_doanh":1748,"thiết_":1749,"kế_hoạch":1750,"nổi_":1751,"thế_nào":1752,"Cũng":1753,"Hai_":1754,"bày":1755,"tòa":1756,"xuyên":1757,"ón":1758,"Đào":1759,"Đức":1760,"đạn":1761,"ngõ":1762,"ngành":1763,"thường_":1764,"trái":1765,"khuy":1766,"vàng":1767,"nghệ":1768,"công_trình":1769,"đại_học":1770,"cuối_cùng":1771,"chuẩn_":1772,"tuyến":1773,"túy":1774,"11":1775,"500":1776,"Con":1777,"Em":1778,"Hoà":1779,"Toàn":1780,"_mà":1781,"cỏ":1782,"im_":1783,"minh":1784,"sẵ":1785,"tục":1786,"vai":1787,"xác":1788,"đau":1789,"đau_":1790,"ậu_":1791,"ẹn":1792,"ống_":1793,"ồn_":1794,"ớt":1795,"ứt":1796,"ừng_":1797,"thử":1798,"thang":1799,"thân":1800,"thuốc":1801,"trại":1802,"cá_độ":1803,"hào":1804,"Trà":1805,"động_":1806,"_tạo":1807,"công_nhân":1808,"khoan":1809,"_sư":1810,"hoàn_":1811,"trả_lời":1812,"đặc_biệt":1813,"ma_túy":1814,"_UCP":1815,"bóng":1816,"hơi":1817,"hội":1818,"kết":1819,"mặc":1820,"môi_":1821,"nạn":1822,"nạn_":1823,"oi":1824,"rút":1825,"ùa":1826,"Đồng_":1827,"đem":1828,"ặng_":1829,"ọc_":1830,"thuốc_":1831,"_Dương":1832,"trắng":1833,"đón":1834,"Trần_":1835,"xe_t":1836,"_lẽ":1837,"_triệu":1838,"_trưởng":1839,"máy_":1840,"cơ_sở":1841,"làm_ăn":1842,"thủ_phạm":1843,"_nữ":1844,"con_người":1845,"bình_thường":1846,"nông_dân":1847,"iệm_vụ":1848,"nạn_nhân":1849,"Kỳ":1850,"buộc":1851,"bắc":1852,"dành":1853,"kịp":1854,"lâm_":1855,"mực":1856,"sớm":1857,"uận":1858,"vẻ":1859,"xứ":1860,"trọ":1861,"trào":1862,"phủ":1863,"gió":1864,"giống":1865,"c_vụ":1866,"Thành_":1867,"Trên":1868,"tiến_":1869,"ác_sĩ":1870,"luận":1871,"_năng":1872,"Nguyễn_Văn_":1873,"lãnh_":1874,"đề_nghị":1875,"18":1876,"Cô":1877,"Cái":1878,"HI":1879,"Hôm":1880,"Tân_":1881,"Võ":1882,"bù":1883,"bay":1884,"bữa":1885,"duy":1886,"danh":1887,"da_":1888,"dừng":1889,"gỗ":1890,"heo":1891,"lặng":1892,"mơ":1893,"mảnh":1894,"nữ":1895,"nối":1896,"nét":1897,"ra_":1898,"suy":1899,"sắp":1900,"tìm_":1901,"áu":1902,"âng":1903,"ùm":1904,"Đi":1905,"ởi_":1906,"thật_":1907,"khỏ":1908,"khẳng_":1909,"phản_":1910,"Như":1911,"iển_":1912,"Phạm":1913,"_mai":1914,"ạch_":1915,"báo_cáo":1916,"kinh_tế":1917,"phụ_nữ":1918,"_Phước":1919,"du_lịch":1920,"học_sinh":1921,"yêu_cầu":1922,"ngoại_":1923,"sáu":1924,"Xuân_":1925,"cảnh_sát":1926,"trường_hợp":1927,"cung_cấp":1928,"chuẩn_bị":1929,"HIV":1930,"16":1931,"Tây":1932,"biến":1933,"bóng_":1934,"cất":1935,"dâm":1936,"hằng":1937,"ke":1938,"kar":1939,"mạng":1940,"sắc":1941,"én":1942,"úc_":1943,"Điều":1944,"ĩnh_":1945,"ằn":1946,"ẳn":1947,"ốt":1948,"ữu":1949,"ngư":1950,"nhất_":1951,"nhắc":1952,"thần":1953,"trợ":1954,"giày":1955,"iếu":1956,"quên":1957,"cánh":1958,"iền_":1959,"ươi":1960,"Chính":1961,"bàn_":1962,"tiến":1963,"quan_tr":1964,"phát":1965,"hoạch":1966,"_sinh":1967,"khóc":1968,"Quảng":1969,"liên_quan":1970,"điều_kiện":1971,"bất_ngờ":1972,"Nhà_":1973,"kiểm_tra":1974,"kêu":1975,"xử_lý":1976,"chia_":1977,"thị_trấn":1978,"toàn_bộ":1979,"khỏe":1980,"khẳng_định":1981,"40":1982,"Nam_":1983,"bạn_":1984,"cạnh":1985,"kiểu":1986,"lâm":1987,"mất_":1988,"mức":1989,"năng":1990,"sóng":1991,"tí":1992,"uất":1993,"ốm":1994,"ổi_":1995,"ợt":1996,"_Nai":1997,"nhiễm":1998,"nhiệm_vụ":1999,"chặt":2000,"thơ":2001,"thất_":2002,"n_ng":2003,"khẩu":2004,"phúc":2005,"iệc":2006,"nghiê":2007,"Chính_":2008,"Trần":2009,"Nhật":2010,"chúng_ta":2011,"máu":2012,"khoản":2013,"_mẹ":2014,"nghĩa_":2015,"cầu_":2016,"tình_hình":2017,"nước_mắt":2018,"nhà_hàng":2019,"thay_đổi":2020,"Đồng_Nai":2021,"khả_năng":2022,"nổi_tiếng":2023,"quan_trọng":2024,"CN":2025,"Cứ":2026,"Cuộc_":2027,"DN":2028,"Hơn":2029,"_hàng":2030,"ban":2031,"bụi":2032,"cực":2033,"danh_":2034,"hương":2035,"lệ":2036,"lưng":2037,"liệt":2038,"sơ":2039,"sổ":2040,"tờ":2041,"un":2042,"ven":2043,"ém":2044,"Đã":2045,"đi_":2046,"đòn":2047,"ắp_":2048,"ữu_":2049,"_NumX":2050,"thuyền":2051,"thậm_chí":2052,"trí":2053,"trực_":2054,"phần_":2055,"phóng":2056,"giấu":2057,"nh_phúc":2058,"ượng_":2059,"c_làm":2060,"_thật":2061,"đói":2062,"Ngay":2063,"chút":2064,"chiếu":2065,"_dâu":2066,"việc_làm":2067,"đám":2068,"_sử":2069,"cách_mạng":2070,"tài":2071,"đối_t":2072,"Giá":2073,"ghi":2074,"nhân_dân":2075,"phục_vụ":2076,"sinh_viên":2077,"Trung_tâm":2078,"xuất_hiện":2079,"trở_lại":2080,"hợp_đồng":2081,"da_cam":2082,"17":2083,"DP":2084,"Qua":2085,"Tám_":2086,"ax":2087,"bo":2088,"băng":2089,"căn_":2090,"dữ":2091,"dậy":2092,"dọc":2093,"hút":2094,"hầu_":2095,"lợ":2096,"lai":2097,"lạnh":2098,"ma":2099,"mã":2100,"sư":2101,"sóc":2102,"tiểu_":2103,"vay":2104,"văn":2105,"yên_":2106,"èm":2107,"Để":2108,"ẩm_":2109,"ẫu":2110,"ớn":2111,"ỳnh_":2112,"_Vân":2113,"chi_":2114,"thi_":2115,"trước_":2116,"truyề":2117,"phòng_":2118,"giỏi":2119,"uối":2120,"_thư":2121,"_tưởng":2122,"ame":2123,"amp":2124,"bộ_":2125,"_vụ":2126,"_phận":2127,"âm_th":2128,"n_lợi":2129,"Tum":2130,"lưới":2131,"hạnh_phúc":2132,"Nghe":2133,"góp":2134,"phong_trào":2135,"chấp_nhận":2136,"hoàn_cảnh":2137,"Ai":2138,"Cách":2139,"Hằng":2140,"Học":2141,"Hoa":2142,"LĐ":2143,"Linh":2144,"Na":2145,"Nong_":2146,"_nghĩ":2147,"bật":2148,"bạc":2149,"cú":2150,"cống":2151,"dãy":2152,"huy":2153,"lạc":2154,"nội_":2155,"tỏ":2156,"tính_":2157,"Đêm":2158,"Đảng":2159,"ĩa":2160,"ọa":2161,"nguyên":2162,"nhẹ":2163,"chim":2164,"trụ":2165,"trôi":2166,"trạng":2167,"tránh":2168,"khô":2169,"phỉ":2170,"phường":2171,"phép":2172,"iện_t":2173,"quí":2174,"quần_":2175,"nghi_":2176,"_thuật":2177,"_tờ":2178,"_tập":2179,"Khu":2180,"_dài":2181,"đáy":2182,"_mật":2183,"_sơ":2184,"cô_dâu":2185,"chủ_tịch":2186,"Gia_":2187,"i_tính":2188,"liên_tục":2189,"Nguyễn_Thị":2190,"giấy_tờ":2191,"thịt":2192,"thiếu_":2193,"văn_phòng":2194,"_MDP":2195,"lịch_sử":2196,"Nong_Tum":2197,"Anh_":2198,"HC":2199,"Liên":2200,"Mai":2201,"Mấy":2202,"SD":2203,"USD":2204,"bổ":2205,"bãi":2206,"bão":2207,"cuốn":2208,"cậu":2209,"dị":2210,"fax":2211,"gom":2212,"gồm":2213,"hiế":2214,"hưởng":2215,"hắn":2216,"hòa_":2217,"hẳn":2218,"lở":2219,"mười":2220,"món":2221,"tô":2222,"tuyệ":2223,"tạm":2224,"tội_":2225,"xung_":2226,"áp_":2227,"đặt_":2228,"đèn":2229,"ẫm":2230,"trọng":2231,"phó":2232,"giác":2233,"Chủ":2234,"_tức":2235,"địa":2236,"pháp_":2237,"quy_tập":2238,"đồng_đội":2239,"buôn_":2240,"Giang":2241,"kinh_nghiệm":2242,"đại_diện":2243,"cuộc_đời":2244,"dịch_vụ":2245,"tâm_sự":2246,"giải_quyết":2247,"xác_định":2248,"bệnh_viện":2249,"đấu_tranh":2250,"chăm_sóc":2251,"nói_chuyện":2252,"đối_tượng":2253,"Fw":2254,"Hồi":2255,"Là":2256,"PP":2257,"Sự":2258,"Tại":2259,"Vừa":2260,"Việc":2261,"_Fw":2262,"bế":2263,"biế":2264,"bánh_":2265,"bác_sĩ":2266,"cờ":2267,"dứt":2268,"hết_":2269,"it":2270,"la":2271,"ly":2272,"lên_":2273,"mồ":2274,"nợ":2275,"sạch":2276,"sức_":2277,"tiện":2278,"tội":2279,"tấn":2280,"tầng":2281,"vấn":2282,"xá":2283,"án_":2284,"áng_":2285,"Đỗi":2286,"Đoàn":2287,"đe":2288,"đô":2289,"đèo":2290,"đạt":2291,"đợt":2292,"ấc":2293,"ắm_":2294,"ẵng":2295,"ngụ":2296,"nguyện":2297,"nhanh_":2298,"thúc":2299,"thầy":2300,"trông":2301,"trao":2302,"trưa":2303,"nghi":2304,"_tính":2305,"Phải":2306,"hoa":2307,"_vấn":2308,"bố_mẹ":2309,"_WHPP":2310,"ưởng_":2311,"198":2312,"cơ_hội":2313,"dưỡ":2314,"cây_":2315,"luật":2316,"ghi_":2317,"dựng":2318,"con_gái":2319,"hoàn_th":2320,"đường_dây":2321,"hình_ảnh":2322,"tài_xế":2323,"lưu_":2324,"tuyên_":2325,"cửa_hàng":2326,"trang_trại":2327,"hiện_nay":2328,"nghiêm_":2329,"trực_tiếp":2330,"buôn_bán":2331,"Bây_giờ":2332,"Câu_chuyện":2333,"Hiền":2334,"Hạnh":2335,"Vinh":2336,"_việc":2337,"biểu_":2338,"dày":2339,"hạt":2340,"hóa_":2341,"lẫn":2342,"lực":2343,"mì":2344,"mặn":2345,"nam":2346,"nặng_":2347,"rơi":2348,"sới":2349,"sân":2350,"sửa":2351,"tết":2352,"xi":2353,"xưa":2354,"òi_":2355,"đại":2356,"ưa_":2357,"ắng_":2358,"ị_":2359,"ngoại":2360,"chữa":2361,"chắn":2362,"chặn":2363,"chảy":2364,"thừa_":2365,"trung":2366,"tràm":2367,"n_r":2368,"vành":2369,"giật":2370,"bào":2371,"Nghệ":2372,"ngày_mai":2373,"_huy":2374,"chị_em":2375,"khoai":2376,"_trương":2377,"hoang_":2378,"a_đời":2379,"máy_b":2380,"n_thức":2381,"_nhất":2382,"chủ_":2383,"_phủ":2384,"đồng_hồ":2385,"Hàng":2386,"chuyên":2387,"Hải_Vân":2388,"ật_ký":2389,"một_cách":2390,"_càng":2391,"hồ_sơ":2392,"thời_điểm":2393,"giúp_":2394,"chính_sách":2395,"thông_báo":2396,"quốc_lộ":2397,"nguyên_nhân":2398,"tương_lai":2399,"di_động":2400,"đất_nước":2401,"môi_trường":2402,"lãnh_đạo":2403,"duy_nhất":2404,"suy_nghĩ":2405,"Nhà_nước":2406,"iện_tích":2407,"tuyệt_":2408,"2_":2409,"GT":2410,"Hội":2411,"Lâm_":2412,"TB":2413,"_Tr":2414,"bắn":2415,"biệt_":2416,"eb":2417,"hỏ":2418,"hại":2419,"hòn":2420,"hậu_":2421,"hẹn":2422,"lửa":2423,"mày":2424,"mồi":2425,"mừng":2426,"nề":2427,"nộ":2428,"rượ":2429,"rời":2430,"suất":2431,"túi":2432,"tộc":2433,"vẽ":2434,"xé":2435,"xa_":2436,"Đại_":2437,"Đài_":2438,"đeo":2439,"đành":2440,"đài":2441,"đỉnh":2442,"ơm":2443,"_Nẵng":2444,"nhằm":2445,"nhật_ký":2446,"chân_":2447,"trình_":2448,"tranh_":2449,"phóng_":2450,"nh_m":2451,"a_mẹ":2452,"iêm":2453,"nóng":2454,"ngày_càng":2455,"_luận":2456,"Kho":2457,"_dục":2458,"mát":2459,"_trí":2460,"_trợ":2461,"_trình":2462,"chủ_trương":2463,"buôn":2464,"làm_sao":2465,"chứng":2466,"iễu":2467,"Bình_Dương":2468,"2003":2469,"hoàn_toàn":2470,"chui":2471,"_khí":2472,"chiến_trường":2473,"chiến_sĩ":2474,"Xuân":2475,"Đà_Nẵng":2476,"xe_máy":2477,"mua_bán":2478,"vùng_đất":2479,"xe_tải":2480,"tìm_hiểu":2481,"đi_lại":2482,"bộ_đội":2483,"hết_sức":2484,"Nghệ_An":2485,"13":2486,"1_":2487,"Bảo":2488,"CS":2489,"HĐ":2490,"Hóa":2491,"Lâm":2492,"Mình":2493,"Mal":2494,"NN":2495,"Ni":2496,"Riêng":2497,"_chiếu":2498,"ak":2499,"bác":2500,"cận":2501,"cộng_":2502,"dao":2503,"diện_tích":2504,"hỗ":2505,"hứa":2506,"kèm":2507,"lặ":2508,"luyện":2509,"nắm":2510,"sở":2511,"súng":2512,"vũ":2513,"vết":2514,"vội":2515,"xúc":2516,"át_":2517,"ía":2518,"ôtô":2519,"Đại":2520,"đê":2521,"đả":2522,"đợi":2523,"đạp":2524,"đuổi":2525,"ần_l":2526,"ẹng":2527,"ỉnh_":2528,"ột_":2529,"ỡi":2530,"ngập":2531,"nhậu":2532,"che":2533,"chìm":2534,"chắc_":2535,"thấp":2536,"thích":2537,"_Du":2538,"tròn":2539,"trái_":2540,"khởi_":2541,"giải":2542,"que":2543,"Thủ":2544,"ong_Ch":2545,"aoke":2546,"_thủ":2547,"Trẻ":2548,"số_l":2549,"Không_":2550,"_mắn":2551,"_vẻ":2552,"_nhân":2553,"giảm":2554,"n_tượng":2555,"tình_cảm":2556,"địa_bàn":2557,"học_trò":2558,"Loong_Ch":2559,"hành_chính":2560,"Trung_Quốc":2561,"kết_luận":2562,"kết_thúc":2563,"bí_mật":2564,"xếp":2565,"chứng_kiến":2566,"may_mắn":2567,"chất_độc":2568,"tinh_thần":2569,"vận_động":2570,"Địa":2571,"tập_trung":2572,"thiết_kế":2573,"Hai_Địa":2574,"thường_xuyên":2575,"karaoke":2576,"Cuộc_đời":2577,"máy_bay":2578,"CSGT":2579,"Loong_Chẹng":2580,"24":2581,"60":2582,"Củ":2583,"Cuộc":2584,"Do":2585,"Dân":2586,"Huy":2587,"Hương":2588,"Lu":2589,"Mười":2590,"Nông_":2591,"Năm_":2592,"Sáng":2593,"Tất_cả":2594,"Vợ":2595,"_bản":2596,"bỗ":2597,"cột":2598,"dã":2599,"gấp":2600,"hu":2601,"hang":2602,"hát":2603,"lẽ":2604,"lâu_":2605,"môn":2606,"nậu":2607,"re":2608,"rẻ":2609,"rẫy":2610,"sẻ":2611,"sia":2612,"tá":2613,"tịch":2614,"tướng":2615,"tặng":2616,"tiêu":2617,"tươi":2618,"vỡ":2619,"xo":2620,"xương":2621,"xách":2622,"áy":2623,"đừng":2624,"đối":2625,"đẩy":2626,"ưng_":2627,"ệt":2628,"ợp":2629,"ủi":2630,"ngữ":2631,"ngược":2632,"chức":2633,"chấm_":2634,"thua":2635,"triệu":2636,"khai_":2637,"khắc_":2638,"phù":2639,"quận":2640,"Thứ":2641,"aysia":2642,"a_học":2643,"ướng_":2644,"com":2645,"họp":2646,"Cho":2647,"bàng":2648,"_tế":2649,"_tắc":2650,"Nhi":2651,"Nhìn":2652,"chỉ_huy":2653,"_lực":2654,"_hình":2655,"_hương":2656,"Phong":2657,"_sĩ":2658,"quyề":2659,"tai_":2660,"ương_mặt":2661,"195":2662,"đồng_ý":2663,"đầu_nậu":2664,"n_tâm":2665,"khách_hàng":2666,"chức_":2667,"hộ_chiếu":2668,"thủ_tục":2669,"tình_trạng":2670,"thành_viên":2671,"liên_hệ":2672,"hiệu_":2673,"yêu_":2674,"thoảng":2675,"mở_":2676,"hình_thành":2677,"_Ngọc_":2678,"kết_quả":2679,"thế_giới":2680,"sản_phẩm":2681,"ý_kiến":2682,"xác_nhận":2683,"CPC":2684,"hi_sinh":2685,"Hoàng":2686,"sẵn":2687,"thật_sự":2688,"nhất_là":2689,"bàn_tay":2690,"bạn_bè":2691,"phần_lớn":2692,"âm_thầm":2693,"rượu":2694,"Malaysia":2695,"chấm_dứt":2696,"70":2697,"Bên":2698,"Ba_":2699,"Bạch":2700,"Camp":2701,"Gần":2702,"Liễu":2703,"Rạch_":2704,"Tân":2705,"_ý":2706,"_nhà":2707,"_định":2708,"bú":2709,"binh":2710,"cò":2711,"cặp":2712,"cộng":2713,"ga":2714,"góc":2715,"gương_mặt":2716,"hề":2717,"hồn":2718,"hãng":2719,"ing":2720,"ko":2721,"kẽ":2722,"kín":2723,"lô":2724,"lấp":2725,"lắc_":2726,"lang_":2727,"m2":2728,"mong":2729,"mẫu":2730,"oại_":2731,"rắn":2732,"sợi":2733,"sau_":2734,"tám":2735,"tấn_":2736,"tận_":2737,"tầm_":2738,"uchia":2739,"vỏ":2740,"web":2741,"xét":2742,"ìa":2743,"ít_":2744,"ĐH":2745,"ĐT":2746,"ảnh_":2747,"ằng_":2748,"ẹo":2749,"ộn":2750,"ụp":2751,"ựu_":2752,"_Ninh":2753,"ngang":2754,"ngân_":2755,"ngạc_":2756,"chào":2757,"cheo":2758,"chóng":2759,"cha_mẹ":2760,"thuy":2761,"thắng":2762,"thượng_":2763,"khiế":2764,"khơi":2765,"phong":2766,"iếng":2767,"uy_t":2768,"Thấy":2769,"Thương":2770,"a_h":2771,"uốt":2772,"hàn":2773,"Chuyện":2774,"đồng_thời":2775,"Hà_T":2776,"Già":2777,"i_thích":2778,"giải_thích":2779,"ực_lượng":2780,"Quảng_":2781,"một_mình":2782,"iễn_":2783,"Có_lẽ":2784,"_niệm":2785,"toán":2786,"thực_tế":2787,"đường_bộ":2788,"nguy_hiểm":2789,"văn_hóa":2790,"chợt":2791,"trở_nên":2792,"_Lạt":2793,"dân_tộc":2794,"kỹ_sư":2795,"bí_thư":2796,"Đà_Lạt":2797,"thị_trường":2798,"phương_án":2799,"tin_":2800,"ban_đầu":2801,"nội_dung":2802,"HCM":2803,"ite":2804,"nhanh_chóng":2805,"cây_số":2806,"hoàn_thành":2807,"đảm_":2808,"Campuchia":2809,"ngạc_nhiên":2810,"14":2811,"22":2812,"300":2813,"Bu":2814,"Bởi":2815,"Bến_":2816,"Công":2817,"HS":2818,"Kiên_":2819,"NT":2820,"Về":2821,"_cả":2822,"at":2823,"dấu":2824,"dấu_":2825,"gỡ":2826,"kiên_":2827,"kịch":2828,"kính":2829,"kèo":2830,"kém":2831,"lương":2832,"lối":2833,"lợi":2834,"lọt":2835,"mòn":2836,"mục_":2837,"nắng":2838,"rủ":2839,"siêu_":2840,"tiề":2841,"tai":2842,"tất_":2843,"tật":2844,"tắm":2845,"vả":2846,"vi_":2847,"vách":2848,"vớt":2849,"xó":2850,"yên":2851,"ín_":2852,"ù_l":2853,"Đường":2854,"đè":2855,"đan":2856,"đích":2857,"ơi_":2858,"ẹt":2859,"ổn_":2860,"ới_":2861,"ngọn":2862,"nhận_":2863,"nhảy":2864,"nhu_cầu":2865,"chén":2866,"tre":2867,"trải":2868,"iệp":2869,"_thao":2870,"_thức":2871,"Trung":2872,"đột_":2873,"oài_":2874,"nóc":2875,"đầm":2876,"uyệt":2877,"ất_vả":2878,"mái":2879,"Phương":2880,"tung":2881,"khoa":2882,"_sạn":2883,"máy_tính":2884,"n_thân":2885,"Hàng_":2886,"khóa":2887,"ghé":2888,"ghế":2889,"tự_t":2890,"Quỳnh_":2891,"tốt_":2892,"tình_thương":2893,"Tuổi_":2894,"thành_công":2895,"hoàng":2896,"du_học":2897,"cốt":2898,"ruột":2899,"chiến_đấu":2900,"độc_lập":2901,"Nói":2902,"hi_vọng":2903,"bùn":2904,"lợi_":2905,"chủ_yếu":2906,"cộng_đồng":2907,"hỗ_trợ":2908,"vũ_khí":2909,"ỉnh_thoảng":2910,"chắc_chắn":2911,"số_lượng":2912,"Bạch_Đ":2913,"lang_thang":2914,"tấn_công":2915,"ổn_định":2916,"Tuổi_Trẻ":2917,"27":2918,"80":2919,"Bang":2920,"Duy":2921,"Lý":2922,"Mà":2923,"Mọi":2924,"NV":2925,"Nơi":2926,"Tám":2927,"Tánh_":2928,"_còn":2929,"_xã":2930,"dò":2931,"dâu":2932,"hẹp":2933,"lực_lượng":2934,"mạ":2935,"mề":2936,"mét":2937,"mưu_":2938,"ni":2939,"nền":2940,"nấu":2941,"ru":2942,"rách":2943,"tức_":2944,"ur":2945,"vã":2946,"vắng":2947,"vất_vả":2948,"xóa":2949,"ùy":2950,"Đang":2951,"ảm":2952,"ặp_":2953,"ụt":2954,"_Vinh":2955,"nhiệt_":2956,"chai":2957,"thái_":2958,"trà":2959,"trú":2960,"trừ":2961,"trốn":2962,"trùm":2963,"n_n":2964,"pha":2965,"gia_":2966,"qua_":2967,"Thời_":2968,"ông_bà":2969,"_thân":2970,"hài_":2971,"mà_còn":2972,"bị_cáo":2973,"tiếc":2974,"định_":2975,"xem_":2976,"_liệu":2977,"_lắng":2978,"_hiện":2979,"quan_tâm":2980,"loạt":2981,"lo_lắng":2982,"đồng_nghiệp":2983,"đốt":2984,"đối_th":2985,"dư_luận":2986,"n_trưởng":2987,"tự_do":2988,"khách_sạn":2989,"thể_thao":2990,"thể_hiện":2991,"tình_nguyện":2992,"thành_lập":2993,"con_cháu":2994,"liên_lạc":2995,"_Chi":2996,"_Chí":2997,"nhà_nước":2998,"lý_do":2999,"hiệp":3000,"vậy_mà":3001,"cụ_thể":3002,"ng_lẽ":3003,"Phú_":3004,"suối":3005,"tư_vấn":3006,"quốc_tế":3007,"quốc_tịch":3008,"kiểm_so":3009,"thu_hoạch":3010,"Trường_Sơn":3011,"Thế_là":3012,"tập_thể":3013,"chế_tạo":3014,"biên_giới":3015,"Tiến_":3016,"quân_đội":3017,"tùy":3018,"vô_cùng":3019,"ngư_phủ":3020,"chia_sẻ":3021,"Chính_phủ":3022,"xung_quanh":3023,"thừa_nhận":3024,"giúp_đỡ":3025,"ần_lượt":3026,"Củ_Chi":3027,"lắc_đầu":3028,"đảm_bảo":3029,"vi_phạm":3030,"Bạch_Đằng":3031,"Tánh_Linh":3032,"kiểm_soát":3033,"Ban":3034,"Bằng":3035,"Cuố":3036,"Dù":3037,"Dan":3038,"Hưng_":3039,"Kiểm_":3040,"Lã":3041,"Sáu":3042,"Tài_":3043,"Xốm":3044,"_chuyện":3045,"_làng":3046,"_quyết":3047,"an_toàn":3048,"bò":3049,"bề":3050,"bấy":3051,"bút":3052,"biểu":3053,"cồn":3054,"di":3055,"dông":3056,"dặn":3057,"dịp":3058,"he":3059,"lái":3060,"lấn_":3061,"lần_lượt":3062,"mưu":3063,"no":3064,"rẽ":3065,"rửa":3066,"ra_đời":3067,"say":3068,"sai":3069,"sang_":3070,"sót":3071,"site":3072,"tượng":3073,"tạp":3074,"tạm_":3075,"xy":3076,"xưởng":3077,"à_l":3078,"Được":3079,"Đức_":3080,"đậm":3081,"ũng_":3082,"ển":3083,"ệnh_":3084,"_Sang":3085,"ngườ":3086,"ngăn_":3087,"chi_t":3088,"thỏ":3089,"tháo":3090,"trực":3091,"n_s":3092,"phận":3093,"phức_":3094,"giế":3095,"Thật":3096,"con_tr":3097,"ana":3098,"Tre":3099,"ngày_đ":3100,"p_học":3101,"công_nghiệp":3102,"uộn":3103,"_danh":3104,"_dọa":3105,"_hệ":3106,"khoa_học":3107,"_trách":3108,"_móc":3109,"sự_nghiệp":3110,"_phép":3111,"buồng":3112,"bảo_hiểm":3113,"giản":3114,"doanh_":3115,"xuân":3116,"giao_l":3117,"nhân_vật":3118,"Nguyễn_Thanh_":3119,"_Châu":3120,"phụ_trách":3121,"thị_xã":3122,"chính_xác":3123,"quê_hương":3124,"đường_phố":3125,"chuyển_":3126,"kéo_dài":3127,"kiến_thức":3128,"đổi_":3129,"tài_sản":3130,"vui_":3131,"cưới":3132,"lão":3133,"nông_thôn":3134,"phân_tích":3135,"Minh_Sang":3136,"mô_hình":3137,"hiện_đại":3138,"chất_lượng":3139,"thủy_thủ":3140,"kỷ_niệm":3141,"Tổng_":3142,"Như_vậy":3143,"căn_cứ":3144,"chi_phí":3145,"thi_công":3146,"truyền_th":3147,"Anh_em":3148,"tội_phạm":3149,"đe_dọa":3150,"nặng_nề":3151,"Đài_Loan":3152,"tai_nạn":3153,"mở_rộng":3154,"kok":3155,"sau_này":3156,"ảnh_hưởng":3157,"siêu_thị":3158,"ù_lao":3159,"Bangkok":3160,"thái_độ":3161,"đối_thủ":3162,"Cuối_cùng":3163,"Dankia":3164,"phức_tạp":3165,"con_trai":3166,"23":3167,"2000":3168,"45":3169,"An":3170,"Hào":3171,"Hưng":3172,"Hữu":3173,"Kim_":3174,"Mới":3175,"Mặt_":3176,"Nay":3177,"On":3178,"Rơ":3179,"Vào":3180,"Viện":3181,"Văn_":3182,"Vàng":3183,"Xin":3184,"bê":3185,"bẫy":3186,"ck":3187,"dạ":3188,"dọn":3189,"em_":3190,"gác":3191,"gắn":3192,"gặp_":3193,"hò":3194,"hẻ":3195,"hạng":3196,"hải_":3197,"lì":3198,"lề":3199,"la_":3200,"lang":3201,"mướ":3202,"mìn":3203,"nụ":3204,"năm_":3205,"rối":3206,"sa":3207,"sắm":3208,"sàn":3209,"sạt_":3210,"tụ":3211,"tường":3212,"tiên":3213,"tách":3214,"tên_":3215,"tưởng":3216,"tóc":3217,"vác":3218,"vạn":3219,"ép_":3220,"Đúng":3221,"đa_":3222,"đồi":3223,"ẩn_th":3224,"ẫu_":3225,"ếu_":3226,"ngựa":3227,"chàng":3228,"thùng":3229,"thiết":3230,"thiên_":3231,"thắp":3232,"thẩm_":3233,"_Công":3234,"trong_":3235,"khắc":3236,"khéo":3237,"phổ":3238,"lành":3239,"iếc":3240,"quà":3241,"qui_t":3242,"có_":3243,"có_vẻ":3244,"uyến":3245,"c_độ":3246,"Thậm_chí":3247,"Trời":3248,"đội_":3249,"_tay":3250,"uyện_":3251,"Ngoài_":3252,"ngày_":3253,"công_nghệ":3254,"công_văn":3255,"đáo":3256,"_hợp":3257,"Phan":3258,"Phượng":3259,"_đủ":3260,"bộ_phận":3261,"_su":3262,"_sao":3263,"_chối":3264,"ung_thư":3265,"_viên":3266,"cô_":3267,"thế_hệ":3268,"đồng_bào":3269,"đầu_máy":3270,"tự_":3271,"tự_nhiên":3272,"tối_":3273,"_cửa":3274,"thủ_đ":3275,"trẻ_em":3276,"dựa":3277,"không_khí":3278,"2005":3279,"Việt_Nam":3280,"con_cái":3281,"kháng_":3282,"chính_thức":3283,"đoán":3284,"bất_cứ":3285,"giàu":3286,"điện_thoại_":3287,"lập_tức":3288,"nguyền":3289,"Thuận":3290,"150":3291,"lưỡi":3292,"kiểm_lâm":3293,"chiến_dịch":3294,"đơn_giản":3295,"cảm_giác":3296,"trở_về":3297,"dân_cư":3298,"trò_chuyện":3299,"kỹ_thuật":3300,"phương_tiện":3301,"qui_hoạch":3302,"Huế":3303,"tiêu_cực":3304,"tiếp_cận":3305,"mua_dâm":3306,"chuyên_nghiệp":3307,"kỷ_l":3308,"Thanh_Hóa":3309,"vật_liệu":3310,"lâm_trường":3311,"Tân_Lộc":3312,"Quảng_Nam":3313,"hầu_như":3314,"ames":3315,"hòa_bình":3316,"ngụy":3317,"hậu_quả":3318,"quyền_lợi":3319,"chức_năng":3320,"_nhàng":3321,"website":3322,"hài_cốt":3323,"lấn_chiếm":3324,"giếng":3325,"ngày_đêm":3326,"Rơ_Ch":3327,"tên_tuổi":3328,"Báo":3329,"Bốn":3330,"Cà":3331,"Cơ":3332,"Cầu_":3333,"Gốc":3334,"James":3335,"Kết_":3336,"Lam":3337,"Lạc":3338,"Làm":3339,"Muốn":3340,"Nụ":3341,"Oanh":3342,"Tà":3343,"Tăng":3344,"XX":3345,"Yên":3346,"_chí":3347,"bậ":3348,"bại":3349,"bến":3350,"bức":3351,"bấm":3352,"cưa":3353,"câu_":3354,"du":3355,"dương":3356,"dính":3357,"gắ":3358,"hả":3359,"hố":3360,"hái":3361,"hiểm_":3362,"hãy":3363,"hữu_":3364,"hướng_":3365,"le":3366,"lê":3367,"lỗi":3368,"linh_":3369,"lĩnh_":3370,"mắc":3371,"nút":3372,"nil":3373,"oto":3374,"oxy":3375,"rộ":3376,"rác":3377,"rạch":3378,"sú":3379,"tạ":3380,"tủ":3381,"tĩnh":3382,"vé":3383,"vừa_":3384,"xẻ":3385,"xanh_":3386,"xấu":3387,"êu":3388,"í_":3389,"đệ":3390,"đảng_":3391,"ƠNN":3392,"ếm":3393,"ịt":3394,"_Sâm":3395,"ngắn":3396,"nhé":3397,"nhập_":3398,"chè":3399,"chì":3400,"chung_":3401,"chậm":3402,"chụp":3403,"thụ":3404,"thực":3405,"treo":3406,"trưởng_":3407,"khảo":3408,"ng_hoàng":3409,"pháo":3410,"phim":3411,"giật_":3412,"iếm":3413,"có_lẽ":3414,"ược_":3415,"ượng_t":3416,"nghiện":3417,"nghiêng":3418,"uống_":3419,"từ_chối":3420,"Trị":3421,"Trương_":3422,"chỉnh":3423,"Ngoài":3424,"p_phần":3425,"công_khai":3426,"xe_l":3427,"_dân":3428,"_dàng":3429,"bảng":3430,"quanh_":3431,"Phan_":3432,"Phía":3433,"khon":3434,"_trang":3435,"cứu_":3436,"hoảng":3437,"sự_thật":3438,"_nhiễm":3439,"vợ_con":3440,"ám_đốc":3441,"đứt":3442,"_WHA":3443,"tàn_":3444,"Gia_đình":3445,"Giám_đốc":3446,"i_thân":3447,"thuận":3448,"giảng_":3449,"khói":3450,"cao_su":3451,"luật_":3452,"cần_":3453,"chứa":3454,"một_chút":3455,"Bình_Phước":3456,"thứ_":3457,"_ban":3458,"_biến":3459,"mùi":3460,"đường_ống":3461,"vô_danh":3462,"ơn_nữa":3463,"đầy_đủ":3464,"ủng_hộ":3465,"hành_trình":3466,"_Nguyên":3467,"_Ngãi":3468,"quốc_gia":3469,"_Mau":3470,"xuất_khẩu":3471,"thu_nhập":3472,"ăng_ký":3473,"đào_tạo":3474,"giáo_sư":3475,"Vậy_là":3476,"dễ_dàng":3477,"võ_sĩ":3478,"biên_bản":3479,"_Văn_C":3480,"Tiếp":3481,"khuya":3482,"sẵn_s":3483,"máy_fax":3484,"tiến_sĩ":3485,"ngoại_ngữ":3486,"Trần_Văn_":3487,"nghĩa_trang":3488,"danh_sách":3489,"nghi_ngờ":3490,"Chủ_tịch":3491,"biết_":3492,"phóng_viên":3493,"HĐXX":3494,"Quảng_Bình":3495,"tự_tin":3496,"NVƠNN":3497,"người_thân":3498,"Nguyễn_Thanh_Mỹ":3499,"sạt_lở":3500,"Ngoài_ra":3501,"kháng_chiến":3502,"điện_thoại_di_động":3503,"lĩnh_vực":3504,"nilông":3505,"sẵn_sàng":3506,"26":3507,"3_":3508,"Biết":3509,"Bất_":3510,"Bác_":3511,"Bảy":3512,"Bỉnh":3513,"Bùi":3514,"Cộng_":3515,"Cana":3516,"Ho":3517,"Hắn":3518,"Hiện_":3519,"Kế":3520,"Lại":3521,"Lời":3522,"Lý_":3523,"Minh_":3524,"Ne":3525,"Rất":3526,"Số":3527,"Sở":3528,"Sơn":3529,"Tiên":3530,"Xây":3531,"_ra":3532,"_già":3533,"_bàng":3534,"bi":3535,"bì":3536,"bom":3537,"bán_":3538,"cỡ":3539,"can":3540,"canh_":3541,"cục":3542,"cta":3543,"cam_":3544,"de":3545,"dáng":3546,"dạng":3547,"dâng":3548,"gánh":3549,"hôn":3550,"ien":3551,"lỗ":3552,"lau":3553,"leo":3554,"lật":3555,"lội":3556,"lãi":3557,"mỏ":3558,"mại_":3559,"móc":3560,"mặc_":3561,"miếng":3562,"muộn":3563,"nát":3564,"nướng":3565,"se":3566,"sứ":3567,"súc":3568,"sai_":3569,"sôi_":3570,"sà_l":3571,"tây":3572,"vệ":3573,"xâm_":3574,"xúc_":3575,"ãm":3576,"ãn":3577,"êm_":3578,"ùi_":3579,"Đặng":3580,"đoà":3581,"đằng":3582,"đàn":3583,"đăng_ký":3584,"ưới":3585,"Ẩn":3586,"ận_lợi":3587,"ằm_":3588,"_Ngh":3589,"ngó":3590,"nhì":3591,"chông":3592,"chôn":3593,"chép":3594,"chòi":3595,"thổi":3596,"thâm_":3597,"thiệt_":3598,"truyền":3599,"khám":3600,"phi_":3601,"làn":3602,"giây":3603,"giặc":3604,"t_m":3605,"Thôi":3606,"Thùy":3607,"rau":3608,"_theo":3609,"Cha":3610,"Chiều":3611,"Trạch":3612,"iêng_":3613,"Nhân_":3614,"Người_":3615,"p_ứng":3616,"_lâu":3617,"Khách":3618,"đáp_ứng":3619,"chín":3620,"khoe":3621,"_điện":3622,"bộ_trưởng":3623,"lớp_học":3624,"_phòng":3625,"i_thường":3626,"thuận_lợi":3627,"vụ_án":3628,"trai_":3629,"quá_trình":3630,"xuôi":3631,"Quả":3632,"Quang":3633,"Quán":3634,"tỉnh_":3635,"tốn":3636,"tố_cáo":3637,"tốc_độ":3638,"Tui":3639,"Bà_con":3640,"_quét":3641,"_quốc":3642,"_Thị_":3643,"chuông":3644,"ký_":3645,"cuộc_chiến":3646,"tài_liệu":3647,"đối_phương":3648,"hành_vi":3649,"giám_định":3650,"kênh":3651,"sáng_":3652,"_Lâm":3653,"khủng_khiế":3654,"cửa_biển":3655,"hợp_pháp":3656,"góp_phần":3657,"_xưa":3658,"n_bó":3659,"ạc_sĩ":3660,"òa_án":3661,"qui_mô":3662,"đấu_sĩ":3663,"1975":3664,"bồi_":3665,"bản_đồ":3666,"Tổ_quốc":3667,"mênh_m":3668,"Hoàng_":3669,"cỏ_bàng":3670,"động_vật":3671,"Trần_Bạch_Đằng":3672,"xe_tăng":3673,"trọng_":3674,"tín_":3675,"Tám_Hòa":3676,"bom_":3677,"hầu_hết":3678,"mãi_":3679,"yên_tâm":3680,"truyền_":3681,"phòng_chống":3682,"nhẹ_nhàng":3683,"pháp_luật":3684,"mồ_h":3685,"trao_đổi":3686,"lưu_thông":3687,"Lâm_Đồng":3688,"lặng_lẽ":3689,"Huynh":3690,"bỗng":3691,"phù_hợp":3692,"Rạch_Gốc":3693,"kẽm":3694,"uy_tín":3695,"Hà_Tĩnh":3696,"Bến_Tre":3697,"nhận_định":3698,"tốt_nghiệp":3699,"mềm":3700,"mưu_sinh":3701,"xem_xét":3702,"Lã_Thị_":3703,"hecta":3704,"doanh_nghiệp":3705,"Kim_Oanh":3706,"qui_tập":3707,"tự_hào":3708,"Rơ_Châm_":3709,"bậc":3710,"gắn_bó":3711,"hướng_dẫn":3712,"ượng_tá":3713,"Bác_Hồ":3714,"Bỉnh_Sâm":3715,"Canada":3716,"Lý_Bỉnh_Sâm":3717,"mại_dâm":3718,"sà_lan":3719,"khủng_khiếp":3720,"mênh_mông":3721,"Lã_Thị_Kim_Oanh":3722,"28":3723,"35":3724,"600":3725,"Bản":3726,"Hò":3727,"Hiện":3728,"Hậu":3729,"Hữu_":3730,"Hơn_nữa":3731,"Kiệm":3732,"Má":3733,"NH":3734,"To":3735,"_đây":3736,"_ẩn":3737,"bó":3738,"bạt":3739,"bánh":3740,"bụng":3741,"bưu_":3742,"cường":3743,"cua":3744,"cúi":3745,"cấp_":3746,"căng_":3747,"cù_lao":3748,"cẩn_th":3749,"hx":3750,"hy":3751,"hạn":3752,"hưu":3753,"kiề":3754,"lời_":3755,"lòng_":3756,"mẩu":3757,"muối":3758,"nă":3759,"nọ":3760,"nối_":3761,"nâng":3762,"răng":3763,"rừng_":3764,"song":3765,"san":3766,"sâu_":3767,"sắp_":3768,"tan":3769,"tức":3770,"túc":3771,"tại_":3772,"tật_":3773,"tiệm":3774,"ve":3775,"vang":3776,"vòng_":3777,"vi_tính":3778,"Út_":3779,"ãi_":3780,"í_nghiệp":3781,"úa":3782,"Đình":3783,"Đinh_":3784,"Đặc_":3785,"đò":3786,"đẻ":3787,"đông_":3788,"đâu_":3789,"đớn":3790,"đòi_":3791,"ạnh_":3792,"ấn_tượng":3793,"ắn_t":3794,"ỏa":3795,"ồi_":3796,"ổn":3797,"ngầm":3798,"ngọt":3799,"nhặt":3800,"_Numx":3801,"chết_":3802,"chồn":3803,"chùa":3804,"chame":3805,"tha":3806,"thù":3807,"thẻ":3808,"thổ":3809,"thự":3810,"thiện":3811,"thống":3812,"thép":3813,"thỉnh_thoảng":3814,"thạc_sĩ":3815,"trá":3816,"truy":3817,"khe":3818,"khúc":3819,"ng_m":3820,"phú":3821,"phầ":3822,"phân":3823,"phiên_":3824,"phấn_":3825,"phèn":3826,"giành":3827,"giam":3828,"iết_":3829,"quãng":3830,"Thì":3831,"Thác_":3832,"Thực_":3833,"nghịch":3834,"nhà_tr":3835,"nhà_v":3836,"_thù":3837,"đóng_":3838,"cảng":3839,"Chợ":3840,"Chắc":3841,"Chín_":3842,"Triệu":3843,"_tội":3844,"_tài":3845,"_tướng":3846,"đầm_":3847,"Ngọc":3848,"tiếng_":3849,"_lệ":3850,"_lập":3851,"anh_trai":3852,"_đồ":3853,"_đoàn":3854,"_mò":3855,"_mạnh":3856,"sự_c":3857,"máy_móc":3858,"n_thiết":3859,"_nhật":3860,"_Whx":3861,"bố_trí":3862,"ưởi":3863,"Hàn":3864,"làm_thuê":3865,"báo_chí":3866,"Quân_":3867,"mẹ_con":3868,"cầm_":3869,"cần_thiết":3870,"_cấp":3871,"tình_cờ":3872,"_quán":3873,"hồi_":3874,"điểm_":3875,"đại_lý":3876,"đại_tướng":3877,"_Phú":3878,"_Phòng":3879,"chữ_":3880,"cuốc":3881,"đường_hầm":3882,"chuồng":3883,"học_tập":3884,"Công_an":3885,"ký_t":3886,"lúc_":3887,"trung_ương":3888,"tài_trợ":3889,"hành_động":3890,"hợp_t":3891,"Nghĩ":3892,"thanh_tra":3893,"đánh_giá":3894,"giải_phóng":3895,"hợp_lý":3896,"n_bạc":3897,"toàn_":3898,"tivi":3899,"Vì_vậy":3900,"Bình_Thuận":3901,"Định":3902,"tiếp_viên":3903,"hội_nghị":3904,"tổng_thống":3905,"thở_dài":3906,"_gắng":3907,"im_lặng":3908,"đau_đớn":3909,"môi_giới":3910,"Kỳ_Sơn":3911,"tiến_hành":3912,"Nam_bộ":3913,"lệnh":3914,"trước_đây":3915,"Nakhon":3916,"nghi_vấn":3917,"Gia_Huynh":3918,"bổng":3919,"hiếm":3920,"áp_dụng":3921,"đặt_chân":3922,"bế_tắc":3923,"bánh_mì":3924,"dưỡng":3925,"tuyên_bố":3926,"nộp":3927,"xét_":3928,"Bảo_Lâm":3929,"khởi_nghĩa":3930,"Vợ_chồng":3931,"red":3932,"xoay":3933,"hiệu_quả":3934,"yêu_thương":3935,"ngân_hàng":3936,"thuyết_":3937,"Buh":3938,"chi_tiết":3939,"thỏa_":3940,"vui_vẻ":3941,"truyền_thống":3942,"mướn":3943,"Lamchame":3944,"Tàu":3945,"New":3946,"xúc_động":3947,"Người_ta":3948,"cẩn_thận":3949,"năng_l":3950,"tật_nguyền":3951,"đòi_hỏi":3952,"sự_cố":3953,"_Whxp":3954,"21":3955,"36":3956,"400":3957,"Ban_":3958,"Bệnh_":3959,"DS":3960,"Diên":3961,"Dân_":3962,"Gặp":3963,"Hạ":3964,"Hỏi":3965,"Hạo":3966,"Kinh_":3967,"Kiến":3968,"Kred":3969,"LS":3970,"Lá":3971,"Liệu":3972,"Mẹ":3973,"Mai_":3974,"Mar":3975,"Mẫm":3976,"Một_":3977,"Quyên":3978,"Suốt":3979,"Tình_":3980,"Tiến":3981,"Vĩnh":3982,"Xe":3983,"Xiêng_":3984,"Yên_":3985,"_vì":3986,"_nào":3987,"ap":3988,"bể":3989,"bóc":3990,"bầy":3991,"biển_":3992,"bdu":3993,"cọc":3994,"cắm":3995,"cạp":3996,"dắt":3997,"dừa":3998,"gấu":3999,"hô":4000,"hòa":4001,"ka":4002,"kính_":4003,"lây":4004,"lin":4005,"lạch":4006,"lứa":4007,"lựu_":4008,"mp":4009,"mờ":4010,"mến":4011,"mây":4012,"minh_":4013,"mạch":4014,"mong_":4015,"mer":4016,"nỗ":4017,"niệm":4018,"rổ":4019,"rỡ":4020,"rong":4021,"rào":4022,"rít":4023,"rộng_":4024,"sân_":4025,"sạn":4026,"tông":4027,"tăng_":4028,"vút":4029,"vét":4030,"xao":4031,"xương_":4032,"Úc":4033,"ói":4034,"ô_nhiễm":4035,"Độ":4036,"Đổi":4037,"Đứa":4038,"đa":4039,"đống":4040,"đua":4041,"đậu":4042,"đựng":4043,"đĩa":4044,"ớp":4045,"ứng_":4046,"ứt_":4047,"ửng":4048,"ngả":4049,"ngộ":4050,"ngao":4051,"nhang":4052,"nhắn":4053,"nhạc":4054,"nhựa":4055,"chu_":4056,"chương":4057,"chăn_":4058,"chen":4059,"chạm":4060,"thờ":4061,"thước":4062,"thách":4063,"thống_":4064,"trị":4065,"tráng":4066,"khăn":4067,"khâu":4068,"khích":4069,"ng_cáo":4070,"phở":4071,"iệu_":4072,"quần":4073,"cá_nhân":4074,"ượn":4075,"Thiên":4076,"and":4077,"họa":4078,"_thương":4079,"Trang":4080,"sốc":4081,"sốt":4082,"sống_":4083,"số_phận":4084,"ngày_xưa":4085,"công_viên":4086,"tiết_":4087,"_dù":4088,"bản_l":4089,"Phạm_":4090,"chịu_":4091,"_đời":4092,"đề_tài":4093,"cứng":4094,"hoa_":4095,"hoạt":4096,"_sát":4097,"_chủ":4098,"loại_":4099,"chủ_nhật":4100,"Hành_":4101,"Giờ":4102,"bao_lâu":4103,"giải_t":4104,"vụ_việc":4105,"quảng_cáo":4106,"trakar":4107,"ước_mơ":4108,"i_tệ":4109,"ghê":4110,"sĩ_quan":4111,"hộp":4112,"_cực":4113,"tiếp_thị":4114,"tiếp_theo":4115,"Có_thể":4116,"_bé":4117,"gian_":4118,"thợ_":4119,"nghị_quyết":4120,"hình_thức":4121,"vị_trí":4122,"tham_mưu":4123,"đối_diện":4124,"Trung_ương":4125,"Tuyết":4126,"_nguyện":4127,"ôm_qua":4128,"đặc_sản":4129,"sửa_":4130,"cảm_nhận":4131,"đánh_cá":4132,"mặt_hàng":4133,"mặt_đất":4134,"mặt_bằng":4135,"xe_đò":4136,"giáo_dục":4137,"uyền_trưởng":4138,"chứng_cứ":4139,"qui_định":4140,"tương_tự":4141,"Bình_Triệu":4142,"Huỳnh_":4143,"lũ_quét":4144,"tiêu_thụ":4145,"vận_chuyển":4146,"hội_đồng":4147,"chuyên_gia":4148,"tác_giả":4149,"_Nhi":4150,"chấp_hành":4151,"Trà_M":4152,"động_viên":4153,"thuốc_lá":4154,"lâm_súc":4155,"Thành_đoàn":4156,"phản_ứng":4157,"bóng_đá":4158,"chia_tay":4159,"thất_bại":4160,"Tám_On":4161,"quần_áo":4162,"Khuảng":4163,"đô_thị":4164,"nghiêm_túc":4165,"hóa_chất":4166,"tuyệt_đối":4167,"trình_bày":4168,"tranh_thủ":4169,"Nike":4170,"quen_":4171,"Nông_lâm_súc":4172,"khắc_phục":4173,"bút_":4174,"ít_nhất":4175,"a_hè":4176,"NTLS":4177,"dấu_hiệu":4178,"kịch_bản":4179,"Thời_gian":4180,"Phú_Mỹ":4181,"Tiến_sĩ":4182,"bấy_giờ":4183,"giao_lưu":4184,"Mặt_khác":4185,"ngày_một":4186,"Kết_quả":4187,"đệm":4188,"luật_sư":4189,"Bất_ngờ":4190,"Cộng_sản":4191,"Hiện_nay":4192,"canh_tác":4193,"mồ_hôi":4194,"căng_thẳng":4195,"kiềng":4196,"đâu_đó":4197,"Thác_Bà":4198,"thuyết_phục":4199,"năng_lực":4200,"Kredtrakar":4201,"Xiêng_Khuảng":4202,"bdul":4203,"lựu_đạn":4204,"bản_lĩnh":4205,"giải_tỏa":4206,"Kredtrakarn":4207,"90":4208,"AI":4209,"Bán":4210,"Buổi":4211,"Bác_sĩ":4212,"Biển_":4213,"Bùi_":4214,"Cao":4215,"Cùng":4216,"Cát_":4217,"Dung":4218,"Hình_":4219,"Hôm_nay":4220,"Koto":4221,"Lân":4222,"Lăng":4223,"Me":4224,"Mũ":4225,"May":4226,"NKT":4227,"Nỗi":4228,"PT":4229,"Quốc_":4230,"Ra":4231,"Sao":4232,"Sơn_":4233,"TS":4234,"Tình":4235,"Tấn_":4236,"Vĩnh_":4237,"_gi":4238,"_nghề":4239,"_giáo":4240,"_địa":4241,"ba_":4242,"bồi":4243,"bạch":4244,"bọc":4245,"bia":4246,"bầu_":4247,"cướ":4248,"cân_":4249,"căng":4250,"câm_":4251,"cung":4252,"cựu_":4253,"dở":4254,"dụ":4255,"dời":4256,"dập":4257,"dạt":4258,"dốc":4259,"eal":4260,"gai":4261,"hờ":4262,"hận":4263,"hiến":4264,"hấp_":4265,"hạn_":4266,"huyề":4267,"her":4268,"hiền_":4269,"kẹp":4270,"lò":4271,"lọ":4272,"lọc":4273,"lập_":4274,"mò":4275,"mị":4276,"măng":4277,"mọc":4278,"mon":4279,"mươi":4280,"nu":4281,"nú":4282,"neo":4283,"nội":4284,"oan":4285,"oán":4286,"o_l":4287,"oin":4288,"rí":4289,"rọ":4290,"reo":4291,"run":4292,"sờ":4293,"săn":4294,"sữa":4295,"sướng":4296,"tang":4297,"tươ":4298,"tôm_":4299,"tụi":4300,"uân":4301,"vá":4302,"vò":4303,"vỉ":4304,"vây":4305,"vải":4306,"vội_":4307,"xôi":4308,"xinh_":4309,"xài":4310,"xóa_":4311,"xuống_":4312,"Ái_":4313,"âng_":4314,"ê_d":4315,"óm_":4316,"Đỗ":4317,"Đông_":4318,"Đưa":4319,"Đội":4320,"Đảo":4321,"Đối_":4322,"đâm":4323,"đuôi":4324,"đến_":4325,"đếm":4326,"ẫn_":4327,"ắn_":4328,"ắng_l":4329,"ộm":4330,"ững_":4331,"ỳnh":4332,"ngũ":4333,"ngơ":4334,"ngại":4335,"ngăn":4336,"nguyện_":4337,"_Rai":4338,"nhắn_t":4339,"chốn":4340,"chưa_":4341,"thề":4342,"thanh":4343,"thai":4344,"thưa":4345,"thảo":4346,"thóc":4347,"thẳng_":4348,"thí_":4349,"trần":4350,"trồi":4351,"trục":4352,"trắng_":4353,"khám_":4354,"khuyên":4355,"làng_":4356,"giỏ":4357,"giường":4358,"giọt":4359,"ượm":4360,"Thảo":4361,"Tháp":4362,"nhà_th":4363,"cản":4364,"cải_":4365,"Chúng":4366,"Trâm":4367,"_tỏ":4368,"_tình":4369,"Nhã":4370,"Nhờ":4371,"Nhơn_":4372,"Ngồi":4373,"công_cộng":4374,"chiến_th":4375,"Khon":4376,"_hộ":4377,"Phu":4378,"anh_chị":4379,"_đỏ":4380,"phá_h":4381,"đề_c":4382,"_man":4383,"bộc_":4384,"hoang":4385,"_chai":4386,"_chân":4387,"n_thương":4388,"n_thuộc":4389,"n_thưởng":4390,"n_thoại":4391,"bốc":4392,"194":4393,"đồng_tiền":4394,"đồng_ruộng":4395,"buồ":4396,"ường_như":4397,"i_thăm":4398,"làm_quen":4399,"thuế":4400,"ác_liệt":4401,"n_luyện":4402,"Hải_Phòng":4403,"i_tim":4404,"báo_h":4405,"lui":4406,"xuồng":4407,"Quế":4408,"tổng":4409,"tử_tế":4410,"tốc":4411,"tốp":4412,"_công":4413,"tình_yêu":4414,"khuôn_":4415,"dự_":4416,"_binh":4417,"giáp":4418,"nhỏ_bé":4419,"20_":4420,"nhà_máy":4421,"nhà_đầu_tư":4422,"chính_phủ":4423,"_Phương":4424,"thông_minh":4425,"lý_tưởng":4426,"chuẩn":4427,"cố_định":4428,"cố_gắng":4429,"ận_Đức":4430,"học_bổng":4431,"cụt":4432,"lúa_":4433,"hàng_loạt":4434,"lộn":4435,"đối_mặt":4436,"sinh_sống":4437,"văn_học":4438,"_ngơi":4439,"_nguyên":4440,"an_n":4441,"Học_":4442,"xuất_phát":4443,"quan_tài":4444,"thu_hồi":4445,"sáng_t":4446,"đánh_bắt":4447,"Muk":4448,"Nhuận_Đức":4449,"giải_pháp":4450,"1999":4451,"1961":4452,"bệnh_tật":4453,"ạc_L":4454,"Bắc_Ninh":4455,"xe_khách":4456,"thảm_":4457,"Tư_H":4458,"_Văn_D":4459,"di_chuyển":4460,"vận_hành":4461,"tiếp_xúc":4462,"tác_phẩm":4463,"bày_tỏ":4464,"khuyến_":4465,"đau_lòng":4466,"Trà_Vinh":4467,"Đồng_chí":4468,"iển_khai":4469,"Xuân_Hải":4470,"Quảng_Ngãi":4471,"mất_tích":4472,"bếp":4473,"sức_khỏe":4474,"dưỡng_":4475,"ghi_chép":4476,"biệt_thự":4477,"trình_độ":4478,"quen_thuộc":4479,"Luân":4480,"dã_man":4481,"Kiên_Giang":4482,"mục_tiêu":4483,"đèn_":4484,"qua_lại":4485,"Hưng_Long":4486,"đổi_mới":4487,"gặp_gỡ":4488,"hẻo_l":4489,"thủ_đô":4490,"ngụy_trang":4491,"Cà_Mau":4492,"Cầu_Hai":4493,"đảng_viên":4494,"giật_mình":4495,"xe_lửa":4496,"_WHAP":4497,"giảng_dạy":4498,"bưu_điện":4499,"đóng_góp":4500,"lúc_nào":4501,"thỏa_thuận":4502,"Martin":4503,"chăn_nuôi":4504,"AIDS":4505,"Biển_Lạc":4506,"hấp_dẫn":4507,"heroin":4508,"nuôi_":4509,"nhắn_tin":4510,"Nhơn_Trạch":4511,"chiến_thắng":4512,"hẻo_lánh":4513,"29":4514,"55":4515,"Ama":4516,"Bị":4517,"Bun":4518,"Bạc_L":4519,"Co":4520,"Cụ":4521,"Cử":4522,"Cây":4523,"Căn":4524,"Cần_":4525,"Dọc":4526,"Ed":4527,"GS":4528,"Hết":4529,"Hạt":4530,"Hải_":4531,"Kang":4532,"Kiên":4533,"Lên":4534,"Lai":4535,"Lập":4536,"Liên_":4537,"Mường":4538,"No":4539,"Nội_":4540,"Sá":4541,"Sông":4542,"TT":4543,"Ta":4544,"Tú":4545,"Tên":4546,"Tết":4547,"Tiền":4548,"Tối":4549,"Ubdul":4550,"Vũ":4551,"Vài":4552,"_B":4553,"_ước":4554,"_phải":4555,"_cách":4556,"_kiện":4557,"as":4558,"béo":4559,"biện_":4560,"bớt":4561,"bơm":4562,"cay":4563,"cực_":4564,"cười_":4565,"cấm":4566,"cùng_":4567,"dạo":4568,"dồn":4569,"dẹp":4570,"diễn_":4571,"dũng_":4572,"dứt_":4573,"dường_như":4574,"enh":4575,"go":4576,"gò":4577,"gan":4578,"gần_":4579,"hè":4580,"han":4581,"huống":4582,"hôn_":4583,"hằn":4584,"ie":4585,"kim":4586,"kil":4587,"lơ":4588,"lôi":4589,"lát":4590,"lương_":4591,"loài":4592,"lắp_":4593,"m3":4594,"mật":4595,"mar":4596,"mép":4597,"mức_":4598,"mưa_":4599,"nập":4600,"nạo":4601,"nàng":4602,"nấu_":4603,"năng_":4604,"nom":4605,"ném":4606,"nằm_":4607,"or":4608,"oát":4609,"ro":4610,"rã":4611,"rể":4612,"ri_":4613,"ray":4614,"rao":4615,"rồng":4616,"ruốc":4617,"rối_":4618,"sụ":4619,"siết":4620,"sập":4621,"tả":4622,"tắc":4623,"tảng":4624,"tầm":4625,"tiễn":4626,"tồn_":4627,"tiền_":4628,"tòa_án":4629,"vỗ":4630,"vắt":4631,"vai_":4632,"vòi_":4633,"xà":4634,"xô":4635,"xơ":4636,"xấu_":4637,"y_tế":4638,"yếu_":4639,"êu_":4640,"í_d":4641,"ý_tưởng":4642,"Đôi":4643,"Đất":4644,"Đường_":4645,"Đầu":4646,"đỗ":4647,"đai":4648,"đắt":4649,"điếu":4650,"Ảnh":4651,"Ấn_":4652,"ệnh":4653,"ịa":4654,"ọng_":4655,"ới_t":4656,"_Pao":4657,"_Penh":4658,"_Sa":4659,"ngất_":4660,"ngừng":4661,"ngửa":4662,"ngột":4663,"ngang_":4664,"ngùi":4665,"nhậ":4666,"nhổ":4667,"nhật":4668,"nhầm":4669,"chấ":4670,"chật_":4671,"chấm":4672,"chẳng_":4673,"chạm_":4674,"chống_":4675,"chơi_":4676,"thà":4677,"thô":4678,"tha_":4679,"than":4680,"thận":4681,"thạo":4682,"thừa":4683,"thoại":4684,"thầm_":4685,"thượng_tá":4686,"_Cô":4687,"_Cầu":4688,"trì":4689,"trông_":4690,"triể":4691,"trọn":4692,"tràn":4693,"trục_":4694,"trộm":4695,"triển_khai":4696,"phế":4697,"phỏ":4698,"phiên":4699,"phê_d":4700,"lành_":4701,"i_học":4702,"i_rối":4703,"giở":4704,"giàn":4705,"giấc":4706,"qui":4707,"quý":4708,"quang":4709,"quét":4710,"quầy":4711,"qua_đời":4712,"t_hoảng":4713,"uyết":4714,"mộc":4715,"Thơ":4716,"Thổ":4717,"Thiết":4718,"Thật_":4719,"Thám_tử":4720,"cho_dù":4721,"như_vậy":4722,"_thú":4723,"_thiện":4724,"từ_thiện":4725,"Chi_":4726,"Chồng":4727,"Chưa":4728,"Chẳng":4729,"Cháu":4730,"Chiếc":4731,"Chuyến":4732,"Trước_":4733,"bàng_hoàng":4734,"_tại":4735,"_tầng":4736,"Nhớ":4737,"công_dân":4738,"công_bố":4739,"công_trường":4740,"chúng_":4741,"chú_ý":4742,"Khu_":4743,"_dạng":4744,"đáp":4745,"bản_thân":4746,"_hồ":4747,"_hiếm":4748,"Phnom":4749,"khoang":4750,"_đường":4751,"_đợi":4752,"_đàm":4753,"_đảm":4754,"vì_vậy":4755,"vì_thế":4756,"ăn_uống":4757,"_mê":4758,"_mịt":4759,"bộ_đàm":4760,"lớn_":4761,"quyển":4762,"máy_v":4763,"tay_tr":4764,"bối_rối":4765,"chủ_động":4766,"cơ_":4767,"đầu_mối":4768,"Hàm_":4769,"buông":4770,"bảo_t":4771,"i_thơ":4772,"thuẫn":4773,"Nguyên":4774,"n_lãm":4775,"âu_thuẫn":4776,"don":4777,"i_tích":4778,"luồng":4779,"tự_nguyện":4780,"khách_quan":4781,"_cộ":4782,"_côi":4783,"Bà_Tr":4784,"_nổi":4785,"thành_niên":4786,"dự_th":4787,"thời_kỳ":4788,"thời_bình":4789,"ton":4790,"_bạc":4791,"con_bạc":4792,"nước_mặn":4793,"nước_ngọt":4794,"Nguyễn_Kỳ_Sơn":4795,"_Chu":4796,"giấy_phép":4797,"_Thanh":4798,"chữ_nổi":4799,"thông_cảm":4800,"du_khách":4801,"du_học_sinh":4802,"hiệp_":4803,"học_viên":4804,"Công_việc":4805,"Chúng_ta":4806,"già_làng":4807,"bắt_buộc":4808,"ng_lượng":4809,"người_nhà":4810,"ấp_nập":4811,"thúc_":4812,"hình_dung":4813,"tài_năng":4814,"đài_tệ":4815,"_Ngọc":4816,"quyết_tâm":4817,"_Minh":4818,"bình_quân":4819,"bình_tĩnh":4820,"kỳ_thị":4821,"Nghi_":4822,"rõ_r":4823,"kêu_":4824,"Thái_Bình":4825,"sát_":4826,"cảm_ơn":4827,"cảm_thấy":4828,"cảm_động":4829,"tâm_lý":4830,"ánh_sáng":4831,"chờ_đợi":4832,"ý_chí":4833,"mặt_nước":4834,"ủy_ban":4835,"giáo_viên":4836,"_Đông":4837,"1990":4838,"1998":4839,"Vậy_mà":4840,"gói":4841,"giới_tính":4842,"trang_phục":4843,"trang_trí":4844,"bệnh_xá":4845,"cổng":4846,"almer":4847,"Ngày_mai":4848,"võ_thuật":4849,"Đông_Du":4850,"1970":4851,"Tiếng":4852,"_Zeal":4853,"tổng_hội":4854,"tác_động":4855,"thường_trực":4856,"ồn_ào":4857,"Đồng_Tháp":4858,"trọng_lượng":4859,"ra_sao":4860,"tìm_kiếm":4861,"thật_ra":4862,"úc_xá":4863,"Nam_Trà_M":4864,"bạn_đọc":4865,"mất_mát":4866,"n_ngập":4867,"Chính_quyền":4868,"nghĩa_là":4869,"trí_thức":4870,"trước_mắt":4871,"âm_thanh":4872,"tính_toán":4873,"quí_hiếm":4874,"pháp_lý":4875,"biến_":4876,"lên_đường":4877,"mồ_côi":4878,"đôla":4879,"ghi_âm":4880,"biểu_diễn":4881,"hóa_học":4882,"Lâm_trường":4883,"hỏi_thăm":4884,"Lâm_Nhi":4885,"sở_tại":4886,"_Duẩn":4887,"trái_phép":4888,"Thủ_tướng":4889,"bỗng_":4890,"Ba_Hạo":4891,"tầm_v":4892,"kiên_quyết":4893,"mục_đích":4894,"tiền_bạc":4895,"tất_bật":4896,"xót_":4897,"đột_ngột":4898,"Quỳnh_Thanh":4899,"nhiệt_độ":4900,"say_mê":4901,"chuyển_giao":4902,"Vàng_Pao":4903,"lều":4904,"đa_số":4905,"phổ_biến":4906,"có_khi":4907,"Phan_Văn_":4908,"kỷ_luật":4909,"câu_thơ":4910,"hốt_hoảng":4911,"hữu_nghị":4912,"súng_":4913,"ược_lại":4914,"Phan_Thiết":4915,"Tiên_Sơn":4916,"ký_ức":4917,"bom_đạn":4918,"Hòe":4919,"hy_sinh":4920,"sắp_xếp":4921,"ve_chai":4922,"Đặc_biệt":4923,"trái_tim":4924,"phiên_tòa":4925,"Chín_Ảnh":4926,"ký_túc_xá":4927,"hợp_tác":4928,"New_Zeal":4929,"thống_nhất":4930,"sửa_chữa":4931,"Huỳnh_Tấn_":4932,"Lăng_Cô":4933,"cướp":4934,"cựu_binh":4935,"hạn_chế":4936,"tươi_":4937,"nguyện_vọng":4938,"chưa_thể":4939,"thí_nghiệm":4940,"đề_cập":4941,"khuôn_mặt":4942,"an_ninh":4943,"Tư_Hiền":4944,"Bạc_Liêu":4945,"biện_pháp":4946,"dũng_cảm":4947,"tồn_tại":4948,"triển_lãm":4949,"phê_duyệt":4950,"Phnom_Penh":4951,"máy_vi_tính":4952,"rõ_ràng":4953,"Nam_Trà_My":4954,"New_Zealand":4955,"Huỳnh_Tấn_Mẫm":4956,"1A":4957,"39":4958,"5_":4959,"64":4960,"99":4961,"Bo":4962,"Bỉ":4963,"Bố":4964,"Bông":4965,"Bác":4966,"Biên_":4967,"Bọn":4968,"Dũng":4969,"Hội_":4970,"Hầu_":4971,"Hãy":4972,"II":4973,"Ia_":4974,"Jo":4975,"Jơ":4976,"Khai":4977,"Lương":4978,"Lịch":4979,"Lưu":4980,"Luật":4981,"MC":4982,"Mùa":4983,"Máy":4984,"Nước":4985,"Ninh_":4986,"PV":4987,"Pak":4988,"Su":4989,"Song":4990,"Sang":4991,"Từng":4992,"Tính":4993,"Tưởng":4994,"Tiền_":4995,"VP":4996,"Vụ":4997,"Vẫn":4998,"Vấn_đề":4999,"WMC":5000,"Xong":5001,"Xoài":5002,"Yoi":5003,"_5":5004,"_đó":5005,"_bộ":5006,"_chịu":5007,"_nghi":5008,"bọ":5009,"bợ":5010,"bận":5011,"bát":5012,"bạc_":5013,"bằng_":5014,"cu":5015,"cõ":5016,"cặ":5017,"cọ":5018,"cớ":5019,"cày":5020,"cược":5021,"canh":5022,"cậy":5023,"càn":5024,"cẩu":5025,"cqui":5026,"dì":5027,"dọ":5028,"dại":5029,"dược":5030,"dầu":5031,"dọa":5032,"dáng_":5033,"di_tích":5034,"es":5035,"gật":5036,"gắt":5037,"gài":5038,"gãy":5039,"hẹ":5040,"ham":5041,"hét":5042,"hang_":5043,"hối_":5044,"hôm_qua":5045,"kem":5046,"kiệt_":5047,"kiêm":5048,"kín_":5049,"li":5050,"lẻ":5051,"lự":5052,"lùng":5053,"lan":5054,"lồng":5055,"lân_":5056,"lăn_":5057,"lượt":5058,"lầm_":5059,"lầu":5060,"mại":5061,"mật_":5062,"mạc":5063,"mâu_thuẫn":5064,"nở":5065,"nương_":5066,"nảy":5067,"nén":5068,"nêu":5069,"ou":5070,"oạn":5071,"pin":5072,"ri":5073,"rét":5074,"rãi":5075,"rùng_":5076,"rải_":5077,"sững":5078,"sa_":5079,"sin":5080,"săn_":5081,"sung_":5082,"san_":5083,"tò":5084,"tệ":5085,"tứ":5086,"tái":5087,"tưở":5088,"ten":5089,"tấc":5090,"tấp_nập":5091,"uồn":5092,"vơi":5093,"vinh_":5094,"vướng":5095,"voi":5096,"vững_":5097,"xả":5098,"xỉ":5099,"xông":5100,"xôn_":5101,"Ông_":5102,"Út":5103,"ênh":5104,"ói_":5105,"úp":5106,"ăcqui":5107,"Đinh":5108,"điề":5109,"đuối":5110,"ấn_luyện":5111,"ằn_":5112,"ẳng_l":5113,"ổng":5114,"ỡng":5115,"ợi_":5116,"Ủy":5117,"ủng":5118,"_Nam_":5119,"_Anh":5120,"ngon":5121,"ngập_":5122,"ngậm":5123,"ngón":5124,"nhũ":5125,"nhượng":5126,"nhét":5127,"chê":5128,"chẽ":5129,"chăm":5130,"chài":5131,"châu_":5132,"chèo":5133,"chặt_":5134,"chóng_":5135,"chép_":5136,"thâm":5137,"thiệt":5138,"thấu_":5139,"thuyền_trưởng":5140,"_Dung":5141,"_Dien":5142,"_Công_":5143,"tra_":5144,"trùng":5145,"trán":5146,"trống":5147,"triệt_":5148,"truy_t":5149,"triệu_":5150,"n_h":5151,"n_v":5152,"n_mát":5153,"khẩ":5154,"khối":5155,"khấn":5156,"khác_":5157,"khép":5158,"khốc_":5159,"ng_vấn":5160,"phà":5161,"phiện":5162,"phối":5163,"phấn":5164,"phúc_":5165,"i_hợp":5166,"vàng_":5167,"giác_":5168,"giai_":5169,"nh_tay":5170,"cánh_tay":5171,"uyên_":5172,"Thú":5173,"Thông_":5174,"Thằng":5175,"Thạnh":5176,"Thủy":5177,"Thừa_":5178,"Thỉnh_thoảng":5179,"aymon":5180,"đãi":5181,"a_chọn":5182,"ướt":5183,"nghìn":5184,"như_thế":5185,"ông_già":5186,"con_th":5187,"anom":5188,"hài":5189,"_Xuân":5190,"Chu":5191,"Châu_":5192,"Trở":5193,"Trận":5194,"_tư":5195,"_tang":5196,"_tải":5197,"nóng_":5198,"Nhóm":5199,"sốt_":5200,"Ngô":5201,"Ngọ":5202,"công_lý":5203,"uột":5204,"chút_":5205,"bịt":5206,"bị_thương":5207,"_lái":5208,"_lạnh":5209,"_léo":5210,"Khó":5211,"Khổ":5212,"đám_":5213,"_hóa":5214,"tuổ":5215,"khoảng_":5216,"_đặc":5217,"phán_":5218,"_tre":5219,"_trì":5220,"_trị":5221,"đền":5222,"đền_b":5223,"ăn_mặc":5224,"hop":5225,"_sự":5226,"_sản":5227,"sự_việc":5228,"taxi":5229,"tay_lái":5230,"_vị":5231,"_vọng":5232,"_vét":5233,"bah":5234,"balô":5235,"bốc_":5236,"_WHVP":5237,"lon":5238,"cơ_thể":5239,"nghiệp_":5240,"enri_":5241,"đồng_hương":5242,"buồm":5243,"bảo_hộ":5244,"bảo_đảm":5245,"đốn":5246,"chuyền":5247,"Giáo":5248,"dưa_h":5249,"giảm_":5250,"Nguyên_":5251,"n_tử":5252,"n_tất":5253,"quả_tang":5254,"ômet":5255,"cao_nguyên":5256,"quái_":5257,"luồn":5258,"kể_cả":5259,"tỉ_lệ":5260,"một_vài":5261,"_cụ":5262,"thủ_công":5263,"tình_huống":5264,"nghề_nghiệp":5265,"Bàu":5266,"Bà_R":5267,"trẻ_con":5268,"_nạn":5269,"thức_":5270,"10_":5271,"phối_hợp":5272,"giá_cả":5273,"giá_trị":5274,"2001":5275,"nhân_công":5276,"nước_da":5277,"nghèo_":5278,"hoàn_tất":5279,"kinh_phí":5280,"Nguyễn_Đức_":5281,"Nguyễn_Ái_":5282,"điện_":5283,"nhà_nghỉ":5284,"_Thị":5285,"_Phúc":5286,"_Phanom":5287,"gian_n":5288,"mù_mịt":5289,"hiện_tượng":5290,"cốc":5291,"trả_thù":5292,"học_phí":5293,"bất_kể":5294,"thoắt":5295,"thoáng":5296,"thoải_":5297,"kiến_tr":5298,"trung_bình":5299,"thú_thật":5300,"thú_vị":5301,"hàng_quán":5302,"hàng_hóa":5303,"sinh_hoạt":5304,"văn_bản":5305,"thay_vì":5306,"thế_kỷ":5307,"tư_thế":5308,"tư_cách":5309,"bình_yên":5310,"vuông":5311,"Cảnh_":5312,"cư_dân":5313,"Nguyễn_Chí":5314,"soạn":5315,"cảm_tình":5316,"lạc_":5317,"đánh_dấu":5318,"dân_làng":5319,"cửa_khẩu":5320,"nông_nghiệp":5321,"ý_định":5322,"ý_nghĩa":5323,"đàn_bà":5324,"túi_":5325,"ng_tượng":5326,"bí_ẩn":5327,"đồ_nghề":5328,"thân_yêu":5329,"1966":5330,"1967":5331,"tích_cực":5332,"Lê_H":5333,"thương_binh":5334,"tin_t":5335,"tinh_kh":5336,"biên_phòng":5337,"độc_dược":5338,"1972":5339,"Huỳnh":5340,"đất_liền":5341,"tổng_số":5342,"vô_số":5343,"vô_địch":5344,"bản_kẽm":5345,"_Nhân":5346,"thiết_bị":5347,"Hai_Bà_Tr":5348,"hào_h":5349,"Đồng_Xoài":5350,"máy_bộ_đàm":5351,"Phạm_Văn_C":5352,"ngoại_ô":5353,"Xuân_Hòa":5354,"khỏe_mạnh":5355,"sổ_đỏ":5356,"căn_bệnh":5357,"dữ_d":5358,"tiểu_học":5359,"huy_động":5360,"tính_cách":5361,"trụ_sở":5362,"hiếp":5363,"xung_phong":5364,"áp_lực":5365,"đặt_hàng":5366,"phó_chủ":5367,"thầy_giáo":5368,"tuyên_truyền":5369,"dày_đặc":5370,"hoang_mang":5371,"giúp_việc":5372,"biệt_danh":5373,"hỏng":5374,"xa_xôi":5375,"Đại_học":5376,"Đại_tướng":5377,"Đài_Bắc":5378,"phóng_sự":5379,"HĐND":5380,"trái_cây":5381,"huấn_luyện":5382,"lẽ_phải":5383,"lâu_dài":5384,"lâu_lâu":5385,"Thứ_trưởng":5386,"1959":5387,"Rạch_Giá":5388,"ngân_sách":5389,"thượng_nguồn":5390,"thượng_đài":5391,"Già_làng":5392,"tin_học":5393,"dấu_vết":5394,"tất_nhiên":5395,"nis":5396,"tùy_thân":5397,"Kiểm_sát":5398,"sang_trọng":5399,"tạm_bợ":5400,"ngăn_chặn":5401,"ngăn_cản":5402,"đổi_đời":5403,"Hưng_Nguyên":5404,"Văn_phòng":5405,"khéo_léo":5406,"phổ_thông":5407,"kỷ_lục":5408,"tạp_":5409,"vừa_qua":5410,"Tiếp_thị":5411,"bì_thư":5412,"de_Dien":5413,"sứ_quán":5414,"sôi_nổi":5415,"vệ_sinh":5416,"xâm_l":5417,"Đặng_Văn_":5418,"phi_nghĩa":5419,"Quả_thật":5420,"tín_hiệu":5421,"mãi_mãi":5422,"truyền_hình":5423,"Rơ_Châm_Kiến":5424,"cấp_cứu":5425,"lòng_sông":5426,"Út_Kang":5427,"tiếng_nói":5428,"Quân_khu":5429,"chữ_cái":5430,"Nakhon_Phanom":5431,"xét_xử":5432,"Bệnh_viện":5433,"Một_số":5434,"Tình_hình":5435,"Vĩnh_An":5436,"mây_tre":5437,"sân_bay":5438,"tiết_lộ":5439,"quen_biết":5440,"Hình_như":5441,"PTNT":5442,"hờn":5443,"huyền_thoại":5444,"núi_":5445,"vỉa_hè":5446,"xinh_đẹp":5447,"xóa_sổ":5448,"phá_hủy":5449,"bộc_bạch":5450,"báo_hiếu":5451,"dự_kiến":5452,"lúa_nước":5453,"_Văn_Dĩa":5454,"Ama_Công":5455,"Cần_Thơ":5456,"Eden":5457,"GSTS":5458,"Sông_Cầu":5459,"hôn_nhân":5460,"kilômet":5461,"vai_trò":5462,"vòi_rồng":5463,"í_dụ":5464,"Ấn_Độ":5465,"chấn_thương":5466,"thàn_mát":5467,"phế_liệu":5468,"phỏng_vấn":5469,"Thổ_Chu":5470,"Thật_ra":5471,"bảo_tồn":5472,"tầm_vông":5473,"xót_xa":5474,"súng_đạn":5475,"Bông_Văn_Dĩa":5476,"Biên_Hòa":5477,"Tiền_Giang":5478,"Yoih":5479,"lựa_chọn":5480,"rải_rác":5481,"tưởng_tượng":5482,"tennis":5483,"xôn_xao":5484,"điềm_":5485,"chặt_chẽ":5486,"khốc_liệt":5487,"Thừa_Thiên":5488,"aymonde_Dien":5489,"Châu_Thành":5490,"đền_bù":5491,"enri_Martin":5492,"dưa_hấu":5493,"Nguyễn_Ái_Quốc":5494,"gian_nan":5495,"thoải_mái":5496,"Nguyễn_Chí_Thanh":5497,"Hai_Bà_Trưng":5498,"phó_chủ_tịch":5499,"120":5500,"31":5501,"37":5502,"41":5503,"4_":5504,"51":5505,"5_triệu":5506,"6_":5507,"700":5508,"97":5509,"900":5510,"BQ":5511,"Bh":5512,"Bé":5513,"Bước":5514,"Bạn":5515,"Bữa":5516,"Biển":5517,"Bài":5518,"Bắt_":5519,"CL":5520,"Du_":5521,"Dương":5522,"Danh_":5523,"Dầu_":5524,"Dưới":5525,"Gò":5526,"Gọi":5527,"Hồng_":5528,"Hợi":5529,"Hóa_":5530,"Henri_Martin":5531,"KS":5532,"Kie":5533,"Lễ":5534,"Lộ":5535,"Lao":5536,"Lắm":5537,"Lợi":5538,"Ma":5539,"My":5540,"Mông":5541,"Mày":5542,"Mành":5543,"Mười_":5544,"Mặc_":5545,"Pơ":5546,"Palmer":5547,"Rời":5548,"Rừng":5549,"Raymonde_Dien":5550,"Sa":5551,"Sợ":5552,"Sông_":5553,"Tố":5554,"Tờ":5555,"Toà":5556,"Tin":5557,"Tiên_":5558,"Tìm":5559,"Tức_":5560,"Udon":5561,"Viện_":5562,"Vũng_":5563,"VKS":5564,"Xá":5565,"Xô":5566,"Xúc":5567,"Xáng":5568,"Xung_":5569,"Xuyên":5570,"Xí_nghiệp":5571,"Zơ":5572,"_y":5573,"_hà":5574,"_Kh":5575,"_nên":5576,"_cơ":5577,"_ạt":5578,"_giúp":5579,"_2004":5580,"_góp":5581,"_khoa":5582,"bơ":5583,"biên":5584,"bơi":5585,"bừng":5586,"bạo":5587,"bại_":5588,"bức_":5589,"bìa":5590,"cừ":5591,"cấy":5592,"cào":5593,"cất_":5594,"cập":5595,"cương_":5596,"cút":5597,"cắp":5598,"cõi":5599,"cạnh_":5600,"dĩ":5601,"dán":5602,"dục":5603,"diệt":5604,"dúi":5605,"dàn":5606,"dòng_":5607,"gục":5608,"gạch":5609,"gọn":5610,"gầy":5611,"hoàn":5612,"hoài":5613,"hít":5614,"ki":5615,"kin":5616,"kiệt":5617,"kẹo":5618,"kno":5619,"lỏ":5620,"lông":5621,"liều":5622,"lừa":5623,"lặp":5624,"lóc":5625,"lái_":5626,"lánh":5627,"lấp_":5628,"ling":5629,"lượm":5630,"mệ":5631,"môi":5632,"mẫn":5633,"mâm":5634,"mạo":5635,"móng":5636,"mắt_":5637,"mồm":5638,"mừng_":5639,"miễn_":5640,"mệnh_":5641,"mượn":5642,"nể":5643,"nông":5644,"nồi":5645,"non":5646,"oong":5647,"oáng":5648,"pra":5649,"pat":5650,"rì":5651,"rạ":5652,"rải":5653,"ran":5654,"rem":5655,"rành_":5656,"rượt":5657,"rớt":5658,"rơm":5659,"rụt":5660,"su":5661,"sông_":5662,"sào":5663,"song_":5664,"sắc_":5665,"tơ":5666,"tậ":5667,"tán":5668,"tinh":5669,"tim":5670,"tấm_":5671,"tắm_":5672,"tưởng_":5673,"ui":5674,"vờ":5675,"vở":5676,"vong":5677,"van":5678,"vời":5679,"vặt":5680,"vua":5681,"vết_":5682,"vòi":5683,"vót":5684,"xăng":5685,"xắn":5686,"xí_nghiệp":5687,"ét_":5688,"íu":5689,"óp":5690,"óc_":5691,"úm":5692,"ýt":5693,"Đá":5694,"Đa_":5695,"Đấy":5696,"Đình_":5697,"Địch":5698,"Đen":5699,"Đài":5700,"Đạt":5701,"Đám":5702,"Đánh":5703,"Đứng":5704,"Đặng_":5705,"đu":5706,"đù":5707,"đẹ":5708,"đờ":5709,"đăng":5710,"đồn":5711,"đắc_":5712,"đấm":5713,"đôi_":5714,"đùi":5715,"đẫm":5716,"điếc":5717,"Ướ":5718,"ưỡi":5719,"ả_X":5720,"ần_tr":5721,"ẵm":5722,"ặm":5723,"ịn":5724,"ốm_":5725,"ỡng_":5726,"ợn":5727,"ngài":5728,"ngắm":5729,"ngạt":5730,"ngậm_":5731,"ngắn_":5732,"_Rô":5733,"_Rừng":5734,"nhá":5735,"nhỉ":5736,"nhọc":5737,"nhọn":5738,"nhánh":5739,"nhấn_":5740,"nhịp":5741,"nhấc":5742,"nhắm_":5743,"chỏ":5744,"chọi":5745,"chấp":5746,"chọc":5747,"chiều_":5748,"chửi":5749,"chục_":5750,"thò":5751,"thái":5752,"thần_":5753,"tháp":5754,"thẩm":5755,"thói_":5756,"trơ":5757,"trổ":5758,"trâu":5759,"trích":5760,"trúng":5761,"trầm_":5762,"trị_":5763,"trộn":5764,"n_ho":5765,"n_tay":5766,"n_kết":5767,"n_hút":5768,"khao":5769,"khát":5770,"khẩn_":5771,"khủng":5772,"ng_rỡ":5773,"ng_hiến":5774,"phì":5775,"phơi":5776,"phiêu_":5777,"phiếu":5778,"i_b":5779,"i_ba":5780,"vài_ba":5781,"giơ":5782,"giục":5783,"giăng":5784,"giận_":5785,"iếp":5786,"quẩn":5787,"nh_đê":5788,"t_vọng":5789,"m_ăn":5790,"m_cụ":5791,"m_giác":5792,"củi":5793,"u_Kế":5794,"Thay":5795,"Thường":5796,"Thân":5797,"Thưa":5798,"cho_phép":5799,"nhà_cửa":5800,"_thần":5801,"_thường":5802,"_thuộc":5803,"hàm":5804,"từ_":5805,"đón_":5806,"đói_":5807,"Chín":5808,"Tranh":5809,"Trương":5810,"Trường_":5811,"bàn_t":5812,"_tả":5813,"_tỉ":5814,"_tử":5815,"_tích":5816,"_tiêu":5817,"_tuổi":5818,"Nhật_":5819,"chỉ_đ":5820,"ân_chương":5821,"công_ăn_":5822,"công_sức":5823,"công_suất":5824,"bịch":5825,"xe_cộ":5826,"ách_tắc":5827,"_lịch":5828,"_lợi":5829,"_loong":5830,"Khuyên":5831,"Khăm_":5832,"Khoa":5833,"Khơm":5834,"đáng_":5835,"bảng_":5836,"_hãi":5837,"_hởi":5838,"_hữu":5839,"Phụ":5840,"Phận":5841,"Phương_":5842,"Phần_":5843,"Phóng_":5844,"tuổi_":5845,"theo_đ":5846,"khoảnh":5847,"_đùng":5848,"_trú":5849,"_tranh":5850,"_trạng":5851,"_trộn":5852,"ăn_xin":5853,"bộ_binh":5854,"hor":5855,"hoan":5856,"hoan_":5857,"_sinh_":5858,"_shop":5859,"_chế":5860,"_chương":5861,"_chơi":5862,"n_thể":5863,"giờ_đây":5864,"tay_chân":5865,"_vật":5866,"_nhỏ":5867,"vợt":5868,"đứng_":5869,"loong_":5870,"chủ_nhiệm":5871,"cơ_bản":5872,"cơ_ngơi":5873,"_phường":5874,"_phút":5875,"_phạt":5876,"buồn_":5877,"Gia":5878,"Giây":5879,"Giữa":5880,"Giải_":5881,"i_thành":5882,"thuở":5883,"thuật":5884,"bao_b":5885,"vụn":5886,"ác_xã":5887,"n_lòng":5888,"n_lỗi":5889,"n_lội":5890,"khó_chịu":5891,"cao_đ":5892,"i_tình":5893,"ghen":5894,"Quí":5895,"Quân":5896,"tử_tội":5897,"một_nửa":5898,"thủ_phủ":5899,"ngay_lập":5900,"ần_hóa":5901,"_nức":5902,"thành_đạt":5903,"khuất":5904,"hồ_hởi":5905,"phố_phường":5906,"điển":5907,"toa":5908,"không_gian":5909,"địa_điểm":5910,"con_số":5911,"nhân_tạo":5912,"nhân_chứng":5913,"khát_vọng":5914,"đại_biểu":5915,"đại_dương":5916,"điện_tử":5917,"nhà_cái":5918,"nhà_riêng":5919,"_Thanh_":5920,"_Phả_X":5921,"thông_qua":5922,"đường_mòn":5923,"cố_tình":5924,"cống_hiến":5925,"dây_điện":5926,"bắt_chuyện":5927,"bắt_tay":5928,"ốc_đảo":5929,"kiếm_ăn":5930,"Phú_H":5931,"trung_tá":5932,"thú_y":5933,"khu_phố":5934,"khu_ủy":5935,"nghị_lực":5936,"hình_như":5937,"hình_sự":5938,"vịt":5939,"hàng_hiệu":5940,"hàng_rào":5941,"kế_t":5942,"thư_":5943,"đàng_hoàng":5944,"hành_nghề":5945,"hành_lang":5946,"Trung_Hữu":5947,"15_":5948,"lưu":5949,"kết_hợp":5950,"thế_là":5951,"quyết_liệt":5952,"_Minh_":5953,"_ngại":5954,"Nghề":5955,"Nghị":5956,"Nghiên_cứu":5957,"Nghị_":5958,"cưỡng_":5959,"cư_trú":5960,"thanh_bình":5961,"kiểm_điểm":5962,"ngoan":5963,"ngoái":5964,"thu_giữ":5965,"thu_hút":5966,"thu_hẹp":5967,"giám_sát":5968,"soi":5969,"lạ_thường":5970,"xử_phạt":5971,"_Hiệp":5972,"cửa_sổ":5973,"mặt_mày":5974,"xác_minh":5975,"cảnh_báo":5976,"cảnh_giác":5977,"đàn_áp":5978,"phân_phối":5979,"chế_biến":5980,"1993":5981,"1997":5982,"Hòa_An":5983,"SVHS":5984,"dahan":5985,"giới_":5986,"trang_bị":5987,"Bộ_trưởng":5988,"thân_xác":5989,"thân_thiết":5990,"1963":5991,"1969":5992,"bệnh_nhân":5993,"phong_tục":5994,"chứng_nhận":5995,"chứng_minh":5996,"Lê_Văn_":5997,"Hồ_Chí":5998,"ili":5999,"sợ_hãi":6000,"xe_ôm":6001,"nguyên_liệu":6002,"25B":6003,"ưu_đãi":6004,"Vì_thế":6005,"độc_đáo":6006,"Huệ":6007,"tiêu_dùng":6008,"Định_":6009,"hội_trường":6010,"mua_sắm":6011,"bồ_":6012,"chuyên_môn":6013,"100_":6014,"vùng_biển":6015,"bản_vẽ":6016,"Tổ_chức":6017,"_gỡ":6018,"_gớm":6019,"_Nhiều":6020,"Hai_Long":6021,"thuốc_phiện":6022,"xứng_":6023,"Thành_ủy":6024,"tiến_độ":6025,"lãnh_tụ":6026,"bù_loong":6027,"bóng_rổ":6028,"ngư_dân":6029,"tím":6030,"nghĩa_vụ":6031,"danh_dự":6032,"phần_mềm":6033,"Tám_Xáng":6034,"dữ_liệu":6035,"lợn":6036,"tiểu_thuy":6037,"thi_hành":6038,"bộ_máy":6039,"Cách_mạng":6040,"huyết":6041,"tỏ_vẻ":6042,"tính_mạng":6043,"quần_đảo":6044,"Gia_Lâm":6045,"thiếu_niên":6046,"thiếu_nữ":6047,"thiếu_sót":6048,"dịu":6049,"dị_dạng":6050,"hiếu_":6051,"tội_nghiệp":6052,"Làm_":6053,"lên_tiếng":6054,"sức_mạnh":6055,"hoàn_thiện":6056,"xin_lỗi":6057,"thừa_kế":6058,"tuyệt_vọng":6059,"Hội_An":6060,"_Trọng_":6061,"mày_mò":6062,"nội_thành":6063,"nh_mẽ":6064,"Khoán":6065,"lặn_lội":6066,"Không_những":6067,"Không_thể":6068,"Hương_Rừng":6069,"Tân_Phước":6070,"gas":6071,"tận_mắt":6072,"atpra":6073,"tiền_l":6074,"Hàng_Mành":6075,"Quỳnh_Lưu":6076,"lợi_ích":6077,"mạnh_mẽ":6078,"tức_là":6079,"tức_tốc":6080,"nhiệt_tình":6081,"tràn_ngập":6082,"Phú_Yên":6083,"Kiểm_lâm":6084,"Tài_nguyên":6085,"dio":6086,"tạm_thời":6087,"tháo_gỡ":6088,"Tổng_hội":6089,"bêtông":6090,"em_trai":6091,"gặp_mặt":6092,"hẻm":6093,"lề_đường":6094,"thiên_hạ":6095,"cô_độc":6096,"thủ_đoạn":6097,"Cơ_quan":6098,"rộn_r":6099,"trưởng_thôn":6100,"khảo_sát":6101,"quanh_năm":6102,"tàn_sát":6103,"thứ_bảy":6104,"Bùi_A":6105,"Kế_hoạch":6106,"cam_kết":6107,"mặc_dù":6108,"sôi_động":6109,"đoàn_kết":6110,"_Nghị":6111,"thâm_niên":6112,"thiệt_hại":6113,"trai_gái":6114,"mãi_lộ":6115,"nối_liền":6116,"sâu_sắc":6117,"Đinh_Lễ":6118,"phần_thưởng":6119,"Thì_ra":6120,"nhà_trọ":6121,"nhà_văn":6122,"đầm_phá":6123,"hồi_hương":6124,"Nghĩa_":6125,"toàn_diện":6126,"Ban_đầu":6127,"kaen":6128,"nỗ_lực":6129,"rộng_lớn":6130,"tăng_cường":6131,"chịu_đựng":6132,"loại_trừ":6133,"ghê_gớm":6134,"gian_khổ":6135,"thợ_mộc":6136,"Cát_Bà":6137,"Mũi":6138,"Sơn_Trà":6139,"bầu_trời":6140,"cân_nhắc":6141,"câm_lặng":6142,"hiền_lành":6143,"tôm_sú":6144,"vội_vã":6145,"xuống_đường":6146,"Đối_với":6147,"ắng_lặng":6148,"làng_nghề":6149,"nhà_thờ":6150,"Khonkaen":6151,"sáng_tạo":6152,"Mukdahan":6153,"dưỡng_khí":6154,"Con_":6155,"Cửa_":6156,"Lập_tức":6157,"Sáu_Kế":6158,"dứt_điểm":6159,"gần_như":6160,"mức_độ":6161,"nạo_vét":6162,"nằm_xuống":6163,"xà_phòng":6164,"yếu_tố":6165,"thầm_lặng":6166,"trục_vớt":6167,"chúng_nó":6168,"tay_trái":6169,"dự_thảo":6170,"Nghi_Xuân":6171,"kêu_gọi":6172,"Bom_":6173,"Hầu_hết":6174,"Jơ_Rai":6175,"Pakse":6176,"cặm_cụ":6177,"hang_động":6178,"out":6179,"sung_sướng":6180,"tò_mò":6181,"xỉu":6182,"Ông_bà":6183,"Ủy_ban":6184,"chép_miệng":6185,"khác_thường":6186,"phúc_thẩm":6187,"giai_đoạn":6188,"như_thế_nào":6189,"chút_ít":6190,"khoảng_cách":6191,"nghiệp_dư":6192,"Giáo_dục":6193,"Bà_Rịa":6194,"thức_ăn":6195,"Nguyễn_Đức_Hòe":6196,"tinh_khiết":6197,"hào_hứng":6198,"Phạm_Văn_Cội":6199,"xâm_lược":6200,"Đặng_Văn_Thanh":6201,"núi_rừng":6202,"BQL":6203,"Bắt_đầu":6204,"Dầu_Giây":6205,"Kieatpra":6206,"Mặc_dù":6207,"Sông_Đà":6208,"Toàn_bộ":6209,"Viện_Kiểm_sát":6210,"Xung_quanh":6211,"Zơra":6212,"cạnh_tranh":6213,"knock":6214,"miễn_phí":6215,"rạng_rỡ":6216,"đẹp_":6217,"thói_quen":6218,"trị_giá":6219,"nh_đênh":6220,"bàn_tán":6221,"chỉ_đạo":6222,"công_ăn_việc_làm":6223,"Khăm_Xúc":6224,"Khơme":6225,"ngay_lập_tức":6226,"Hồ_Chí_Minh":6227,"tiểu_thuyết":6228,"cặm_cụi":6229,"Kieatprapat":6230,"1_triệu":6231,"32":6232,"43":6233,"52":6234,"59":6235,"61":6236,"62":6237,"95":6238,"Ag":6239,"An_":6240,"Adi":6241,"BS":6242,"Bi":6243,"Bồ":6244,"Bấy":6245,"Bao":6246,"Bắt":6247,"Bắc_":6248,"Ber":6249,"Bưởi":6250,"CA":6251,"CM":6252,"Cần":6253,"Cơn":6254,"Chàng":6255,"Cục":6256,"Cty":6257,"Càng":6258,"Côn_":6259,"Cẩm_":6260,"DV":6261,"Dự":6262,"Huyện":6263,"Hậu_":6264,"HHC":6265,"Hiệp":6266,"IP":6267,"Kẻ":6268,"Kể":6269,"Kinh":6270,"Kua":6271,"Kiểu":6272,"Kiêu":6273,"La":6274,"La_":6275,"Lang":6276,"Làng":6277,"Long_":6278,"Lang_":6279,"Lĩnh":6280,"Lớn":6281,"Lúa":6282,"Mã":6283,"Mưa":6284,"Miền":6285,"Mát":6286,"Mục_":6287,"Nào":6288,"Ninh":6289,"Nước_":6290,"Nậm":6291,"Ro":6292,"Sp":6293,"Sức_":6294,"Tô":6295,"Tới":6296,"Tày":6297,"Tra":6298,"Tập":6299,"Tam":6300,"Tác_":6301,"Tập_":6302,"Tùy":6303,"Tòa_án":6304,"TNH":6305,"Vo":6306,"Viết":6307,"Ví_dụ":6308,"VIP":6309,"Xác_":6310,"Yến":6311,"Yết_":6312,"_như":6313,"_ải":6314,"_lại":6315,"_qua":6316,"_học":6317,"_Lan":6318,"_giá":6319,"_điểm":6320,"_xuất":6321,"_chiến":6322,"_500":6323,"ab":6324,"by":6325,"bá":6326,"bướ":6327,"bách":6328,"bám_":6329,"bực_":6330,"bước_":6331,"bắp":6332,"bạt_":6333,"băng_":6334,"bọt":6335,"bầu":6336,"bừng_":6337,"biếu":6338,"bưởi":6339,"cỗ":6340,"cự":6341,"cong":6342,"cân":6343,"cước":6344,"câm":6345,"cài":6346,"dỗ":6347,"dành_":6348,"dần_":6349,"duyên":6350,"dẫu":6351,"dẫn_":6352,"el":6353,"gã":6354,"gõ":6355,"gọ":6356,"gay":6357,"gươ":6358,"gương":6359,"gặt":6360,"gậy":6361,"gạt":6362,"gánh_":6363,"hẳ":6364,"hồng_":6365,"hương_":6366,"hăng":6367,"hột":6368,"hảo":6369,"hốc":6370,"hùng_":6371,"hầm_":6372,"hiển_":6373,"hốt":6374,"hụt":6375,"huống_":6376,"kệ":6377,"kong":6378,"kinh":6379,"kiều_":6380,"kim_":6381,"kẹt":6382,"ló":6383,"lỡ":6384,"liên":6385,"lục":6386,"lắc":6387,"lầm":6388,"lắp":6389,"lôi_":6390,"lính_":6391,"mẻ":6392,"mỹ":6393,"mai":6394,"mỏi":6395,"miệt":6396,"men":6397,"mắng":6398,"mốc":6399,"mang_":6400,"mệt":6401,"ne":6402,"net":6403,"nấy":6404,"náo":6405,"nản":6406,"nặc_":6407,"nín":6408,"não":6409,"nắng_":6410,"nếu_":6411,"nâng_":6412,"rú":6413,"rũ":6414,"ròng":6415,"rực":6416,"rạng":6417,"rụng":6418,"rắc_":6419,"ron":6420,"ròng_":6421,"rầm_":6422,"rọt":6423,"rứa":6424,"rựa":6425,"rưỡi":6426,"ss":6427,"sò":6428,"sần":6429,"sim":6430,"sơn_":6431,"sườn":6432,"sạch_":6433,"sụp":6434,"te":6435,"tao":6436,"tiên_":6437,"tôn":6438,"tặc":6439,"tái_":6440,"tiện_":6441,"tiệc":6442,"tượng_":6443,"tiêm":6444,"tới_t":6445,"uần":6446,"va":6447,"vượ":6448,"va_":6449,"váng":6450,"vọt":6451,"vẫy":6452,"vựa":6453,"vùi":6454,"vĩnh_":6455,"viêm":6456,"vướng_":6457,"wa":6458,"xới":6459,"xăm":6460,"xim":6461,"xít":6462,"Áo":6463,"Ân":6464,"ãnh":6465,"ì_":6466,"íp":6467,"òm":6468,"õm":6469,"ú_":6470,"úy":6471,"Đề":6472,"Đời":6473,"Đâu":6474,"Đành":6475,"Điều_":6476,"Động":6477,"Đèn":6478,"ĐBS":6479,"đơ":6480,"đương":6481,"đời_":6482,"đặc":6483,"đậu_":6484,"được_":6485,"ưỡng":6486,"ẹn_ng":6487,"ẻo":6488,"ếp":6489,"ễn":6490,"ệch":6491,"ọn_l":6492,"ốp":6493,"ốn_":6494,"ộp":6495,"ởi_t":6496,"ỡi_":6497,"ữ_đoàn":6498,"_Nhàn":6499,"_Pẹt":6500,"CTP":6501,"ngỡ":6502,"ngần":6503,"ngách":6504,"ngắt":6505,"ngặt":6506,"ngâm":6507,"ngát":6508,"ngạc":6509,"ngóng":6510,"ngòi_":6511,"ngột_":6512,"ngồi_":6513,"ngược_lại":6514,"nhe":6515,"nhô":6516,"nhả":6517,"nhở":6518,"nhuận":6519,"nhằn":6520,"nhốt":6521,"nháy":6522,"chả":6523,"chao":6524,"chuộ":6525,"châu":6526,"châm":6527,"chát":6528,"chằm":6529,"chóc":6530,"chập_":6531,"chốc":6532,"chôn_":6533,"chầu":6534,"chậm_":6535,"chìm_":6536,"chừng_":6537,"chốt":6538,"chằng_":6539,"chằm_":6540,"chọn_l":6541,"thí":6542,"thao":6543,"thải":6544,"thăng":6545,"thiêng":6546,"thắc_":6547,"thấm":6548,"thăm_":6549,"thấm_":6550,"thốt":6551,"thèm":6552,"_Duy":6553,"_Dũng":6554,"_Cường":6555,"_Cát":6556,"_Cút":6557,"trố":6558,"trữ":6559,"trân_":6560,"triền":6561,"trinh_":6562,"trưng":6563,"trấn_":6564,"trôi_":6565,"triết_":6566,"n_tu":6567,"n_nghị":6568,"n_hình":6569,"n_cảnh":6570,"n_dẹp":6571,"khiển":6572,"khởi":6573,"khôi_":6574,"khôn_":6575,"khởi_t":6576,"ng_qu":6577,"ng_sốt":6578,"phi":6579,"phu":6580,"phao":6581,"phan":6582,"phạt":6583,"phạm_":6584,"phẫu_":6585,"photo":6586,"phẳng_l":6587,"vàn":6588,"giận":6589,"giết":6590,"giặt":6591,"giùm":6592,"quơ":6593,"quật":6594,"quấn":6595,"nh_thành":6596,"t_mù":6597,"t_ngã":6598,"cán":6599,"cáp":6600,"cám_":6601,"cá_c":6602,"uy_Ng":6603,"u_mến":6604,"Thợ":6605,"Tháng":6606,"Thiệu":6607,"Tham_":6608,"Tháng_":6609,"Thượng_tá":6610,"cho_nên":6611,"nghênh":6612,"ông_tố":6613,"điên":6614,"nhà_s":6615,"họng":6616,"họ_hàng":6617,"_thu":6618,"_thai":6619,"_tháng":6620,"_Xuyên":6621,"_Xẩm_":6622,"cản_tr":6623,"Chư":6624,"Chu_":6625,"Triều":6626,"Trúc":6627,"Trực":6628,"Trăng":6629,"thì_th":6630,"bài_học":6631,"bài_thơ":6632,"_tường":6633,"_tùng":6634,"_tiên":6635,"_tinh":6636,"_tâm":6637,"nón":6638,"Nha_":6639,"Nhận":6640,"Nhất_":6641,"Nhiệm_vụ":6642,"chỉnh_":6643,"chỉ_thị":6644,"Nga":6645,"Ngôi":6646,"Ngoại_":6647,"_Nby":6648,"mài":6649,"màu_":6650,"ngày_tháng":6651,"ân_cần":6652,"ân_hận":6653,"công_sự":6654,"công_bằng":6655,"công_cuộc":6656,"công_chức":6657,"tiến_bộ":6658,"xe_h":6659,"chiếm_":6660,"chiến_l":6661,"_luyện":6662,"_lớn":6663,"Kha":6664,"Khang":6665,"Khác":6666,"Khắc_":6667,"Khệt":6668,"_dị":6669,"_dày":6670,"_dẫn":6671,"_dành":6672,"_diệu":6673,"_dưỡng":6674,"_Qu":6675,"_Quốc":6676,"máu_":6677,"_hướng":6678,"Phòng":6679,"Phong_":6680,"chít":6681,"chí_hướng":6682,"chịt":6683,"khoanh":6684,"khoăn":6685,"khoáng":6686,"khoét":6687,"khoai_":6688,"_đơn":6689,"_đắng":6690,"_đài":6691,"_đắp":6692,"_đẩy":6693,"_đoán":6694,"vì_sao":6695,"phá_án":6696,"_trở":6697,"_trường":6698,"_trọng":6699,"đề_phòng":6700,"ăn_ở":6701,"ăn_học":6702,"ăn_khoăn":6703,"_mắt":6704,"_mối":6705,"bột":6706,"cứ_thế":6707,"hoắt":6708,"hoãn":6709,"_sung":6710,"_sánh":6711,"lớn_l":6712,"sự_kiện":6713,"_chữa":6714,"_chọi":6715,"_chuyền":6716,"n_thất":6717,"tam_giác":6718,"ồng_trại":6719,"ồng_phong":6720,"ung_l":6721,"_nhập":6722,"cách_thức":6723,"loạn":6724,"loãng":6725,"tàu_":6726,"ết_tật":6727,"chủng":6728,"chủ_nhân":6729,"chủ_lực":6730,"cơ_chế":6731,"nghiệt_ngã":6732,"_phú":6733,"_phào":6734,"đồng_hành":6735,"ường_trình":6736,"bảo_mật":6737,"Gió":6738,"Gianh":6739,"i_thảo":6740,"làm_nên":6741,"làm_đồng":6742,"làm_ruộng":6743,"làm_chứng":6744,"làm_giàu":6745,"làm_mướn":6746,"giản_":6747,"n_trẻ":6748,"n_lực":6749,"cây_c":6750,"cây_b":6751,"n_tụ":6752,"n_tập":6753,"quản":6754,"quản_tr":6755,"quá_":6756,"quá_tải":6757,"báo_động":6758,"xuôi_":6759,"tự_vệ":6760,"Quá":6761,"Quay":6762,"tổ_tiên":6763,"chức_vụ":6764,"hội_thảo":6765,"một_ít":6766,"_câu":6767,"am_mê":6768,"tình_nhân":6769,"tình_cảnh":6770,"phát_sinh":6771,"phát_hành":6772,"phát_xít":6773,"_nát":6774,"thành_phần":6775,"thành_thạo":6776,"bỏ_qua":6777,"bỏ_mối":6778,"thứ_trưởng":6779,"ong_Khai":6780,"10_triệu":6781,"toát":6782,"to_đùng":6783,"không_chỉ":6784,"địa_vị":6785,"_biệt":6786,"con_em":6787,"Nam_Du":6788,"nhỏ_nh":6789,"nhân_đạo":6790,"khánh_thành":6791,"liên_kết":6792,"hoành_":6793,"kinh_hoàng":6794,"kinh_khủng":6795,"kinh_ngạc":6796,"điệp":6797,"_Chiểu":6798,"phục_":6799,"nhà_giáo":6800,"nhà_khoa_học":6801,"thực_hành":6802,"thực_đơn":6803,"thực_địa":6804,"chính_đáng":6805,"_Thắng":6806,"_Phằn":6807,"thông_thoáng":6808,"thông_điệp":6809,"lý_lịch":6810,"quê_nhà":6811,"quê_quán":6812,"hiện_th":6813,"đường_kính":6814,"đường_ray":6815,"chuồng_trại":6816,"cố_hương":6817,"trả_góp":6818,"vô_h":6819,"vô_tư":6820,"bất_chính":6821,"bất_thường":6822,"bất_tỉnh":6823,"bất_lực":6824,"bất_hợp_pháp":6825,"_Văn_Lâm":6826,"dây_chuyền":6827,"cụ_già":6828,"ng_lão":6829,"kiến_nghị":6830,"nguy_cơ":6831,"người_yêu":6832,"mở_cửa":6833,"trung_thực":6834,"đổ_x":6835,"thợ_hồ":6836,"tài_nguyên":6837,"TP_":6838,"tham_quan":6839,"đối_xử":6840,"Loọng":6841,"sinh_sản":6842,"đàm_":6843,"_Nguyên_":6844,"ruột_":6845,"văn_nghệ":6846,"văn_chương":6847,"Thanh_Sơn":6848,"tưới":6849,"tư_tưởng":6850,"_ngán":6851,"_ngàng":6852,"bình_dị":6853,"gàu":6854,"gà_chọi":6855,"xuất_sắc":6856,"Nhàn":6857,"quan_chức":6858,"ngon_":6859,"ngoắt":6860,"thu_gom":6861,"dù_sao":6862,"Trường_Sa":6863,"Nguyễn_Văn":6864,"Nguyễn_Công_":6865,"chiến_hào":6866,"so_sánh":6867,"sửng_sốt":6868,"lạnh_":6869,"đánh_phá":6870,"đánh_đập":6871,"Ba_Châu":6872,"Ba_Duẩn":6873,"_Hữu_":6874,"_HCM":6875,"kẻo":6876,"kẻ_thù":6877,"khủng_hoảng":6878,"lãnh":6879,"tâm_trạng":6880,"giải_trình":6881,"12_":6882,"muôn_":6883,"phân_cấp":6884,"phân_biệt":6885,"phân_nửa":6886,"1992":6887,"1995":6888,"1996":6889,"das":6890,"đồi_":6891,"Thịnh":6892,"Thị_Th":6893,"_xác":6894,"thân_thể":6895,"thân_nhân":6896,"thân_tình":6897,"thân_phận":6898,"1960":6899,"1968":6900,"mô_tả":6901,"Đồng_D":6902,"nghỉ_dưỡng":6903,"Lê_Văn":6904,"thương_lái":6905,"thương_mại":6906,"Hồ_Văn_":6907,"Hồ_H":6908,"Hồ_Trọng_":6909,"võng":6910,"khí_thế":6911,"phương_pháp":6912,"ghen_tu":6913,"Đông_Nam_":6914,"Tư_vấn":6915,"Tư_Mau":6916,"chăm_chỉ":6917,"1971":6918,"1978":6919,"thủy_điện":6920,"Bình_Minh":6921,"Bình_Thạnh":6922,"lũi":6923,"viru":6924,"Địa_":6925,"ban_ngày":6926,"ban_chấp_hành":6927,"hội_chợ":6928,"hội_nhập":6929,"bồ_câu":6930,"đất_đai":6931,"khả_nghi":6932,"quân_sự":6933,"quân_tình_nguyện":6934,"tập_hợp":6935,"tập_kết":6936,"ngủi":6937,"vật_chất":6938,"thở_phào":6939,"cung_ứng":6940,"nổi_bật":6941,"khuyết_tật":6942,"hoàn_chỉnh":6943,"Đồng_thời":6944,"Trần_Minh_":6945,"Thành_Bỉ":6946,"Tân_Bình":6947,"heo_h":6948,"mơ_ước":6949,"ra_vào":6950,"Phạm_Ngọc_":6951,"nhất_định":6952,"trợ_lý":6953,"Quảng_Ninh":6954,"thơ_":6955,"thất_vọng":6956,"Trần_Ngọc_":6957,"cầu_dao":6958,"Cuộc_sống":6959,"danh_hiệu":6960,"lệch":6961,"mãnh_":6962,"sư_đoàn":6963,"tiểu_khu":6964,"phòng_hộ":6965,"cúp":6966,"huyết_":6967,"tỏa":6968,"Nguyễn_Thị_":6969,"thiếu_tá":6970,"bổ_sung":6971,"đặt_cược":6972,"ly_dị":6973,"lên_lớp":6974,"1985":6975,"1986":6976,"dưỡng_lão":6977,"ghi_nhận":6978,"lưu_ý":6979,"nghiêm_trọng":6980,"biểu_hiện":6981,"biểu_tượng":6982,"hoang_dã":6983,"hỏi_":6984,"chân_dung":6985,"Khoảng":6986,"Khoa_học":6987,"sở_hữu":6988,"đêm_":6989,"che_ch":6990,"trái_đất":6991,"Thủ_phạm":6992,"Không_khí":6993,"Nông_nghiệp":6994,"Năm_Lời":6995,"đẩy_mạnh":6996,"quyền_":6997,"hiệu_trưởng":6998,"mở_đầu":6999,"bún":7000,"tận_tay":7001,"tận_dụng":7002,"Quảng_Trị":7003,"tin_vui":7004,"tin_cậy":7005,"kiên_cố":7006,"đích_thân":7007,"ới_lại":7008,"ới_đây":7009,"lợi_dụng":7010,"lợi_nhuận":7011,"Duy_Xuyên":7012,"mềm_":7013,"qua_ngày":7014,"Thời_điểm":7015,"định_cư":7016,"Tài_chính":7017,"non_trẻ":7018,"sang_nhượng":7019,"chi_tiêu":7020,"Hữu_Nghị":7021,"em_gái":7022,"hải_quân":7023,"hải_sản":7024,"thiên_nhiên":7025,"thẩm_quyền":7026,"thẩm_vấn":7027,"trong_sáng":7028,"đội_trưởng":7029,"cô_giáo":7030,"tối_đa":7031,"150_":7032,"Báo_cáo":7033,"hiểm_trở":7034,"lênh_đênh":7035,"tủ_lạnh":7036,"nhập_cư":7037,"nhập_khẩu":7038,"chung_cư":7039,"Trị_An":7040,"Trương_Xuân_":7041,"cứu_hộ":7042,"_WHADV":7043,"giảng_đường":7044,"cần_cẩu":7045,"cần_mẫn":7046,"thứ_ba":7047,"Tiếp_tục":7048,"biết_bao":7049,"Bùi_Văn_":7050,"Xây_dựng":7051,"Xây_Xẩm_":7052,"sai_phạm":7053,"_Nghĩa":7054,"nhìn_":7055,"thiệt_mạng":7056,"t_mùng":7057,"t_mỏi":7058,"Nhân_dân":7059,"trai_tráng":7060,"bồi_dưỡng":7061,"tín_dụng":7062,"bó_tay":7063,"lời_nói":7064,"rừng_núi":7065,"rừng_phòng_hộ":7066,"tại_chức":7067,"vòng_hoa":7068,"chết_chóc":7069,"phấn_đấu":7070,"Chợ_L":7071,"Quân_đội":7072,"cầm_đầu":7073,"Dân_làng":7074,"Kinh_nghiệm":7075,"biển_số":7076,"kính_hiển_":7077,"lây_l":7078,"minh_chứng":7079,"mong_muốn":7080,"nỗi_":7081,"rộng_rãi":7082,"xương_cá":7083,"ngao_ngán":7084,"chu_cấp":7085,"sống_chết":7086,"Giờ_đây":7087,"thợ_máy":7088,"bút_chì":7089,"Mekong":7090,"ba_gác":7091,"dụm":7092,"mịt_mù":7093,"mịt_mùng":7094,"ríu_":7095,"vòm":7096,"óm_lại":7097,"thẳng_th":7098,"khám_nghiệm":7099,"Phu_Phả_X":7100,"Phu_Cút":7101,"khuyến_khích":7102,"đèn_pin":7103,"Bị_cáo":7104,"Lai_Châu":7105,"Liên_Xô":7106,"Mường_Pẹt":7107,"Noong_Khai":7108,"Nội_vụ":7109,"cay_đắng":7110,"cực_kỳ":7111,"lắp_đặt":7112,"năng_suất":7113,"xấu_số":7114,"nhận_thức":7115,"chống_chọi":7116,"chơi_vơi":7117,"trìu_mến":7118,"lành_mạnh":7119,"cơ_quan_":7120,"hiệp_định":7121,"thúc_đẩy":7122,"tươi_cười":7123,"Ia_Me":7124,"bọ_hà":7125,"cuồng_phong":7126,"cọp":7127,"hối_hả":7128,"kiệt_sức":7129,"kín_đáo":7130,"lầm_lũi":7131,"rùng_mình":7132,"san_sát":7133,"vinh_quang":7134,"thấu_hiểu":7135,"khẩu_":7136,"đám_cưới":7137,"baht":7138,"bốc_vác":7139,"Nguyên_nhân":7140,"nghèo_khó":7141,"kiến_trúc":7142,"Cảnh_sát":7143,"lạc_bộ":7144,"túi_xách":7145,"Lê_Huy_Ng":7146,"điềm_tĩnh":7147,"Bhling":7148,"Lộc_":7149,"Lao_động":7150,"Pơloong_":7151,"Tiên_Long":7152,"Tức_là":7153,"Vũng_Tàu":7154,"bức_xúc":7155,"dòng_chảy":7156,"lái_buôn":7157,"mệt_mỏi":7158,"mạo_hiểm":7159,"rành_rọt":7160,"vết_thương":7161,"Đa_số":7162,"ngậm_ngùi":7163,"ngắn_ngủi":7164,"nhấn_mạnh":7165,"n_hoi":7166,"phiêu_bạt":7167,"Trương_Văn_Lâm":7168,"Nhật_Bản":7169,"theo_đuổi":7170,"hoan_nghênh":7171,"bao_bọc":7172,"thư_ký":7173,"Nghị_quyết":7174,"cưỡng_hiếp":7175,"bồ_bịch":7176,"xứng_đáng":7177,"Bom_Loọng":7178,"Agrí":7179,"Adidas":7180,"Bao_giờ":7181,"Berlin":7182,"Côn_Đảo":7183,"La_Gi":7184,"TNHH":7185,"Yết_Kiêu":7186,"bám_trụ":7187,"bừng_bừng":7188,"dành_dụm":7189,"dần_dần":7190,"gươl":7191,"hẳn_hoi":7192,"nặc_danh":7193,"nắng_mưa":7194,"rắc_rối":7195,"sạch_sẽ":7196,"tới_tấp":7197,"vượt_":7198,"vướng_mắc":7199,"ximăng":7200,"ĐBSCL":7201,"ẹn_ngào":7202,"ngột_ngạt":7203,"chìm_xuồng":7204,"chằng_chịt":7205,"chằm_chằm":7206,"chọn_lựa":7207,"thắc_mắc":7208,"trân_trọng":7209,"trấn_an":7210,"trôi_dạt":7211,"khôi_phục":7212,"khởi_tố":7213,"phẫu_thuật":7214,"phẳng_lì":7215,"cá_cược":7216,"Tháng_Tám":7217,"cản_trở":7218,"Nhất_là":7219,"xe_hơi":7220,"Khệt_Phằn":7221,"lớn_lao":7222,"cây_bút":7223,"đổ_xô":7224,"Hồ_Trọng_Bình":7225,"ghen_tuông":7226,"Đông_Nam_Á":7227,"virus":7228,"Xây_Xẩm_Bun":7229,"kính_hiển_vi":7230,"Lê_Huy_Ngọ":7231,"Pơloong_Zơra":7232,"3_triệu":7233,"47":7234,"49":7235,"63":7236,"72":7237,"76":7238,"77":7239,"84":7240,"800":7241,"Ax":7242,"BH":7243,"Bá":7244,"Bí":7245,"Bơ":7246,"Bả":7247,"Bỏ":7248,"Biên":7249,"Bạn_":7250,"Bởi_":7251,"Biết_":7252,"CC":7253,"Cố":7254,"Câu":7255,"Cửa":7256,"Cặp":7257,"Câu_":7258,"Cánh":7259,"Cậu":7260,"Cấp_":7261,"Cẩm":7262,"Cầu":7263,"Cil":7264,"Cuối":7265,"Cien":7266,"Cap":7267,"DĐ":7268,"Dương_":7269,"Dấu":7270,"Hễ":7271,"Hệ":7272,"Hổ":7273,"Hộ":7274,"Hiệ":7275,"Hay":7276,"Hoàn":7277,"Hầm":7278,"Hảo":7279,"Hòa_":7280,"Hưởng_":7281,"Hôm_qua":7282,"Hóc_":7283,"In":7284,"Isan":7285,"Jim":7286,"Ký":7287,"Kơ":7288,"Kỷ":7289,"Kịch":7290,"Ken":7291,"KCN":7292,"Lò":7293,"Lớ":7294,"Lấy":7295,"Lưng":7296,"Lục_":7297,"Lưu_":7298,"Luận":7299,"Lớp":7300,"Lữ_đoàn":7301,"Mo":7302,"Ma_":7303,"Mắt":7304,"Mua":7305,"Môn":7306,"Mạnh":7307,"Mậu":7308,"Mat":7309,"Mới_đây":7310,"Niên":7311,"Nil":7312,"Oly":7313,"Quy":7314,"Ruộ":7315,"Rạng":7316,"Rùa":7317,"Rma":7318,"Sư":7319,"Suy":7320,"Sống":7321,"Sắp":7322,"Sót":7323,"Suối":7324,"Sak":7325,"TN":7326,"TĐ":7327,"Tử":7328,"Tự":7329,"Tường":7330,"Tất_":7331,"Tại_":7332,"Tấn":7333,"Tam_":7334,"Tuyên":7335,"Tỉnh":7336,"Tụi":7337,"Tamp":7338,"Tiệp":7339,"Tường_trình":7340,"Tóm_lại":7341,"V_":7342,"Vị":7343,"Vang":7344,"Ván":7345,"Vinh_":7346,"Vườn":7347,"Vui":7348,"WB":7349,"Wai":7350,"Web":7351,"Was":7352,"Xoan":7353,"_số":7354,"_khi":7355,"_âu":7356,"_đá":7357,"_kho":7358,"_máy":7359,"_bao":7360,"_giao":7361,"_nghị":7362,"_nghiệm":7363,"_cảm":7364,"_địch":7365,"_yếu":7366,"_3_":7367,"ad":7368,"awa":7369,"be":7370,"bẻ":7371,"bụ":7372,"bi_":7373,"bới":7374,"bùng":7375,"bồng":7376,"bết":7377,"bưng":7378,"bồn":7379,"ber":7380,"bến_":7381,"buốt":7382,"bãi_":7383,"bẵm":7384,"cù":7385,"còng":7386,"cạn":7387,"cành":7388,"cúng":7389,"cọng":7390,"cắt_":7391,"cãi":7392,"cai_":7393,"cấm_":7394,"cắm_":7395,"cuộn":7396,"cãi_":7397,"ctông":7398,"dè":7399,"dải":7400,"dan":7401,"deo":7402,"dạn":7403,"dương_":7404,"dối":7405,"diễ":7406,"dắt_":7407,"dải_":7408,"dẫm":7409,"duyệt":7410,"díu":7411,"dông_tố":7412,"ee":7413,"ex":7414,"eng":7415,"gí":7416,"gả":7417,"gập":7418,"gam":7419,"gối":7420,"gầm":7421,"gấp_":7422,"gùi":7423,"gợi_":7424,"gộp":7425,"hư":7426,"hông":7427,"háo":7428,"hin":7429,"hung_":7430,"hạnh":7431,"héo":7432,"hai_":7433,"hậu":7434,"hiểu_":7435,"hủy":7436,"hiểm":7437,"hùm":7438,"hữu":7439,"hing":7440,"huyện_":7441,"h_Rô":7442,"ih":7443,"kè":7444,"keo":7445,"ken":7446,"kru":7447,"kíp":7448,"lè":7449,"lố":7450,"lụ":7451,"lủ":7452,"lông_":7453,"lán":7454,"lách":7455,"lật_":7456,"lia":7457,"lậu":7458,"lóng_":7459,"lùng_":7460,"lĩnh":7461,"lựa":7462,"lùa":7463,"lâng":7464,"lìa":7465,"mi":7466,"my":7467,"mổ":7468,"mớ":7469,"mỡ":7470,"mải":7471,"man":7472,"miết":7473,"miên":7474,"miệt_":7475,"mạch_":7476,"mẫu_":7477,"mới_t":7478,"nô":7479,"nử":7480,"nuố":7481,"nan":7482,"nái":7483,"nắp":7484,"nạp":7485,"nép":7486,"nứa":7487,"nấm_":7488,"ner":7489,"nứt":7490,"náu":7491,"nuốt":7492,"nơi_":7493,"nếm":7494,"oo":7495,"oạc":7496,"oai_":7497,"oằn":7498,"rà":7499,"rè":7500,"rê":7501,"rò":7502,"rả":7503,"rắ":7504,"rờ":7505,"ranh":7506,"rang":7507,"rường":7508,"rung_":7509,"râm_":7510,"rực_":7511,"rung":7512,"rần_":7513,"rảnh":7514,"ráp":7515,"rầu":7516,"rót":7517,"roi":7518,"rlâng":7519,"sạ":7520,"sôi":7521,"sơn":7522,"sen":7523,"sạp":7524,"siêu":7525,"son":7526,"sóng_":7527,"sầm_":7528,"sừng_":7529,"sắm_":7530,"sẹo":7531,"tề":7532,"tọ":7533,"tăm":7534,"tiết":7535,"teo":7536,"tắt":7537,"táo":7538,"tút":7539,"tia":7540,"tắt_":7541,"tít":7542,"tản_":7543,"tôn_":7544,"ter":7545,"tòa_":7546,"tẩy":7547,"tĩnh_":7548,"tột_":7549,"tủi":7550,"tới_":7551,"tuột":7552,"ví":7553,"vù":7554,"vĩ":7555,"vạ":7556,"vẹ":7557,"vườ":7558,"vân":7559,"ván":7560,"vanh_":7561,"va_đ":7562,"vạch":7563,"vánh":7564,"viễn":7565,"vắng_lặng":7566,"war":7567,"xì":7568,"xạ":7569,"xinh":7570,"xát":7571,"xấp":7572,"xích":7573,"xcơ":7574,"xám":7575,"xướng":7576,"xót":7577,"xịn":7578,"yể":7579,"y_d":7580,"ymp":7581,"za":7582,"zan":7583,"Ái":7584,"Âu":7585,"Ý_tưởng":7586,"ãnh_":7587,"ím":7588,"ô_địch":7589,"ý_m":7590,"ý_đồ":7591,"Đạ":7592,"Đất_":7593,"Điền":7594,"Đừng":7595,"Đua":7596,"Đẹp":7597,"Đợi":7598,"Đơn_":7599,"Đầu_":7600,"Điểm":7601,"Đỉnh":7602,"Điện_":7603,"đĩ":7604,"đũ":7605,"đẽ":7606,"đụ":7607,"đới":7608,"đong":7609,"đận":7610,"đức":7611,"đực":7612,"đương_":7613,"điệu":7614,"đạm":7615,"đắp":7616,"đụng":7617,"đài_":7618,"đập_":7619,"đậm_":7620,"đùa":7621,"đưa_":7622,"đìa":7623,"đượm":7624,"ạn_th":7625,"ạ_tầng":7626,"ả_lời":7627,"Ấy":7628,"ẳm":7629,"ặn_":7630,"ếch":7631,"ện":7632,"ỏm":7633,"ỏng":7634,"ồ_ạt":7635,"ổn_ng":7636,"ỗng":7637,"ộng_t":7638,"ớn_":7639,"ừm":7640,"ựt":7641,"_Ni":7642,"_Ná":7643,"_Năm":7644,"_Võ":7645,"_Viên":7646,"_Vạn":7647,"_Vẳn":7648,"_Si":7649,"_Sương":7650,"_Sen":7651,"_Shin":7652,"ngất":7653,"ngây":7654,"ngực":7655,"ngưng":7656,"ngần_":7657,"nguôi":7658,"ngôn_":7659,"ngẩn_":7660,"ngổn_ng":7661,"nhi":7662,"nhã":7663,"nhơ":7664,"nhái":7665,"nhăn_":7666,"nhát":7667,"nhiệt":7668,"nhắm":7669,"nhạt":7670,"nhiệm":7671,"nhím":7672,"chừ":7673,"chày":7674,"chải":7675,"chán":7676,"chăn":7677,"chành":7678,"chinh_":7679,"chội":7680,"chăng":7681,"chéo":7682,"chiêu":7683,"chòng_":7684,"chan_":7685,"chùi":7686,"chắp_":7687,"chìa":7688,"chớp":7689,"thè":7690,"thiê":7691,"thập":7692,"thầm":7693,"thọc":7694,"thấu":7695,"thôi_":7696,"thăng_":7697,"thán_":7698,"thắng_":7699,"thía":7700,"thắng_l":7701,"thung_l":7702,"thẳm":7703,"_Dâu":7704,"_Cảnh":7705,"_Cậm":7706,"trân":7707,"trương":7708,"tráo":7709,"trời_":7710,"trùng_":7711,"trăng_":7712,"trạm_":7713,"trệt":7714,"trêu_":7715,"n_W":7716,"n_x":7717,"n_con":7718,"n_Quốc":7719,"n_phép":7720,"n_kịch":7721,"n_kém":7722,"n_hò":7723,"khăn_":7724,"khung_":7725,"khôn":7726,"khen":7727,"khung":7728,"khiêng":7729,"khốc":7730,"khép_":7731,"ng_như":7732,"ng_hồ":7733,"ng_Trung":7734,"ườm_":7735,"phai":7736,"phổi":7737,"phật":7738,"phiền":7739,"phiền_":7740,"phun":7741,"phẫn_":7742,"lào":7743,"i_ro":7744,"i_Đèn":7745,"giã":7746,"giỗ":7747,"giường_":7748,"iếu_":7749,"quấy":7750,"quít":7751,"quầng":7752,"quẹo":7753,"nh_rạch":7754,"nh_lệch":7755,"t_l":7756,"t_cống":7757,"t_giây":7758,"t_quãng":7759,"cát_":7760,"m_làng":7761,"cói":7762,"có_thai":7763,"mộng":7764,"u_đ":7765,"Thiện":7766,"Thời":7767,"Thăng":7768,"Thưởng":7769,"Thượng":7770,"Thăng_":7771,"Thuyền":7772,"Thạch_":7773,"Thượng_":7774,"Thak":7775,"Thuyền_trưởng":7776,"Thiếu_":7777,"a_xe":7778,"a_khóa":7779,"ướt_":7780,"choáng_":7781,"chock":7782,"ail":7783,"nghiên_":7784,"nghiệt":7785,"nghẹn_ngào":7786,"coi_thường":7787,"KTX":7788,"đinh":7789,"điên_":7790,"điêu_":7791,"anmar":7792,"nhàn":7793,"nhà_m":7794,"họp_":7795,"rau_":7796,"_thông_":7797,"_thước":7798,"_thiết":7799,"_thẩm":7800,"hàm_":7801,"_Xanh":7802,"aul":7803,"cải_th":7804,"contai":7805,"Chi":7806,"Chiế":7807,"Chao":7808,"Chân_":7809,"Chạy":7810,"Chắc_":7811,"Champ":7812,"Trưa":7813,"Trãi":7814,"Truyền":7815,"Trả_lời":7816,"để_ý":7817,"để_dành":7818,"bài_":7819,"bà_mẹ":7820,"bàn_bạc":7821,"bà_cụ":7822,"_tá":7823,"_tân":7824,"_tìm":7825,"_tấu":7826,"_tọa":7827,"Nhúm":7828,"chỉ_tiêu":7829,"chỉ_dẫn":7830,"iểng":7831,"Ngân_":7832,"Ngọc_":7833,"Ngược_lại":7834,"Nguồn":7835,"màn":7836,"mành":7837,"ngày_tr":7838,"ngày_sinh":7839,"ân_thủ":7840,"công_nhận":7841,"công_phu":7842,"chúc":7843,"chú_trọng":7844,"tiếc_":7845,"_lũ":7846,"_lở":7847,"_lượng":7848,"_lộn":7849,"_lửng":7850,"_lãnh":7851,"Khải":7852,"Khắp":7853,"Khánh_":7854,"Khát_":7855,"_dạ":7856,"_dỗ":7857,"_dữ":7858,"_dịch":7859,"_dặn":7860,"mát_":7861,"mái_t":7862,"viện_trưởng":7863,"_hức":7864,"_hỏi":7865,"_hạ_tầng":7866,"Phước":7867,"Phiên":7868,"Phôn":7869,"Phòng_":7870,"Pháp_":7871,"Phát_":7872,"tuý":7873,"tuần_l":7874,"tuân_thủ":7875,"áo_l":7876,"khoải":7877,"khoác":7878,"khoảnh_":7879,"_đà":7880,"_đề":7881,"_đau":7882,"_đâu":7883,"_đạc":7884,"_điện_t":7885,"ăn_nhậu":7886,"ăn_thua":7887,"_mọ":7888,"_may":7889,"_mẩn":7890,"bộ_đồ":7891,"hoạn":7892,"hoảng_":7893,"hoạn_th":7894,"email":7895,"_sợ":7896,"_săn":7897,"_sức":7898,"quyến_":7899,"a_đêm":7900,"_chợ":7901,"_chất":7902,"_chấp":7903,"_chướng":7904,"n_thờ":7905,"tan_":7906,"tan_t":7907,"giờ_phút":7908,"tay_":7909,"_vơ":7910,"_viết":7911,"_viện":7912,"_văn":7913,"_vực":7914,"_nhí":7915,"_nhận":7916,"_nhõm":7917,"cách_trở":7918,"bar":7919,"bazan":7920,"bố_già":7921,"ám_ảnh":7922,"xã_giao":7923,"đứt_quãng":7924,"loa":7925,"lo_âu":7926,"tàn":7927,"thế_chấp":7928,"chủ_ch":7929,"1950":7930,"1945":7931,"cơm_":7932,"cơ_mà":7933,"_phí":7934,"_phiên":7935,"_phần_hóa":7936,"đồng_sự":7937,"đồng_bằng":7938,"đồng_nghĩa":7939,"đồng_minh":7940,"Hà_Đông":7941,"Hàn_Quốc":7942,"buông_":7943,"buýt":7944,"bảo_lãnh":7945,"Giọng":7946,"Giáp":7947,"âm_mưu":7948,"i_thức":7949,"i_thảm":7950,"i_thoát":7951,"làm_chủ":7952,"làm_công":7953,"n_trại":7954,"n_trường":7955,"n_truyền":7956,"ác_viên":7957,"n_lời":7958,"n_lỏi":7959,"cây_x":7960,"ực_thăng":7961,"quả_quyết":7962,"Hải_Dương":7963,"cao_n":7964,"cao_cấp":7965,"cao_tuổi":7966,"cao_điểm":7967,"i_tử":7968,"i_tiết":7969,"i_tác":7970,"quá_kh":7971,"báo_tường":7972,"ghét":7973,"tựa":7974,"tự_động":7975,"tự_tạo":7976,"Qui":7977,"Quỳ":7978,"tổn_thất":7979,"tỉa":7980,"tỉ_phú":7981,"tử_nạn":7982,"thể_dục":7983,"tốn_kém":7984,"chán_n":7985,"chứng_t":7986,"một_mực":7987,"trở_ngại":7988,"Mỹ_Sơn":7989,"Mỹ_Hiệp":7990,"_cào":7991,"hay_là":7992,"tình_thế":7993,"ngay_ng":7994,"phát_động":7995,"phát_điện":7996,"phát_minh":7997,"phát_huy":7998,"phát_biểu":7999,"Bài_học":8000,"Bà_cụ":8001,"Bàn_tay":8002,"hệ_sinh_":8003,"giao_kho":8004,"_neo":8005,"_năn":8006,"_nỗi":8007,"thành_tích":8008,"Bình_Ch":8009,"Bình_Sơn":8010,"bỏng":8011,"bỏ_mạng":8012,"_quê":8013,"dự_định":8014,"hồn_":8015,"105":8016,"thời_khắc":8017,"to_lớn":8018,"không_những":8019,"địa_chất":8020,"giáp_":8021,"giá_thành":8022,"200_":8023,"200_triệu":8024,"con_nước":8025,"con_nhỏ":8026,"nước_nhà":8027,"nước_sạch":8028,"nước_ngầm":8029,"khánh":8030,"khán_":8031,"liên_kế":8032,"liên_hồi":8033,"hoàng_":8034,"đại_dịch":8035,"Nguyễn_Lê":8036,"Nguyễn_Thành":8037,"Nguyễn_Thành_":8038,"Nguyễn_Đình":8039,"Nguyễn_Đình_":8040,"Nguyễn_Bá":8041,"_Chồn":8042,"_Chrlâng":8043,"phụ_cấp":8044,"thịnh_":8045,"nhà_báo":8046,"nhà_ga":8047,"nhà_xưởng":8048,"nhà_rường":8049,"thực_dân":8050,"thực_nghiệm":8051,"thực_chất":8052,"thực_phẩm":8053,"chính_trị":8054,"_Thành":8055,"_Phụ":8056,"giang_hồ":8057,"chữa_":8058,"thông_số":8059,"lý_thú":8060,"hiện_trường":8061,"đường_sắt":8062,"điều_hòa_":8063,"điều_chỉnh":8064,"điều_khiển":8065,"chui_":8066,"cố_vấn":8067,"vô_tội":8068,"đoạt":8069,"bất_khả":8070,"Công_trình":8071,"Công_lý":8072,"ký_sự":8073,"_Văn_Bơ":8074,"già_yếu":8075,"già_dặn":8076,"không_thể_nào":8077,"_kháng":8078,"_khát":8079,"_khẩu":8080,"bắt_gặp":8081,"cụm":8082,"ng_lẳng":8083,"ng_liêng":8084,"ng_lưới":8085,"cáo_trạng":8086,"kiếp":8087,"lúng_t":8088,"người_lớn":8089,"nhớ_thương":8090,"Phú_Th":8091,"Phú_Quốc":8092,"30_triệu":8093,"trung_cấp":8094,"đổ_bộ":8095,"thú_dữ":8096,"thợ_săn":8097,"nghị_định":8098,"hình_thù":8099,"hình_hài":8100,"ngờ_vực":8101,"tham_dự":8102,"sinh_học":8103,"sinh_tử":8104,"sinh_nhật":8105,"hành_khách":8106,"hành_hạ":8107,"hành_quân":8108,"lán_trại":8109,"Trung_tá":8110,"lưỡi_":8111,"tuy_nhiên":8112,"_Ngừm":8113,"Tuy_vậy":8114,"văn_khoa":8115,"thay_thế":8116,"Thanh_Nhàn":8117,"tư_nhân":8118,"tư_liệu":8119,"quyết_toán":8120,"_Mả":8121,"_ngác":8122,"_ngoại":8123,"_nguồn":8124,"_ngoạc":8125,"an_ủi":8126,"bình_dân":8127,"kỳ_diệu":8128,"hạng_m":8129,"hạ_nguồn":8130,"xuất_thân":8131,"xuất_nhập_khẩu":8132,"chợ_phiên":8133,"thanh_toán":8134,"thanh_thiếu_niên":8135,"quan_sát":8136,"ngoèo":8137,"ngoằn_":8138,"thu_mua":8139,"đặc_điểm":8140,"đặc_sắc":8141,"đặc_chủng":8142,"đặc_nhiệm":8143,"kênh_m":8144,"kênh_rạch":8145,"sản_phụ":8146,"chiến_khu":8147,"sor":8148,"đơn_độc":8149,"đơn_sơ":8150,"cảm_phục":8151,"cảm_thông":8152,"_Lý":8153,"_Long":8154,"_Lộc":8155,"Thế_mà":8156,"Ba_Vạn":8157,"_Hồ":8158,"dân_nghèo":8159,"dân_lập":8160,"dân_quân":8161,"cửa_ngõ":8162,"lãng":8163,"tâm_nguyện":8164,"tâm_niệm":8165,"ầm_ĩ":8166,"nguồn_":8167,"nguệch":8168,"mặt_biển":8169,"125":8170,"kích_thước":8171,"muỗi":8172,"ủy_viên":8173,"cảnh_ngộ":8174,"càrem":8175,"cũng_như":8176,"chat":8177,"phân_cách":8178,"phân_công":8179,"Lộc_Ngãi":8180,"Lộc_Phú":8181,"_Đà":8182,"_Đình_":8183,"chế_xuất":8184,"1991":8185,"Hòa_Châu":8186,"đồ_chơi":8187,"đồ_vật":8188,"Bộ_":8189,"_xứ":8190,"thân_hình":8191,"thân_thuộc":8192,"1962":8193,"1965":8194,"ấm_áp":8195,"khai_thông":8196,"cổ_phần_hóa":8197,"phong_bì":8198,"phong_phú":8199,"nghỉ_tay":8200,"nghỉ_ngơi":8201,"hiện_diện":8202,"Lê_":8203,"Lê_Duẩn":8204,"Lê_Minh_":8205,"thương_lượng":8206,"thương_tích":8207,"thương_hiệu":8208,"thương_mến":8209,"trách_móc":8210,"Ngày_":8211,"Hồ_T":8212,"_Tẻ":8213,"oat":8214,"phương_thức":8215,"xe_buýt":8216,"ghe_cào":8217,"nguyên_tắc":8218,"tinh_anh":8219,"tinh_tế":8220,"tinh_vi":8221,"Đông_Dương":8222,"Tư_Cậm":8223,"niềm_":8224,"tương_đương":8225,"_Văn_S":8226,"chăm_chú":8227,"chăm_lo":8228,"chăm_bẵm":8229,"độc_hại":8230,"thủy_sản":8231,"Huân_chương":8232,"tiêu_biểu":8233,"ban_đêm":8234,"ban_hành":8235,"Long_An":8236,"bồi_thường":8237,"quân_phục":8238,"quân_hàm":8239,"chuyên_ngành":8240,"_rỉ":8241,"_rơi":8242,"_ráo":8243,"_rối":8244,"cactông":8245,"tổng_công_ty":8246,"vô_cảm":8247,"vật_tư":8248,"vật_vã":8249,"vật_lộn":8250,"vật_vờ":8251,"vùng_cao":8252,"nói_năng":8253,"nói_dối":8254,"bản_địa":8255,"_gắt":8256,"mê_mẩn":8257,"tác_chiến":8258,"đề_xuất":8259,"thiết_tha":8260,"thiết_giáp":8261,"Đào_Viên":8262,"khuyên_":8263,"nghệ_thuật":8264,"nghệ_sĩ":8265,"chuẩn_mực":8266,"Hoàn_cảnh":8267,"cỏ_tranh":8268,"cỏn_con":8269,"cỏ_năn":8270,"đau_khổ":8271,"đau_xót":8272,"ống_bơ":8273,"thử_nghiệm":8274,"động_dục":8275,"thuốc_thử":8276,"thuốc_nam":8277,"thuốc_lào":8278,"máy_khoan":8279,"máy_ghi_âm":8280,"máy_phát_điện":8281,"cơ_sở_hạ_tầng":8282,"lâm_tặc":8283,"Thành_ra":8284,"tiến_công":8285,"Nguyễn_Văn_Kiệm":8286,"Tân_Qui":8287,"Võ_Thị":8288,"Võ_Nguyên_":8289,"bù_đắp":8290,"duy_trì":8291,"ra_hiệu":8292,"thật_tình":8293,"phản_đối":8294,"phản_xạ":8295,"Phạm_Phương":8296,"ngoại_giao":8297,"Xuân_Hương":8298,"160":8299,"bóng_tối":8300,"bóng_dáng":8301,"nhất_thiết":8302,"trợ_cấp":8303,"trợ_giúp":8304,"bàn_chân":8305,"40_":8306,"Nam_kỳ":8307,"Nam_Định":8308,"ổi_sáng":8309,"thất_nghiệp":8310,"nghiêm":8311,"Chính_sách":8312,"Trần_S":8313,"cầu_thang":8314,"cầu_cảng":8315,"cầu_siêu":8316,"Cuộc_chiến":8317,"lệ_thuộc":8318,"lệ_phí":8319,"sơ_thẩm":8320,"ắp_nơi":8321,"trực_thuộc":8322,"đối_tác":8323,"Giá_Rai":8324,"Quang_Trung":8325,"boong":8326,"căn_hộ":8327,"mã_tấu":8328,"sư_tử":8329,"tiểu_liên":8330,"yên_ổn":8331,"chi_bộ":8332,"trước_hết":8333,"trước_kia":8334,"phòng_thủ":8335,"Nghe_đâu":8336,"Nachock":8337,"huy_chương":8338,"nội_bộ":8339,"nhẹ_nhõm":8340,"quí_giá":8341,"quần_đùi":8342,"quần_quật":8343,"Gia_Định":8344,"Gia_Lai":8345,"Nguyễn_Thị_T":8346,"Anh_chị":8347,"tội_ác":8348,"đặt_cọc":8349,"cờ_bạc":8350,"lan_truyền":8351,"sức_ép":8352,"sức_lực":8353,"Đoàn_Văn_Bơ":8354,"đen_":8355,"ngụm":8356,"nhanh_nh":8357,"1984":8358,"1988":8359,"1989":8360,"cây_công_nghiệp":8361,"nghiêm_ngặt":8362,"Hiền_An":8363,"nặng_nhọc":8364,"xin_phép":8365,"n_rợn":8366,"hoang_vu":8367,"tuyệt_vời":8368,"_Trâm":8369,"hỏa_":8370,"hậu_cứ":8371,"xa_khơi":8372,"chân_thành":8373,"chân_thực":8374,"tranh_luận":8375,"tranh_chấp":8376,"Bảo_vệ":8377,"đê_bao":8378,"che_":8379,"thấp_th":8380,"số_liệu":8381,"Không_chỉ":8382,"Luông":8383,"Lump":8384,"Năm_Hồ":8385,"Năm_Long":8386,"lâu_nay":8387,"vỡ_lở":8388,"xoắn":8389,"khai_hoang":8390,"khai_mạc":8391,"khắc_khoải":8392,"1954":8393,"1956":8394,"chức_danh":8395,"yêu_quí":8396,"Hoàng_Ph":8397,"Ba_Kiểu":8398,"Tân_Phú":8399,"kor":8400,"sau_cùng":8401,"tận_cùng":8402,"ít_nhiều":8403,"ĐTDĐ":8404,"chào_đời":8405,"khiếm_":8406,"Hà_Tây":8407,"Hà_Tiên":8408,"Bến_Đình":8409,"Kiên_Hải":8410,"Kiên_Lương":8411,"rủi_ro":8412,"xóc_":8413,"xóm_làng":8414,"nhận_xét":8415,"đột_nhập":8416,"tốt_bụng":8417,"lợi_thế":8418,"Lý_do":8419,"Màn_kịch":8420,"Tám_Nhiều":8421,"dò_tìm":8422,"mạnh_":8423,"mạng_lưới":8424,"ruồng_":8425,"run_r":8426,"rách_nát":8427,"trà_trộn":8428,"trú_ẩn":8429,"gia_tăng":8430,"tập_thể_dục":8431,"Hưng_Xá":8432,"Kiểm_tra":8433,"Tài_xế":8434,"bền_v":8435,"sang_tên":8436,"Đức_Linh":8437,"giao_liên":8438,"lão_luyện":8439,"Tổng_kết":8440,"căn_cứ_địa":8441,"truyền_thuyết":8442,"An_Sơn":8443,"Văn_khoa":8444,"dạng_":8445,"dạ_dày":8446,"hải_lý":8447,"la_cà":8448,"la_Lump":8449,"mướp":8450,"năm_tháng":8451,"năm_ngoái":8452,"thẩm_định":8453,"trong_sạch":8454,"có_ích":8455,"cô_gái":8456,"Cà_Ná":8457,"hiểm_nguy":8458,"linh_hoạt":8459,"linh_thiêng":8460,"oxy_shop":8461,"xẻng":8462,"xanh_tươi":8463,"xanh_rì":8464,"đảng_ủy":8465,"chìa_khóa":8466,"trưởng_thành":8467,"pháo_binh":8468,"giật_giọng":8469,"xe_lăn":8470,"quanh_quẩn":8471,"cứu_sinh":8472,"tàn_quân":8473,"luật_pháp":8474,"biết_đâu":8475,"Số_phận":8476,"bán_dâm":8477,"cam_go":8478,"mặc_cảm":8479,"sel":8480,"sai_lầm":8481,"vệ_tinh":8482,"xâm_nhập":8483,"êm_ấm":8484,"đoàn_tụ":8485,"phi_lao":8486,"Khách_hàng":8487,"ký_kết":8488,"Hoàng_Đạt":8489,"trọng_đại":8490,"truyền_đơn":8491,"Hòn_":8492,"Hữu_nghị":8493,"Hữu_Tình":8494,"Toản":8495,"bóp":8496,"hy_vọng":8497,"lời_lẽ":8498,"nối_đuôi":8499,"sắp_sửa":8500,"tại_sao":8501,"tại_chỗ":8502,"Đặc_khu":8503,"đông_xuân":8504,"thù_h":8505,"khen_thưởng":8506,"ng_mạn":8507,"phút_giây":8508,"phiên_dịch":8509,"phấn_khích":8510,"phấn_khởi":8511,"Thực_tế":8512,"Thực_đơn":8513,"nghịch_lý":8514,"nhà_trệt":8515,"nhà_vô_địch":8516,"đầm_đìa":8517,"Ngọc_Vân":8518,"hồi_hộp":8519,"điểm_chỉ":8520,"điểm_cao":8521,"chữ_ký":8522,"ký_tên":8523,"hợp_tác_xã":8524,"xét_nghiệm":8525,"Hạ_Long":8526,"Lá_Xanh":8527,"Mai_Động":8528,"Tiến_Dũng":8529,"Yên_Bình":8530,"biển_cả":8531,"lây_nhiễm":8532,"line":8533,"mpi":8534,"xương_sống":8535,"thách_thức":8536,"sống_động":8537,"chịu_khó":8538,"hoa_quả":8539,"hoa_văn":8540,"loại_bỏ":8541,"gian_khó":8542,"Bùi_B":8543,"Bùi_Thị":8544,"Mũi_Đèn":8545,"Sơn_Tây":8546,"bầu_cử":8547,"dụng_":8548,"lọt_":8549,"lọ_mọ":8550,"lập_nghiệp":8551,"vội_vàng":8552,"Đông_Hà":8553,"đến_nỗi":8554,"ngơ_ngác":8555,"thềm":8556,"thảo_luận":8557,"trắng_xóa":8558,"khám_phá":8559,"nhà_thơ":8560,"buồn_t":8561,"Quế_Xuân":8562,"Học_trò":8563,"Học_viện":8564,"sáng_tỏ":8565,"thảm_hại":8566,"thảm_khốc":8567,"nuôi_dưỡng":8568,"Bunta":8569,"Hải_quân":8570,"Nội_dung":8571,"Vũ_Đình_":8572,"asak":8573,"diễn_tiến":8574,"lương_thiện":8575,"nấu_nướng":8576,"rối_rít":8577,"sụt_":8578,"xơ_xác":8579,"xấu_hổ":8580,"Đường_mòn":8581,"_Sa_Vẳn":8582,"ngất_xỉu":8583,"ngang_nhiên":8584,"nhận_lời":8585,"chật_hẹp":8586,"chật_chội":8587,"chẳng_qua":8588,"chạm_mặt":8589,"chạm_trán":8590,"tha_thiết":8591,"lành_lặn":8592,"Chi_nhánh":8593,"Khu_ủy":8594,"lớn_nhỏ":8595,"cơ_giới":8596,"Hàm_Tân":8597,"Hàm_Luông":8598,"_Ngọc_Vinh":8599,"bỗng_nhiên":8600,"999":8601,"Hội_đồng":8602,"Hội_nghị":8603,"Joh":8604,"Johor":8605,"Ninh_Bình":8606,"Susan":8607,"cõng":8608,"dọn_dẹp":8609,"dáng_vẻ":8610,"hẹn_hò":8611,"lân_la":8612,"lân_cận":8613,"nảy_sinh":8614,"sa_ngã":8615,"sin_Shin":8616,"tệ_nạn":8617,"vững_vàng":8618,"Út_Sương":8619,"ngập_ngừng":8620,"nhũ_đá":8621,"chênh_lệch":8622,"chóng_mặt":8623,"chóng_vánh":8624,"tra_tấn":8625,"triệt_để":8626,"truy_tố":8627,"truy_tìm":8628,"triệu_phú":8629,"con_thơ":8630,"con_thoi":8631,"nóng_bỏng":8632,"sốt_ruột":8633,"sốt_rét":8634,"tuổi_tác":8635,"phán_quyết":8636,"phán_đoán":8637,"quái_ác":8638,"Bàu_Chồn":8639,"điện_máy":8640,"tin_tưởng":8641,"dữ_dội":8642,"dữ_dằn":8643,"tạp_hóa":8644,"Danh_Khon":8645,"Gò_Mả":8646,"Hóa_ra":8647,"Myanmar":8648,"Mông_Sơn":8649,"Mười_Minh":8650,"Sav":8651,"bại_liệt":8652,"cất_giữ":8653,"kindeo":8654,"lấp_lánh":8655,"mệnh_danh":8656,"sông_nước":8657,"tấm_gương":8658,"đùm_":8659,"đời_thường":8660,"đắc_lực":8661,"Ước":8662,"ốm_đau":8663,"nhắm_mắt":8664,"chục_triệu":8665,"thần_kinh":8666,"khao_khát":8667,"khẩn_cấp":8668,"giận_hờn":8669,"Thay_vì":8670,"Trường_hợp":8671,"đáng_kể":8672,"Phụng_":8673,"Phương_pháp":8674,"Phóng_sự":8675,"cao_đẳng":8676,"Phú_Hữu":8677,"kế_toán":8678,"giới_hạn":8679,"ility":8680,"Định_Quán":8681,"Làm_sao":8682,"tiền_lương":8683,"dioxin":8684,"Bian":8685,"Bấy_giờ":8686,"Dự_án":8687,"Hậu_quả":8688,"Kinh_Năm":8689,"Kuala_Lump":8690,"Lang_Bian":8691,"Mã_Đà":8692,"Mục_đích":8693,"Nước_mắt":8694,"Nậm_Ngừm":8695,"Tác_giả":8696,"Xác_minh":8697,"ability":8698,"bực_mình":8699,"bạt_ngàn":8700,"gõ_cửa":8701,"gay_gắt":8702,"gánh_chịu":8703,"kiều_bào":8704,"kim_loại":8705,"lôi_kéo":8706,"nếu_như":8707,"nâng_cấp":8708,"ròng_rã":8709,"rầm_rộ":8710,"tiện_nghi":8711,"tượng_đài":8712,"va_chạm":8713,"vĩnh_viễn":8714,"ì_ạch":8715,"ú_ớ":8716,"đời_sống":8717,"chuột_cống":8718,"chừng_mực":8719,"thấm_thía":8720,"trinh_sát":8721,"triết_lý":8722,"cám_dỗ":8723,"nhà_sàn":8724,"thì_thào":8725,"Nha_Trang":8726,"Ngoại_giao":8727,"màu_sắc":8728,"_Quang":8729,"Phong_trào":8730,"khoai_lang":8731,"giản_dị":8732,"cây_cối":8733,"quản_trang":8734,"quá_đáng":8735,"Quá_trình":8736,"hiện_thực":8737,"đàm_thoại":8738,"lạnh_lùng":8739,"muôn_vàn":8740,"đồi_mồi":8741,"Trần_Minh_Đức":8742,"heo_hút":8743,"thơ_ấu":8744,"mãnh_hổ":8745,"che_chở":8746,"quyền_anh":8747,"Trương_Xuân_Đại":8748,"Chợ_Lớn":8749,"lây_lan":8750,"ríu_rít":8751,"thẳng_thắn":8752,"cơ_quan_chức_năng":8753,"Bhling_Chrlâng":8754,"Axan":8755,"Bản_thân":8756,"Biết_bao":8757,"Cấp_nước":8758,"Cẩm_Nhân":8759,"Cienco":8760,"Capability":8761,"Dương_Tuấn":8762,"Hóc_Môn":8763,"Jimmy":8764,"Kơtu":8765,"Kỷ_niệm":8766,"Kịch_bản":8767,"Kenne":8768,"Lớp_học":8769,"Mour":8770,"Matxcơ":8771,"Olympi":8772,"Quyết_":8773,"Ruộng":8774,"Rmah_Rô":8775,"Sư_phạm":8776,"Suy_nghĩ":8777,"Sakon":8778,"Tại_sao":8779,"Tampoi":8780,"Washing":8781,"awatra":8782,"bến_xe":8783,"dắt_díu":8784,"dải_phân_cách":8785,"háo_hức":8786,"hiểu_biết":8787,"huyện_đội":8788,"lủng_lẳng":8789,"lật_tẩy":8790,"lóng_ngóng":8791,"miệt_mài":8792,"mạch_máu":8793,"nô_nức":8794,"nửa_đêm":8795,"nấm_mồ":8796,"rò_rỉ":8797,"rờn_rợn":8798,"râm_ran":8799,"rực_rỡ":8800,"rần_r":8801,"sầm_uất":8802,"sừng_sững":8803,"tọa_":8804,"vanh_vách":8805,"va_đập":8806,"yểm_":8807,"ý_muốn":8808,"Đạ_Tẻ":8809,"đũa":8810,"đài_truyền_hình":8811,"ộng_tác_viên":8812,"ngẩn_ngơ":8813,"ngổn_ngang":8814,"chinh_phục":8815,"chòng_chành":8816,"chan_hòa":8817,"thiêng_liêng":8818,"thán_phục":8819,"thắng_lợi":8820,"thung_lũng":8821,"trạm_xá":8822,"trêu_chọc":8823,"khung_cảnh":8824,"khép_kín":8825,"quấy_rối":8826,"Thăng_Bình":8827,"Thạch_Bằng":8828,"Thaksin_Shin":8829,"nghiên_cứu_sinh":8830,"điên_điển":8831,"nhà_mồ":8832,"cải_thiện":8833,"container":8834,"Chân_dung":8835,"Chắc_chắn":8836,"Champasak":8837,"Ngân_hàng":8838,"ngày_trước":8839,"Khánh_Hòa":8840,"mái_tóc":8841,"Phôn_Sa_Vẳn":8842,"Pháp_Luật":8843,"tuần_lễ":8844,"khoảnh_khắc":8845,"_điện_tử":8846,"hoạn_thư":8847,"quyến_rũ":8848,"cao_niên":8849,"quá_khứ":8850,"chán_nản":8851,"Mỹ_Hiệp_Sơn":8852,"ngay_ngắn":8853,"giao_khoán":8854,"Nguyễn_Lê_Nguyên":8855,"Nguyễn_Đình_Chiểu":8856,"điều_hòa_nhiệt_độ":8857,"lúng_túng":8858,"hạng_mục":8859,"ngoằn_ngoèo":8860,"kênh_mương":8861,"nguồn_gốc":8862,"nguệch_ngoạc":8863,"Hồ_Tôm":8864,"Võ_Nguyên_Giáp":8865,"Phạm_Phương_Dung":8866,"bền_vững":8867,"kindeoymp":8868,"Kuala_Lumpur":8869,"Matxcơva":8870,"Washington":8871,"Thaksin_Shinawatra":8872,"090":8873,"110":8874,"115":8875,"112":8876,"210":8877,"250":8878,"33":8879,"330":8880,"350":8881,"311":8882,"327":8883,"42":8884,"44":8885,"4N":8886,"4_triệu":8887,"58":8888,"5000":8889,"550":8890,"527":8891,"54N":8892,"73":8893,"75":8894,"79":8895,"8_":8896,"91":8897,"93":8898,"AC":8899,"AK":8900,"AM":8901,"AN":8902,"AS":8903,"At":8904,"Ang":8905,"Asa":8906,"Amer":8907,"A_Kh":8908,"BT":8909,"Bến":8910,"Bái":8911,"Biệt_":8912,"Bãi":8913,"Bản_":8914,"Bil":8915,"Bệnh":8916,"Băn_khoăn":8917,"Bỗng":8918,"Ca":8919,"Cr":8920,"Cá":8921,"Cọ":8922,"Cổ":8923,"Cam":8924,"Cuốn":8925,"Cam_":8926,"Cảnh":8927,"Căm_":8928,"Cộng":8929,"Cồn_":8930,"Cù_lao":8931,"Dĩ":8932,"Dược":8933,"Dao":8934,"Dạy":8935,"Dấu_":8936,"Dựng":8937,"Dẫu":8938,"Diện_tích":8939,"Dẫu_":8940,"DTT":8941,"EAN":8942,"FX":8943,"Gó":8944,"Gái":8945,"Gle":8946,"H_":8947,"Hợ":8948,"Hới":8949,"Hiên":8950,"Hành":8951,"Hột":8952,"Hạng":8953,"Hướng":8954,"Har":8955,"Hon":8956,"Hãng":8957,"Hán_":8958,"Hợp":8959,"Huyện_":8960,"ICA":8961,"Ka":8962,"Kw":8963,"Kay":8964,"Kan":8965,"Kiều":8966,"Kiệt":8967,"Kèo":8968,"Kiếm":8969,"Le":8970,"Ly":8971,"Lũ":8972,"Lẽ":8973,"Lệ":8974,"Lị":8975,"Luyện":8976,"Lật":8977,"Lòng":8978,"Lục":8979,"Lương_":8980,"Lừa":8981,"Lại_":8982,"Lượng":8983,"Lặc":8984,"Lon":8985,"Lập_":8986,"Lực_lượng":8987,"Mi":8988,"Mơ":8989,"Mỏ":8990,"Mở":8991,"Mong":8992,"Mái":8993,"Mặt":8994,"Mãi":8995,"Mảnh":8996,"Mon":8997,"Môi_":8998,"Moa":8999,"Mùi":9000,"Máu":9001,"Mãi_":9002,"Mạnh_":9003,"Niề":9004,"Nắng":9005,"Nàng":9006,"Nằm":9007,"Oxy":9008,"Pu":9009,"Pằng":9010,"Par":9011,"Quyền":9012,"Rà":9013,"Rủ":9014,"Rắn":9015,"Ruốc":9016,"Se":9017,"Sê":9018,"Sử":9019,"SAR":9020,"Săn":9021,"Sâu":9022,"Sta":9023,"Sếu":9024,"Sau_":9025,"Sing":9026,"Skindeoymp":9027,"TH":9028,"Ti":9029,"Tắ":9030,"Tay":9031,"Tao":9032,"Tâm":9033,"Tương_":9034,"Toại":9035,"Tai_":9036,"Tòa":9037,"Tốc_":9038,"Tôn_":9039,"Toa":9040,"Tối_":9041,"Tìm_":9042,"Tốt":9043,"THC":9044,"Tỉnh_":9045,"TDTT":9046,"Ung_":9047,"Uyên":9048,"Uoat":9049,"Ve":9050,"Vi":9051,"Vé":9052,"Vu_":9053,"Vết":9054,"Vạn":9055,"Vương_":9056,"Vùng_":9057,"Vâng":9058,"Vien":9059,"Với_lại":9060,"Xà":9061,"Xã":9062,"Xuống":9063,"Xét":9064,"Yê":9065,"Yer":9066,"Y_tế":9067,"Yêu":9068,"Y_khoa":9069,"_3":9070,"_6":9071,"_8":9072,"_G":9073,"_O":9074,"_k":9075,"_ù":9076,"_ơ":9077,"_cho":9078,"_ích":9079,"_bảo":9080,"_giả":9081,"_Hùng":9082,"_quả":9083,"_báo":9084,"_bạn":9085,"_bỏ":9086,"_200":9087,"_gái":9088,"_hành":9089,"_pháp":9090,"_nghệ":9091,"_máu":9092,"_Giang":9093,"_hành_chính":9094,"_22":9095,"_2005":9096,"_cao_su":9097,"_viện_trưởng":9098,"ac":9099,"ah":9100,"an_t":9101,"an_tâm":9102,"akhon":9103,"ai_tử":9104,"bằ":9105,"bông":9106,"bất":9107,"bươ":9108,"beo":9109,"binh_":9110,"bội":9111,"bồng_":9112,"bậy":9113,"bật_":9114,"bần_":9115,"bít":9116,"bận_":9117,"bấp_":9118,"bùng_":9119,"bèn":9120,"boa":9121,"bừa_":9122,"bón":9123,"bởi_":9124,"bắp_":9125,"bơi_":9126,"bâng_":9127,"băn_khoăn":9128,"bi_thảm":9129,"cm":9130,"ca_":9131,"cải":9132,"cắn":9133,"cim":9134,"cởi":9135,"căm_":9136,"cập_":9137,"cạn_":9138,"can_":9139,"còi":9140,"cạm_":9141,"cặp_":9142,"cằn_":9143,"cộng_tác_viên":9144,"dơ":9145,"day":9146,"dấy":9147,"dang":9148,"dũng":9149,"dăm":9150,"dưa":9151,"dào":9152,"dáo":9153,"dội":9154,"dung_":9155,"dưng":9156,"dài_":9157,"dạn_":9158,"dối_":9159,"dồn_":9160,"ding":9161,"dẫu_":9162,"dza":9163,"dớn_":9164,"ey":9165,"era":9166,"esel":9167,"ge":9168,"gô":9169,"gũ":9170,"gỉ":9171,"gừ":9172,"gào":9173,"găng":9174,"gượng":9175,"gặng":9176,"gai_":9177,"gợi":9178,"gang_":9179,"gầm_":9180,"gắng_":9181,"gáy":9182,"gui":9183,"hi":9184,"hé":9185,"hì":9186,"hũ":9187,"hễ":9188,"hỉ":9189,"hớ":9190,"hở":9191,"hến":9192,"hân_":9193,"hắt":9194,"hực":9195,"hối":9196,"ham_":9197,"hãi":9198,"hừng_":9199,"hun":9200,"hite":9201,"hơn_nữa":9202,"ican":9203,"ivong":9204,"jai_":9205,"kW":9206,"ky":9207,"k_P":9208,"kìm":9209,"kiệm":9210,"kèn":9211,"lé":9212,"lí":9213,"lõ":9214,"lả":9215,"lị":9216,"lừ":9217,"l_C":9218,"luyệ":9219,"lăn":9220,"láng":9221,"lăng":9222,"lấn":9223,"len":9224,"lút":9225,"lác_":9226,"lung":9227,"lạng":9228,"lần_":9229,"lai_":9230,"lít":9231,"lặt_":9232,"lởi":9233,"lan_":9234,"lăng_":9235,"lau_":9236,"lèn":9237,"lẩn":9238,"lảng_":9239,"lục_":9240,"lừng_":9241,"lọc_":9242,"lắng_":9243,"lủi":9244,"lù_l":9245,"lượn":9246,"lẳng_l":9247,"mí":9248,"mú":9249,"mả":9250,"manh":9251,"mần":9252,"mồng":9253,"mác":9254,"mận":9255,"múc":9256,"manh_":9257,"mục":9258,"muống":9259,"mảng":9260,"mực_":9261,"mèo":9262,"mắm":9263,"mai_":9264,"mười_":9265,"mít":9266,"mượt":9267,"măng_":9268,"mầu":9269,"mải_":9270,"mẩy":9271,"mém":9272,"móm_":9273,"mét_":9274,"móp":9275,"mặn_":9276,"miểng":9277,"ná":9278,"nè":9279,"nơ":9280,"nả":9281,"nấ":9282,"n_S":9283,"nượ":9284,"nôi":9285,"nại":9286,"nanh":9287,"nai":9288,"nến":9289,"nang":9290,"nao":9291,"nách":9292,"nấp":9293,"nức_":9294,"nấm":9295,"nãy":9296,"nốt":9297,"name":9298,"nấc":9299,"nắm_":9300,"nãm":9301,"nếp":9302,"nườm_":9303,"of":9304,"oá":9305,"oanh":9306,"oai":9307,"oải":9308,"oảng":9309,"ore":9310,"o_nhỏ":9311,"ogas":9312,"pô":9313,"ppin":9314,"p_Si":9315,"ró":9316,"rỉ":9317,"rợ":9318,"rụ":9319,"rùng":9320,"rước":9321,"rất_":9322,"rành":9323,"ráo":9324,"ráng":9325,"rát":9326,"rác_":9327,"rền":9328,"râu_":9329,"rắm":9330,"rặng":9331,"rộn":9332,"rơi_":9333,"rồi_":9334,"sh":9335,"st":9336,"sà":9337,"s_P":9338,"sải":9339,"sục":9340,"sút":9341,"sạm":9342,"sấu":9343,"sạt":9344,"sét":9345,"sánh":9346,"sặc_":9347,"sọt":9348,"sõi":9349,"ser":9350,"sụt":9351,"sững_":9352,"té":9353,"tê":9354,"tầ":9355,"tồ":9356,"tộ":9357,"tong":9358,"tải":9359,"tơi":9360,"tần_":9361,"tắp":9362,"tậu":9363,"tép":9364,"tăm_":9365,"táp":9366,"tòi":9367,"tẩm":9368,"tải_":9369,"tiễn_":9370,"tẹt":9371,"tby":9372,"um":9373,"uệ":9374,"um_":9375,"uân_":9376,"u_Dung":9377,"vậ":9378,"vế":9379,"vồ":9380,"vôi":9381,"vững":9382,"văng":9383,"vặn":9384,"vẳng":9385,"vong_":9386,"vang_":9387,"văng_":9388,"vẹn":9389,"vồn_":9390,"vứt":9391,"vằn":9392,"vẹo":9393,"vuốt":9394,"viễn_":9395,"ví_":9396,"viết_":9397,"vâng_":9398,"với_lại":9399,"xu_":9400,"xiết":9401,"xám_":9402,"xưng":9403,"xối":9404,"xoài":9405,"xâu_":9406,"xảo":9407,"xấp_":9408,"xộc":9409,"xiêu_":9410,"xứng":9411,"xoa":9412,"xởi_":9413,"xén":9414,"xưa_":9415,"xà_l":9416,"xịt":9417,"y_như":9418,"y_tá":9419,"Ðó":9420,"Ðặng_":9421,"Ôi":9422,"Ý_":9423,"ê_th":9424,"ên_th":9425,"êki":9426,"ò_m":9427,"ô_t":9428,"ôi_th":9429,"ùn":9430,"ùa_":9431,"ù_ù":9432,"úng_":9433,"út_":9434,"ýt_":9435,"ý_nguyện":9436,"Ăn":9437,"Đa":9438,"Đô":9439,"Đỏ":9440,"Đờ":9441,"Đủ":9442,"Điệ":9443,"Điện":9444,"Đơn":9445,"Đằng":9446,"Đáng":9447,"Đem":9448,"Đạo":9449,"Đầm":9450,"Đấu":9451,"Đồn":9452,"Đản":9453,"Đấu_":9454,"Đòi":9455,"Đẩu":9456,"Động_":9457,"Đống_":9458,"Đổi_":9459,"Đêm_":9460,"Đồi_":9461,"đư":9462,"đày":9463,"đác":9464,"đúc":9465,"đỗi":9466,"đục":9467,"đắc":9468,"đi_t":9469,"đẳng":9470,"đặng":9471,"đẳng_":9472,"đam_mê":9473,"đúng_":9474,"ĩu":9475,"ĩ_Thành":9476,"ơ_vơ":9477,"ạn_t":9478,"ả_năng":9479,"Ấp_":9480,"ấc_":9481,"ần_tượng":9482,"ẩn_tr":9483,"ằn_tr":9484,"ằn_t":9485,"ẻm":9486,"ềnh":9487,"ềnh_":9488,"ễu":9489,"ễng":9490,"ỉ_nhập":9491,"ọt_":9492,"ỗ_ng":9493,"ộn_":9494,"ớt_m":9495,"ờ_ph":9496,"ỡn":9497,"ỡ_nhàng":9498,"ợt_":9499,"ủa":9500,"ỷu":9501,"_Nha":9502,"_Nakhon":9503,"_Vy":9504,"_Vình":9505,"_Vấp":9506,"_Việt":9507,"_Vàng":9508,"_Pah":9509,"_Sao":9510,"_San":9511,"_Sĩ_Thành":9512,"_Prông":9513,"ngô":9514,"ngục":9515,"ngút":9516,"ngành_":9517,"ngợi":9518,"ngửi":9519,"ngoài_":9520,"ngẫu_":9521,"ngỗ_ng":9522,"_Re":9523,"nha":9524,"nhó":9525,"nhiế":9526,"nhu_":9527,"nhao":9528,"nhuố":9529,"nhùng":9530,"nhan":9531,"nhũng":9532,"nhuộ":9533,"nhẫn":9534,"nhiên_":9535,"nhối":9536,"nhạy":9537,"nham_":9538,"nhức_":9539,"nhắc_":9540,"nhấp_":9541,"nhạt_":9542,"nhiêu_":9543,"nhan_":9544,"nhẩm":9545,"nhiệm_":9546,"nhảm":9547,"nhãn":9548,"nhói":9549,"nhòm":9550,"nho_nhỏ":9551,"nhộn_":9552,"nhỡ_nhàng":9553,"chà":9554,"chẻ":9555,"chớ":9556,"cha_":9557,"chiên":9558,"chật":9559,"chinh":9560,"chập":9561,"chiền":9562,"chái":9563,"chuộc":9564,"chực":9565,"chưng":9566,"chướng":9567,"chạc":9568,"chặng":9569,"chiêng":9570,"chạp":9571,"chài_":9572,"chiêu_":9573,"chọc_":9574,"chùm":9575,"chĩa":9576,"chạnh_":9577,"chửng":9578,"chùa_":9579,"chơ_vơ":9580,"thọ":9581,"thố":9582,"thau":9583,"thừng":9584,"thửa":9585,"thi_th":9586,"thắm":9587,"thản":9588,"thản_":9589,"thiêu":9590,"thập_":9591,"than_":9592,"thòi":9593,"thầu":9594,"thiện_":9595,"tháng_":9596,"thù_lao":9597,"thê_th":9598,"thần_tượng":9599,"_Dân":9600,"_Diên":9601,"ette":9602,"_Cày":9603,"_Cạn":9604,"_Chết":9605,"_Cạp":9606,"_Cor":9607,"trễ":9608,"trồ":9609,"trũng":9610,"trội":9611,"trăn_":9612,"trầm":9613,"trọc":9614,"trên_":9615,"trật_":9616,"trạc":9617,"trắc_":9618,"trứng":9619,"trụi":9620,"trót":9621,"trưng_":9622,"trứng_":9623,"tri_thức":9624,"trĩu":9625,"trằn_tr":9626,"n_phương":9627,"n_đồ":9628,"n_vi":9629,"n_đả":9630,"n_kẽ":9631,"n_dâng":9632,"n_chồn":9633,"n_quét":9634,"n_chải":9635,"n_chúc":9636,"khê":9637,"khẽ":9638,"khỉ":9639,"kháo":9640,"khét":9641,"khái_":9642,"khít":9643,"khập_":9644,"khang_":9645,"khẩn":9646,"khấm_":9647,"khối_":9648,"khống_":9649,"khốn_":9650,"khắp_nơi":9651,"khai_tử":9652,"ng_ăn":9653,"ng_tiền":9654,"ng_cầu":9655,"ng_xóm":9656,"ng_buộc":9657,"ng_Mai":9658,"ng_ngày_càng":9659,"ng_dưỡng":9660,"ng_chạc":9661,"phất":9662,"phác":9663,"phán":9664,"phức":9665,"phượng":9666,"phia":9667,"phẳng":9668,"phản":9669,"pher":9670,"phim_":9671,"phễu":9672,"phờ_ph":9673,"i_m":9674,"i_là":9675,"i_âm":9676,"i_động":9677,"i_trình":9678,"i_lở":9679,"i_trọng":9680,"i_nghi":9681,"i_ngùi":9682,"vàm":9683,"gic":9684,"giê":9685,"giảng":9686,"giẫm":9687,"giấc_":9688,"giỡn":9689,"queo":9690,"quẫn":9691,"quát":9692,"quăng":9693,"quên_":9694,"quật_":9695,"quạt":9696,"quẳng":9697,"quéo":9698,"quặt_":9699,"quắc_":9700,"quạt_":9701,"quét_":9702,"quỉ_nhập":9703,"nh_đệ":9704,"t_nghiệp":9705,"t_lui":9706,"t_vót":9707,"t_rè":9708,"t_chửng":9709,"cá_m":9710,"cá_ch":9711,"cá_b":9712,"cái_b":9713,"m_kho":9714,"m_thu":9715,"m_ngó":9716,"m_cõi":9717,"có_t":9718,"uyển":9719,"mộc_":9720,"mộ_b":9721,"củ_đ":9722,"c_trưởng":9723,"c_mừng":9724,"c_ngách":9725,"u_d":9726,"u_mang":9727,"u_quán":9728,"u_Long":9729,"u_uất":9730,"Tha":9731,"Thể":9732,"Than":9733,"Thăn":9734,"Thiên_":9735,"Thêm":9736,"Thôn":9737,"Thửa":9738,"Thung":9739,"Thạc":9740,"Thánh":9741,"Thoa":9742,"Thiện_":9743,"Thống_":9744,"Thoát":9745,"Thuột":9746,"Thoáng":9747,"ay_ho":9748,"đãng":9749,"đã_đ":9750,"a_tay":9751,"a_bán":9752,"a_chừng":9753,"a_khô":9754,"a_kém":9755,"a_chen":9756,"a_chát":9757,"a_dẫm":9758,"ướp_":9759,"nghiến":9760,"như_h":9761,"như_thể":9762,"ông_ta":9763,"ao_ước":9764,"coong":9765,"coi_trọng":9766,"ươm":9767,"ươn":9768,"uốn_t":9769,"ane":9770,"anthuy":9771,"anjai_":9772,"nhà_đ":9773,"nhà_quê":9774,"ravan":9775,"radio":9776,"_thi":9777,"_thì":9778,"_thí":9779,"_thụ":9780,"_thác":9781,"_thời":9782,"_thừa":9783,"_thích":9784,"_thành_":9785,"_thức_":9786,"_thập_":9787,"_thuận":9788,"_thun":9789,"_thuyết":9790,"hàn_h":9791,"hàn_vi":9792,"từ_gi":9793,"cải_t":9794,"Chó":9795,"Chữ":9796,"Chăm":9797,"Châu":9798,"Chơi":9799,"Chừng":9800,"Chia":9801,"Chiều_":9802,"Char":9803,"Chẳng_":9804,"Chứt":9805,"Chiếu":9806,"Chợt":9807,"Cha_mẹ":9808,"Triết":9809,"Trinh":9810,"Trống":9811,"Trạm":9812,"Truyề":9813,"Tràm":9814,"Trọng_":9815,"Tranthuy":9816,"đột":9817,"đội_t":9818,"động_t":9819,"độ_trì":9820,"oàng":9821,"bài_th":9822,"bà_già":9823,"bàn_thờ":9824,"_ta":9825,"_tè":9826,"_tự":9827,"_tác":9828,"_tật":9829,"_túc":9830,"_tát":9831,"_túng":9832,"_tôm":9833,"_tộc":9834,"_tín":9835,"_toan":9836,"_tiếp":9837,"_tác_xã":9838,"_tuần":9839,"iêm_":9840,"nói_th":9841,"Nhất":9842,"Nhân":9843,"Nhặt":9844,"Nhắc":9845,"uyệt_":9846,"ào_ạt":9847,"Ngư":9848,"Ngang":9849,"Nguyện":9850,"Ngành":9851,"màng":9852,"màn_hình":9853,"ngày_giờ":9854,"khiễng":9855,"ân_nhân":9856,"ất_phục":9857,"p_đồng":9858,"p_ảnh":9859,"p_đổ":9860,"p_sợ":9861,"p_nối":9862,"p_giật":9863,"p_cận":9864,"công_vụ":9865,"công_tử":9866,"chúa":9867,"chú_r":9868,"chúc_mừng":9869,"tiến_tr":9870,"tiếng_l":9871,"tiếng_t":9872,"_ly":9873,"_lạ":9874,"_lẻ":9875,"_lộ":9876,"_lùng":9877,"_lửa":9878,"_loại":9879,"_lắp":9880,"_lưu":9881,"_loi":9882,"_liễu":9883,"Khâm_":9884,"Khảo":9885,"Khủng_":9886,"Khai_th":9887,"Khởi_":9888,"Kháng_":9889,"Khiêm":9890,"Khả_năng":9891,"_dò":9892,"_dỡ":9893,"_dại":9894,"_dác":9895,"_diệt":9896,"_diễn":9897,"_di_động":9898,"mánh":9899,"đáng_lẽ":9900,"_hục":9901,"_hẹn":9902,"_huyệt":9903,"quang_":9904,"quai_":9905,"Phi":9906,"Phó":9907,"Phố":9908,"Phần":9909,"Phân_":9910,"Phúc":9911,"Phụng":9912,"Phili":9913,"chích":9914,"tuk":9915,"tung_":9916,"tuôn":9917,"tung_t":9918,"tuần_tr":9919,"chị_ta":9920,"anh_t":9921,"áo_ph":9922,"áo_qu":9923,"áo_thun":9924,"đây_đó":9925,"inam":9926,"khoẻ":9927,"khoát":9928,"khoái_":9929,"_đố":9930,"_đừ":9931,"_đại":9932,"_đức":9933,"_đảo":9934,"phác_":9935,"phá_bỏ":9936,"_trời":9937,"_trắng":9938,"_truyền":9939,"_trùm":9940,"_trực_thăng":9941,"đều_đ":9942,"ăn_chơi":9943,"_mô":9944,"_mờ":9945,"_mích":9946,"_mặc":9947,"_mìn":9948,"_mưu":9949,"_múa":9950,"cứng_":9951,"hoá":9952,"hoạn_":9953,"_sờ":9954,"_sưa":9955,"_sảng":9956,"_sáu":9957,"quy_định":9958,"quyện":9959,"a_đồng":9960,"a_đẩy":9961,"sực":9962,"âm_Dâu":9963,"n_thế":9964,"n_thủy":9965,"n_thiệp":9966,"n_thuần":9967,"tang_l":9968,"ồng_tơi":9969,"giờ_hành_chính":9970,"ung_dung":9971,"tay_nghề":9972,"_vò":9973,"_vù":9974,"_vỡ":9975,"_vây":9976,"_nhô":9977,"_nhẹ":9978,"_nhem":9979,"_nhung":9980,"côn_tr":9981,"cô_lập":9982,"cô_đơn":9983,"côn_đồ":9984,"bối":9985,"bốn_phương":9986,"ám_chỉ":9987,"xã_đoàn":9988,"long_":9989,"long_l":9990,"logo":9991,"lo_sợ":9992,"logic":9993,"lom_kho":9994,"loay_ho":9995,"lo_toan":9996,"tàng":9997,"tàn_t":9998,"tàn_b":9999,"chủng_":10000,"chủ_quan":10001,"chủ_tọa":10002,"chủ_đề":10003,"chủ_mưu":10004,"cơ_khí":10005,"nghiện_ngập":10006,"nghiệm_thu":10007,"_phần":10008,"_phục":10009,"_phối":10010,"_phim":10011,"_phần_tr":10012,"đồng_bộ":10013,"đồng_quê":10014,"đồng_tình":10015,"đồng_phạm":10016,"đồng_lương":10017,"đồng_thanh":10018,"đồng_hun":10019,"đồng_lõ":10020,"đầu_tay":10021,"đầu_lòng":10022,"đầu_óc":10023,"đầu_quân":10024,"Hà_Hữu_":10025,"buly":10026,"buổi_sáng":10027,"bảo_":10028,"bảo_trợ":10029,"ên_dáng":10030,"đốt_":10031,"đố_k":10032,"Giữ":10033,"Giới":10034,"Giấy":10035,"Giao":10036,"Giồng_":10037,"i_thay":10038,"làm_bộ":10039,"làm_gì":10040,"làm_vườn":10041,"làm_quà":10042,"làm_ngơ":10043,"làm_bếp":10044,"làm_phiền":10045,"thuần":10046,"thuần_hóa":10047,"thua_kém":10048,"bao_trùm":10049,"bao_vây":10050,"giả_thiết":10051,"Hùng_Võ":10052,"n_trăm":10053,"n_trương":10054,"n_truân":10055,"n_trịa":10056,"n_lẻ":10057,"n_lan":10058,"n_lút":10059,"n_tư":10060,"n_tình":10061,"n_tải":10062,"n_tảo":10063,"n_túi":10064,"ành_Long":10065,"quả_là":10066,"khói_":10067,"khó_tính":10068,"ước_chừng":10069,"ước_Tây":10070,"ước_nguyện":10071,"do_vậy":10072,"cao_ráo":10073,"i_tăm":10074,"quánh":10075,"quá_sức":10076,"luận_":10077,"luẩn_":10078,"imp":10079,"ghiền":10080,"ghem":10081,"ghẹo":10082,"ật_sư":10083,"nghĩ_lại":10084,"Quê":10085,"Quý":10086,"Quan":10087,"Quầy":10088,"Quỳnh":10089,"Qui_trình":10090,"tổ_trưởng":10091,"tỉ_thí":10092,"ảo_H":10093,"tử_địa":10094,"tử_thần":10095,"thể_trạng":10096,"tống_tiền":10097,"tối_tăm":10098,"chánh":10099,"hộ_sinh":10100,"hộ_khẩu":10101,"một_tí":10102,"một_mạch":10103,"Mỹ_Ph":10104,"Mỹ_Lan":10105,"_cười":10106,"_cúng":10107,"_cằn":10108,"_cốt":10109,"thủng":10110,"thủ_trưởng":10111,"thủ_tiêu":10112,"am_hiểu":10113,"tình_tứ":10114,"phát_thanh":10115,"phát_tán":10116,"tiếp_thu":10117,"hệt":10118,"Có_khi":10119,"giao_dịch":10120,"giao_tiếp":10121,"giao_phối":10122,"_nề":10123,"_nở":10124,"_nông":10125,"_nần":10126,"_nan":10127,"thành_ra":10128,"thành_quả":10129,"thành_hình":10130,"khuỷu":10131,"khuất_phục":10132,"bỏ_lửng":10133,"dự_tính":10134,"dự_đoán":10135,"101":10136,"thời_vụ":10137,"toác":10138,"tour":10139,"to_tướng":10140,"toey":10141,"địa_chính":10142,"địa_ngục":10143,"_bông":10144,"_bới":10145,"_bám":10146,"_búa":10147,"_bệnh":10148,"iều_cường":10149,"2002":10150,"2006":10151,"chạy_":10152,"chạy_chữa":10153,"chạy_chợ":10154,"con_bé":10155,"con_nghiện":10156,"nhỏ_tuổi":10157,"nhân_ái":10158,"nhân_cách":10159,"nhân_tài":10160,"nhân_văn":10161,"nước_biển":10162,"nước_cường":10163,"nước_ròng":10164,"nước_thải":10165,"nước_khoáng":10166,"khá_giả":10167,"liên_tiếp":10168,"liên_hoàn":10169,"liên_hoan":10170,"liên_miên":10171,"nghèo_kh":10172,"nghèo_r":10173,"hoài_nghi":10174,"đại_gia":10175,"đại_lộ":10176,"đại_ca":10177,"đại_hội":10178,"đại_tá":10179,"đại_thắng":10180,"đại_sứ":10181,"Nguyễn_Tiến_":10182,"Nguyễn_Hữu":10183,"Nguyễn_Trãi":10184,"Nguyễn_Thiện_":10185,"phụ_huy":10186,"phụ_giúp":10187,"phụ_thuộc":10188,"phụng_dưỡng":10189,"giấy_thông_":10190,"205":10191,"thị_sát":10192,"nhà_ở":10193,"nhà_in":10194,"nhà_giam":10195,"thực_sự":10196,"thực_vật":10197,"_Thu_":10198,"_Thành_Long":10199,"_Phi":10200,"_Phổ":10201,"_Phong":10202,"_Phùng":10203,"_Phát":10204,"_Phray":10205,"gian_truân":10206,"mùa_hè":10207,"mùa_khô":10208,"chững_chạc":10209,"thông_thường":10210,"lý_thuyết":10211,"cuốn_hút":10212,"du_nhập":10213,"đường_sá":10214,"điều_hành":10215,"điều_khoản":10216,"điều_tra_":10217,"chuỗi":10218,"chuồn":10219,"cố_thủ":10220,"cố_nhân":10221,"cố_ý":10222,"cốt_l":10223,"ận_đận":10224,"học_hành":10225,"học_xá":10226,"học_lỏ":10227,"vô_tình":10228,"thiếp":10229,"đo_đạc":10230,"đoạn_t":10231,"đon_đả":10232,"bất_động":10233,"bất_đồng":10234,"bất_kỳ":10235,"bất_thần":10236,"bất_tiện":10237,"bất_hạnh":10238,"Công_Hùng":10239,"Công_nhân":10240,"Công_tác":10241,"_Văn_Hùng":10242,"_Văn_Thành":10243,"thoai_th":10244,"_khảo":10245,"bắt_giữ":10246,"cục_trưởng":10247,"kéo_theo":10248,"kéo_đẩy":10249,"ng_lăng":10250,"ng_lọc":10251,"ng_lĩnh":10252,"ng_lãnh_":10253,"ôi_ngo":10254,"ôi_nước_mắt":10255,"nguyen":10256,"người_dân":10257,"nhớ_nhung":10258,"Thuật":10259,"Phú_Đông":10260,"Phú_Lộc":10261,"mở_đường":10262,"suốt_":10263,"ấp_ủ":10264,"trung_học":10265,"trung_chuyển":10266,"trung_úy":10267,"đổ_vỡ":10268,"đổi_thay":10269,"ạn_Thư":10270,"thú_nhận":10271,"khu_công_nghiệp":10272,"khu_chế_xuất":10273,"hình_dạng":10274,"vịnh":10275,"vị_thành_":10276,"Kim_Ngọc_":10277,"ôn_sẻ":10278,"ôn_Ma_":10279,"hàng_đầu":10280,"hàng_ngũ":10281,"tài_nào":10282,"tài_chính":10283,"lộ_trình":10284,"lộ_liễu":10285,"ạt_đầu":10286,"ạt_động":10287,"thư_sinh":10288,"thư_gi":10289,"thư_viện":10290,"tham_vọng":10291,"tham_khảo":10292,"tham_nhũng":10293,"đối_đầu":10294,"đối_chất":10295,"sinh_động":10296,"sinh_hoạt_":10297,"sinh_mạng":10298,"sinh_dục":10299,"sinh_sôi":10300,"lá_ng":10301,"lá_r":10302,"Trung_bộ":10303,"Trung_bình":10304,"Trung_Hưng":10305,"152":10306,"nổ_mìn":10307,"_Ngà":10308,"_Ngạn":10309,"kết_bạn":10310,"kết_nạp":10311,"văn_minh":10312,"thế_mà":10313,"hợp_thức_":10314,"tư_trang":10315,"giữa_chừng":10316,"quốc_ca":10317,"quyết_tử":10318,"_Mửng":10319,"_ngụ":10320,"_ngách":10321,"an_ngo":10322,"bé_nhỏ":10323,"bình_chọn":10324,"bình_đẳng":10325,"kỳ_vọng":10326,"kỳ_đà":10327,"kỳ_lạ":10328,"hạ_tầng":10329,"lịch_sự":10330,"xây_x":10331,"xuất_trình":10332,"xuất_bản":10333,"xuất_quỉ_nhập":10334,"Nhà_văn":10335,"vuông_":10336,"Cảm_":10337,"Cả_T":10338,"Cả_Phi":10339,"cưu_mang":10340,"đảo_lộn":10341,"chợ_búa":10342,"thanh_lý":10343,"quay_phim":10344,"quan_khách":10345,"quan_điểm":10346,"ngoi":10347,"ngoan_ngo":10348,"thu_nhận":10349,"thu_dọn":10350,"thu_thập":10351,"đào_bới":10352,"chói":10353,"chóp":10354,"chót_vót":10355,"giám_định_":10356,"giám_khảo":10357,"đặc_trưng":10358,"Nguyễn_C":10359,"Nguyễn_Văn_C":10360,"Nguyễn_Sĩ_Thành":10361,"Thái_độ":10362,"chiến_công":10363,"chiến_binh":10364,"cảm_xúc":10365,"_Lào":10366,"_Lập":10367,"_Liêm":10368,"lạ_đời":10369,"đánh_đổi":10370,"đánh_hơi":10371,"đánh_cược":10372,"đánh_ghen":10373,"Babo":10374,"Ba_Nghĩa":10375,"_H_":10376,"_Huệ":10377,"dân_số":10378,"dân_gian":10379,"trò_chơi":10380,"tròn_trịa":10381,"cửa_kính":10382,"Mua_bán":10383,"lãng_mạn":10384,"dạy_dỗ":10385,"omon":10386,"tâm_hồn":10387,"tâm_đắc":10388,"nguôi_ngo":10389,"chờn":10390,"ý_nghĩ":10391,"mặt_đường":10392,"mặt_tiền":10393,"giải_nghệ":10394,"giải_trí":10395,"123":10396,"xác_lập":10397,"xác_xơ":10398,"muôn":10399,"thip_Si":10400,"cảnh_cáo":10401,"cảnh_giới":10402,"cảnh_quan":10403,"càn_quét":10404,"càng_ngày_càng":10405,"túm":10406,"túng_qu":10407,"phân_trần":10408,"giáo_trình":10409,"_Đề":10410,"_Đình":10411,"_Đức":10412,"_Đúc":10413,"chế_độ":10414,"góc_độ":10415,"đồn_b":10416,"Thị_":10417,"Thị_Nhiều":10418,"trang_trải":10419,"trang_nghiêm":10420,"_xách":10421,"_xẻo":10422,"thân_chủ":10423,"thân_tàn_":10424,"1964":10425,"môtô":10426,"tích_tắc":10427,"tích_lũ":10428,"ấm_cúng":10429,"n_bã":10430,"n_bề":10431,"n_bỉ":10432,"n_bãi":10433,"khổ_chủ":10434,"khổ_ải":10435,"khổ_đau":10436,"cổ_tích":10437,"cổ_thụ":10438,"phong_tặng":10439,"nghỉ_việc":10440,"hiện_tại":10441,"hiện_hữu":10442,"Lê_Thanh_":10443,"Lê_Quang":10444,"alding":10445,"toàn_thân":10446,"toàn_thể":10447,"thương_nhớ":10448,"thương_yêu":10449,"thương_tật":10450,"thương_thảo":10451,"thương_vong":10452,"_Tân":10453,"_Tập":10454,"bè_bạn":10455,"ila":10456,"liệt_kê":10457,"miệng_ăn":10458,"võ_sư":10459,"võ_đài":10460,"chất_nổ":10461,"chất_phác":10462,"qui_trình":10463,"qui_luật":10464,"qui_chuẩn":10465,"xe_cơ_giới":10466,"nguyên_tử":10467,"nguyên_đơn":10468,"nguyên_vật_liệu":10469,"nguyên_vẹn":10470,"25_":10471,"tiz":10472,"ting":10473,"tiane":10474,"tinh_mơ":10475,"tinh_nghịch":10476,"tinh_ranh":10477,"ưu_tiên":10478,"nhập_tịch":10479,"thảm":10480,"biên_tập":10481,"tương_ứng":10482,"tương_đối":10483,"đỏ_đ":10484,"đỏ_r":10485,"đấu_trường":10486,"_Văn_Ni":10487,"chăm_chăm":10488,"độc_giả":10489,"độc_quyền":10490,"1973":10491,"1977":10492,"thủy_t":10493,"Bình_thường":10494,"Bình_Xuyên":10495,"Huấn":10496,"Tiếp_cận":10497,"di_cư":10498,"di_dời":10499,"lễ_độ":10500,"lễ_tân":10501,"lễ_phục":10502,"tiêu_chuẩn":10503,"tiếp_nhận":10504,"tiếp_diễn":10505,"ban_ngành":10506,"hội_họp":10507,"bồ_nhí":10508,"bồn_chồn":10509,"ma_dại":10510,"đất_đỏ":10511,"khả_quan":10512,"quân_dân":10513,"chuyên_dụng":10514,"_rào":10515,"cass":10516,"caravan":10517,"can_thiệp":10518,"kỷ_vật":10519,"tùm":10520,"tù_tội":10521,"tạo_lập":10522,"tập_quán":10523,"tập_kích":10524,"tập_họp":10525,"đạo_diễn":10526,"đạo_đức":10527,"Thanh_tra":10528,"tổng_hợp":10529,"tổng_khởi_nghĩa":10530,"vô_kể":10531,"vô_nghĩa":10532,"vật_dụng":10533,"vật_vạ":10534,"vùng_sâu":10535,"vùng_biên":10536,"trường_bắn":10537,"nói_nhỏ":10538,"nói_riêng":10539,"nói_chung":10540,"bản_án":10541,"bản_quyền":10542,"bản_xứ":10543,"Tổng_lãnh_":10544,"_Ubdul":10545,"mê_tín":10546,"tác_nhân":10547,"tác_dụng":10548,"_Nhé":10549,"_Nhung":10550,"nổi_trội":10551,"Hai_Lúa":10552,"Đào_tạo":10553,"Đức_Phổ":10554,"ngõ_ngách":10555,"thường_ngày":10556,"thường_trú":10557,"khuynh_":10558,"khuyết":10559,"khuyển":10560,"sẵn_lòng":10561,"đau_đầu":10562,"đau_buồn":10563,"ậu_nhẹ":10564,"ống_kính":10565,"ống_nhòm":10566,"hào_sảng":10567,"Tràng_":10568,"Trà_B":10569,"Trà_Tập":10570,"động_cơ":10571,"động_tác":10572,"động_thái":10573,"hoàn_hồn":10574,"Đồng_Hới":10575,"thuốc_độc":10576,"thuốc_mê":10577,"thuốc_men":10578,"Trần_Thanh":10579,"Trần_Thị":10580,"Trần_Thị_Th":10581,"máy_ảnh":10582,"kịp_thời":10583,"lâm_nghiệp":10584,"gió_chướng":10585,"Nguyễn_Văn_Bình":10586,"Nguyễn_Văn_Quỳ":10587,"Nguyễn_Văn_Toại":10588,"lãnh_sự":10589,"180":10590,"Cô_dâu":10591,"Tân_Xuân":10592,"Tân_Uyên":10593,"Võ_B":10594,"Võ_Văn_S":10595,"Võ_Văn_Thành":10596,"bùi_ngùi":10597,"duyên_dáng":10598,"mơ_hồ":10599,"ra_tay":10600,"ra_mặt":10601,"ra_mắt":10602,"ra_sức":10603,"ra_tiếng_":10604,"ra_lệnh":10605,"suyễn":10606,"suy_đoán":10607,"phản_động":10608,"phản_công":10609,"phản_ánh":10610,"phản_hồi":10611,"phản_quang":10612,"Phạm_V":10613,"ngoại_thành":10614,"Xuân_Lộc":10615,"Xuân_Long":10616,"Tây_Ninh":10617,"Tây_nguyên":10618,"Tây_Giang":10619,"bóng_bàn":10620,"bóng_chuyền":10621,"úc_sư":10622,"ngưỡng":10623,"nhất_quyết":10624,"trợn":10625,"trợ_gi":10626,"bàn_giao":10627,"bàn_ghế":10628,"Quảng_Công":10629,"Nhà_máy":10630,"chia_cắt":10631,"chia_rẽ":10632,"mất_mùa":10633,"mất_ngủ":10634,"mất_trí":10635,"thơm":10636,"thơ_dại":10637,"thất_học":10638,"thất_thần":10639,"n_nguyện":10640,"n_nguyệt":10641,"nghiêng_":10642,"Chính_trị":10643,"Trần_Văn":10644,"Trần_Duy":10645,"cầu_đường":10646,"cầu_cứu":10647,"cầu_xin":10648,"cầu_mong":10649,"DNTN":10650,"danh_nghĩa":10651,"sơ_s":10652,"sơ_sinh":10653,"sơ_ý":10654,"sơ_đồ":10655,"sơ_khảo":10656,"tờ_rơi":10657,"Giá_như":10658,"boy":10659,"dữ_kiện":10660,"mãng_cầu":10661,"mãn_nguyện":10662,"tiểu_đội":10663,"tiểu_đoàn":10664,"yên_vị":10665,"yên_nghỉ":10666,"yên_trí":10667,"ẩm_chất":10668,"chi_cục":10669,"thi_đấu":10670,"phòng_thí_nghiệm":10671,"Linh_Sơn":10672,"cúm_":10673,"tính_chuyện":10674,"tính_chất":10675,"khô_cằn":10676,"Nguyễn_Thị_Th":10677,"Nguyễn_Thị_Minh_":10678,"Nguyễn_Thị_Mửng":10679,"thiếu_đói":10680,"thiếu_nhi":10681,"Mai_Văn_":10682,"bổ_ích":10683,"bão_t":10684,"dị_tật":10685,"hiến_dâng":10686,"hòa_hợp":10687,"tuyệt":10688,"xung_đột":10689,"áp_giải":10690,"phó_viện_trưởng":10691,"pháp_trường":10692,"pháp_nhân":10693,"Làu":10694,"Làng_xóm":10695,"Sự_việc":10696,"bến_bãi":10697,"bánh_đa":10698,"bánh_phở":10699,"bánh_kẹo":10700,"bánh_chưng":10701,"hết_mình":10702,"lat":10703,"lên_án":10704,"lên_đời":10705,"nợ_đời":10706,"nợ_nần":10707,"sức_lao_động":10708,"1987":10709,"cây_cảnh":10710,"ghi_hình":10711,"lưu_trữ":10712,"tuyên_cáo":10713,"tuyên_dương":10714,"Hạnh_Phúc":10715,"biểu_tình":10716,"biểu_dương":10717,"hóa_giải":10718,"hóa_kiếp":10719,"mì_tôm":10720,"bào_chữa":10721,"khoailang":10722,"hoang_hóa":10723,"hoang_dại":10724,"hoang_tàn":10725,"máy_bơm":10726,"chủ_quản":10727,"tuyệt_mật":10728,"_Trang":10729,"_Tron":10730,"biệt_kích":10731,"biệt_tăm":10732,"xa_xa":10733,"xa_lạ":10734,"xa_xưa":10735,"xa_vời":10736,"Đại_ca":10737,"Đại_hội":10738,"chân_đất":10739,"chân_lý":10740,"tranh_đấu":10741,"phóng_khoáng":10742,"Khoai":10743,"Khoản":10744,"Hóa_An":10745,"aki":10746,"cộng_sản":10747,"hỗn_":10748,"lặp_":10749,"vũ_trang":10750,"chen_chúc":10751,"thích_thú":10752,"khởi_đầu":10753,"khởi_nghiệp":10754,"khởi_xướng":10755,"Thủ_Đức":10756,"máy_bay_trực_thăng":10757,"Củ_Tron":10758,"Do_vậy":10759,"Do_đó":10760,"Huy_chương":10761,"Luôn":10762,"Luật_sư":10763,"Nông_trường":10764,"Năm_Truyền":10765,"Năm_Lặc":10766,"dã_chiến":10767,"dã_ngoại":10768,"huơ":10769,"huấn":10770,"hun_hút":10771,"huân_chương":10772,"lâu_đời":10773,"tá_túc":10774,"xoáy":10775,"khai_phá":10776,"khai_báo":10777,"khai_sinh":10778,"khai_trừ":10779,"khắc_khổ":10780,"khắc_nghiệt":10781,"phùn":10782,"Cho_dù":10783,"Phong_San":10784,"tai_họa":10785,"1953":10786,"_Ngọc_Bình":10787,"búa":10788,"còm_cõi":10789,"lô_nhô":10790,"lô_cốt":10791,"tầm_mắt":10792,"tầm_súng":10793,"tầm_nhìn_":10794,"ít_ỏi":10795,"ít_lâu":10796,"ĐT_di_động":10797,"chào_":10798,"khiếp_sợ":10799,"Giàu":10800,"300_":10801,"Buih":10802,"Buôn_Ma_":10803,"Bến_Hải":10804,"kiên_nhẫn":10805,"tiền_túi":10806,"tất_tả":10807,"xói_lở":10808,"đèn_n":10809,"nhảy_múa":10810,"tretho":10811,"đột_xuất":10812,"Hàng_Hành":10813,"Hàng_Trống":10814,"ghép_nối":10815,"tự_túc":10816,"Duy_Anh":10817,"Duy_Nghĩa":10818,"Duy_Tân":10819,"dò_hỏi":10820,"nick":10821,"tức_giận":10822,"urs":10823,"vãn":10824,"nhiệt_đới":10825,"n_nàn":10826,"gia_nhập":10827,"hài_lòng":10828,"định_kiến":10829,"xem_lại":10830,"xem_ra":10831,"chế_tạo_máy":10832,"Tiến_Thành":10833,"Hưng_Lị":10834,"Sáu_Sao":10835,"bề_":10836,"bền_bỉ":10837,"bấy_nhiêu":10838,"bấy_lâu":10839,"diesel":10840,"dium":10841,"say_sưa":10842,"tạm_trú":10843,"người_tình":10844,"ngăn_cách":10845,"thỏm":10846,"tháo_dỡ":10847,"giao_lộ":10848,"chuyển_động":10849,"chuyển_hướng":10850,"chuyển_nhượng":10851,"vui_chơi":10852,"Tổng_cục":10853,"AnA":10854,"An_Phú":10855,"AnAnA":10856,"Hữu_Phước":10857,"Mặt_trận":10858,"Mặt_trời":10859,"bênh":10860,"em_út":10861,"hòm":10862,"hò_hẹn":10863,"hòa_đồng":10864,"la_bàn":10865,"năm_học":10866,"sas":10867,"sabuly":10868,"tụm":10869,"ép_gai":10870,"đa_dạng_":10871,"thiên_cung":10872,"trong_vắt":10873,"qui_tụ":10874,"đội_hình":10875,"đội_ngũ":10876,"tối_ưu":10877,"tối_đen":10878,"Rơ_Châm_Dâu":10879,"Báo_chí":10880,"Cơ_khí":10881,"Lạc_Dương":10882,"câu_lạc_bộ":10883,"hiểm_nghèo":10884,"hữu_hiệu":10885,"len_lỏi":10886,"les_P":10887,"rộp":10888,"vé_số":10889,"vừa_mới":10890,"vừa_rồi":10891,"xanh_mét":10892,"nhập_ngũ":10893,"chung_khảo":10894,"thụ_án":10895,"trưởng_phòng":10896,"pháo_đài":10897,"Trương_Gia_":10898,"Trương_Thị_Th":10899,"quanh_co":10900,"Phan_Thanh_":10901,"Phan_Đình":10902,"cứu_tế":10903,"tàn_phá":10904,"cần_cù":10905,"thứ_hai":10906,"Trần_Văn_Hương":10907,"Trần_Văn_Hợi":10908,"Trần_Văn_Giàu":10909,"biết_mấy":10910,"Hoa_":10911,"Hoặc":10912,"Hoằng_":10913,"Hoạn_Thư":10914,"Hoạt_động":10915,"Hiện_giờ":10916,"Minh_Tăng":10917,"Minh_Tiến":10918,"Tiên_Phước":10919,"Xây_lắp":10920,"bia_":10921,"biogas":10922,"bán_đảo":10923,"mỏi_":10924,"mỏng_m":10925,"sai_trái":10926,"xâm_hại":10927,"êm_đẹp":10928,"êm_dịu":10929,"đoàn_trưởng":10930,"ngón_tay":10931,"ngóc_ngách":10932,"phi_chính_phủ":10933,"giây_phút":10934,"Nhân_vật":10935,"trai_trẻ":10936,"tỉnh_trưởng":10937,"sáng_tác":10938,"sáng_chế":10939,"sáng_rực":10940,"bồi_bổ":10941,"bồi_lấp":10942,"trọng_điểm":10943,"bom_nguyên_tử":10944,"mồ_hôi_nước_mắt":10945,"Rơ_Châm_Buh":10946,"Rơ_Châm_Tô":10947,"354":10948,"Hữu_Hạnh":10949,"Toa_xe":10950,"Tours":10951,"lòng_vòng":10952,"nối_tiếp":10953,"rừng_già":10954,"sâu_bệnh":10955,"sâu_đậm":10956,"vòng_quanh":10957,"Út_Em":10958,"Đinh_Minh_Tăng":10959,"đông_đảo":10960,"đông_bắc":10961,"đông_đúc":10962,"chết_đứng":10963,"thổ_địa":10964,"thổ_lộ":10965,"truy_quét":10966,"truy_nhập":10967,"phần_trăm":10968,"phần_tư":10969,"Thực_hiện":10970,"nhà_vườn":10971,"đóng_kịch":10972,"Chín_Lan":10973,"đầm_ấm":10974,"cầm_cự":10975,"điểm_nóng":10976,"toàn_cầu":10977,"thỏa_đáng":10978,"400_triệu":10979,"Ban_chấp_hành":10980,"Kinh_tế":10981,"Một_vài":10982,"Xe_lửa":10983,"Yên_Thành":10984,"Yên_Bái":10985,"apore":10986,"biển_khơi":10987,"katoey":10988,"kính_trọng":10989,"linton":10990,"mong_đợi":10991,"mong_manh":10992,"tăng_trưởng":10993,"tăng_tốc":10994,"Độc_":10995,"đagui":10996,"ứng_cứu":10997,"ứng_xử":10998,"chu_đáo":10999,"thời_tiết":11000,"thờ_ơ":11001,"thờ_cúng":11002,"thách_đố":11003,"tiết_kiệm":11004,"Phạm_Hữu_Tình":11005,"Phạm_Hạnh_Phúc":11006,"hoa_phượng":11007,"Hành_chính":11008,"Hành_trình":11009,"Tuyết_Nhi":11010,"Trà_Mai":11011,"quen_mặt":11012,"bút_bi":11013,"Cao_Thắng":11014,"Cát_Hải":11015,"Hình_ảnh":11016,"May_mà":11017,"Quốc_Ân":11018,"Quốc_khánh":11019,"Vĩnh_Lộc":11020,"Vĩnh_Minh":11021,"cân_đối":11022,"câm_như_h":11023,"dở_ch":11024,"huyền_":11025,"hiền_hòa":11026,"lò_dò":11027,"lập_cập":11028,"sờ_sờ":11029,"tôm_hùm":11030,"vỉa":11031,"xinh_xắn":11032,"xóa_đói_":11033,"xuống_cấp":11034,"Đỗ_Văn_":11035,"Đỗ_Thị":11036,"Đông_Tây":11037,"Đông_du":11038,"Đội_C":11039,"đến_chốn":11040,"đến_nơi_":11041,"thẳng_tay":11042,"trắng_tay":11043,"cải_cách":11044,"cải_trang":11045,"cải_tiến":11046,"Nhã_Trang":11047,"phá_hoại":11048,"bộc_lộ":11049,"1944":11050,"1946":11051,"buồn_th":11052,"buồn_bã":11053,"báo_hiệu":11054,"Quế_Sơn":11055,"lúa_rẫy":11056,"_Văn_Dũng":11057,"khuyến_cáo":11058,"nuôi_trồng":11059,"nuôi_nấ":11060,"Cửu_Long":11061,"Cây_Trâm":11062,"Hải_Lý":11063,"Mường_Nhé":11064,"Noel":11065,"Vũ_Ngọc_Bình":11066,"cay_c":11067,"cực_nhọc":11068,"cười_cười":11069,"cùng_cực":11070,"cùng_quẫn":11071,"diễn_văn":11072,"diễn_đàn":11073,"dứt_khoát":11074,"gần_gũ":11075,"lắp_ráp":11076,"mark":11077,"marn_S":11078,"mưa_lũ":11079,"mưa_phùn":11080,"nấu_ăn":11081,"nấu_bếp":11082,"năng_động":11083,"or_Ubdul":11084,"rối_loạn":11085,"rối_rắm":11086,"sụa":11087,"sụp_đổ":11088,"xô_đẩy":11089,"Đường_dây":11090,"ngất_ngây":11091,"ngang_dọc":11092,"nhổ_neo":11093,"chẳng_thể":11094,"chẳng_hạn":11095,"chống_chế":11096,"chơi_đùa":11097,"thầm_kín":11098,"trông_chờ":11099,"trông_coi":11100,"trông_cậy":11101,"Chi_cục":11102,"Trước_đây":11103,"Trước_hết":11104,"Trước_mắt":11105,"chúng_mình":11106,"Khu_công_nghiệp":11107,"lớn_tuổi":11108,"tay_trắng":11109,"dự_thính":11110,"hiệp_hội":11111,"thúc_giục":11112,"Nghi_Lộc":11113,"sát_nách":11114,"biến_dạng":11115,"bỗng_chốc":11116,"bỗng_dưng":11117,"Phan_Văn_Xốm":11118,"Phan_Văn_Khải":11119,"649":11120,"Bố_mẹ":11121,"Ia_Ka":11122,"Lịch_sử":11123,"Ninh_Xá":11124,"Vụ_việc":11125,"bạc_đầu":11126,"bạc_màu":11127,"dọa_dẫm":11128,"hẹn_l":11129,"hối_hận":11130,"lia_":11131,"lẻ_loi":11132,"lăn_lộn":11133,"lăn_lóc":11134,"mật_ong":11135,"mật_độ":11136,"nương_rẫy":11137,"nương_náu":11138,"nảy_nở":11139,"rùng_rùng":11140,"săn_bắn":11141,"tứ_xứ":11142,"vinh_danh":11143,"ợi_phẩm":11144,"nhũn":11145,"châu_mai":11146,"châu_Âu":11147,"thấu_đáo":11148,"triệt_tiêu":11149,"n_vẹn":11150,"khẩn_trương":11151,"phàn_nàn":11152,"giác_đấu":11153,"giác_đấu_sĩ":11154,"giác_ngộ":11155,"Thông_qua":11156,"Thông_thường":11157,"Thủy_lợi":11158,"Chuông":11159,"Trở_lại":11160,"Ngô_Đình":11161,"Khó_khăn":11162,"Khổ_nỗi":11163,"tuổi_thơ":11164,"bahao":11165,"giảm_nghèo":11166,"giảm_sút":11167,"Nguyên_tắc":11168,"tỉ_lệ_phần_tr":11169,"Bàu_Cạp":11170,"nghèo_đói":11171,"điện_ảnh":11172,"kiến_trúc_sư":11173,"tin_tức":11174,"điềm_nhiên":11175,"900_":11176,"Biển_Chết":11177,"Du_lịch":11178,"Du_kích":11179,"Dương_Ngọc_Vinh":11180,"Dương_Văn_Ni":11181,"Gò_Vấp":11182,"Hồng_Minh":11183,"Matiz":11184,"Mađagui":11185,"Tốt_nghiệp":11186,"UdonThan":11187,"cất_giấu":11188,"cương_quyết":11189,"gầy_dựng":11190,"kins":11191,"lỏng":11192,"mắt_lá_r":11193,"mệnh_lệnh":11194,"rơmoo":11195,"suôn_sẻ":11196,"song_song":11197,"sắc_màu":11198,"tận_tình":11199,"tắm_rửa":11200,"tưởng_chừng":11201,"tưởng_niệm":11202,"Đài_Nam":11203,"Đặng_Hùng_Võ":11204,"đua_chen":11205,"đôi_mươi":11206,"Ước_":11207,"ốm_yếu":11208,"nhá_nhem":11209,"nhắm_mắt_":11210,"chấp_thuận":11211,"tháp_tùng":11212,"trơ_tr":11213,"trầm_trồ":11214,"khẩn_cầu":11215,"phì_ph":11216,"phì_nhiêu":11217,"i_bặm":11218,"từ_từ":11219,"từ_bỏ":11220,"đón_đầu":11221,"đón_nhận":11222,"đói_nghèo":11223,"bảng_vàng":11224,"bảng_biểu":11225,"Phụ_nữ":11226,"Phương_án":11227,"Phần_lớn":11228,"Phóng_viên":11229,"tuổi_trẻ":11230,"hormon":11231,"buồn_rầu":11232,"Gia_An":11233,"Giải_quyết":11234,"Giải_phóng":11235,"cao_đẹp":11236,"kế_tiếp":11237,"giới_chức":11238,"Lê_Văn_Khuyên":11239,"rộn_rã":11240,"rộn_ràng":11241,"Nghĩa_là":11242,"Con_nhỏ":11243,"Cửa_hàng":11244,"Cửa_biển":11245,"đẹp_mắt":11246,"đẹp_trai":11247,"438":11248,"An_Giang":11249,"Bồ_Đề":11250,"CAD":11251,"Cẩm_Ân":11252,"La_Ngà":11253,"Long_Thành":11254,"Spee":11255,"Spalding":11256,"Sức_khỏe":11257,"Trang_":11258,"Tập_đoàn":11259,"Tập_trung":11260,"Vosabuly":11261,"bán_nguyệt":11262,"bướm":11263,"bướu":11264,"bước_đi":11265,"bước_đầu":11266,"dẫn_đầu":11267,"gọi_là":11268,"hồng_hào":11269,"hương_hồn":11270,"hănggô":11271,"hùng_hổ":11272,"hầm_tàu":11273,"huống_hồ":11274,"lính_thủy":11275,"mỹ_nghệ":11276,"mang_tiếng":11277,"náo_nức":11278,"rút_lui":11279,"tiên_tiến":11280,"vẫy_v":11281,"Điều_kiện":11282,"đơn_thuần":11283,"đậu_hũ":11284,"ngỡ_ngàng":11285,"ngòi_nổ":11286,"ngòi_bút":11287,"chập_chờn":11288,"chôn_cất":11289,"chậm_rãi":11290,"thao_tác":11291,"thăm_dò":11292,"thăm_thẳm":11293,"khôn_khéo":11294,"phanar":11295,"phạm_tội":11296,"Tham_gia":11297,"Chư_Pah":11298,"Chư_Prông":11299,"Chu_Quốc_Ân":11300,"chiếm_lĩnh":11301,"chiến_lược":11302,"chiến_lợi_phẩm":11303,"xuôi_ngược":11304,"nhỏ_nhắn":11305,"nhỏ_nhoi":11306,"hoành_hành":11307,"phục_kích":11308,"ruột_thịt":11309,"ruột_gan":11310,"ngon_lành":11311,"Nguyễn_Công_Hào":11312,"Đồng_Dù":11313,"Đồng_Danh":11314,"Hồ_Hảo_H":11315,"Địa_chỉ":11316,"Địa_điểm":11317,"Phạm_Ngọc_Khang":11318,"Trần_Ngọc_Ẩn":11319,"huyết_mạch":11320,"Nguyễn_Thị_Loan":11321,"hỏi_han":11322,"đêm_tối":11323,"mềm_nhũn":11324,"Bùi_Văn_Thu":11325,"nhìn_nhận":11326,"nỗi_niềm":11327,"Phu_Phả_Xay":11328,"Phu_Phả_Xây":11329,"khẩu_trang":11330,"Lộc_Điền":11331,"vượt_cấp":11332,"Bạn_bè":11333,"Cố_gắng":11334,"Câu_lạc_bộ":11335,"Hệ_thống":11336,"Hiệp_":11337,"Hòa_Bình":11338,"Hưởng_Triều":11339,"Inter":11340,"Lò_Đúc":11341,"Lưu_Hữu_Phước":11342,"Nilai":11343,"Suối_Cạn":11344,"Tửu_quán":11345,"Tự_thân":11346,"Vinh_Hưng":11347,"Webtretho":11348,"bụi_bặm":11349,"bi_kịch":11350,"bert":11351,"cai_nghiện":11352,"cấm_đoán":11353,"cắm_cúi":11354,"cãi_vã":11355,"dương_tính":11356,"hủy_diệt":11357,"lè_tè":11358,"lối_thoát":11359,"lụa":11360,"lông_lá":11361,"mẫu_giáo":11362,"mới_toanh":11363,"nuốt_chửng":11364,"oai_hùng":11365,"ràng_buộc":11366,"rêpô":11367,"rắn_r":11368,"rung_chuyển":11369,"sóng_gió":11370,"sắm_sửa":11371,"tắt_thở":11372,"tản_cư":11373,"tòa_soạn":11374,"tột_cùng":11375,"vù_vù":11376,"vĩ_đại":11377,"vẹn_toàn":11378,"vườn_":11379,"ward":11380,"xì_x":11381,"xích_mích":11382,"y_dược":11383,"Ái_Vy":11384,"Đất_nước":11385,"Đầu_tiên":11386,"đĩa_":11387,"đẽo":11388,"đụn":11389,"đương_nhiên":11390,"ngần_ngại":11391,"ngôn_ngữ":11392,"nhãn_":11393,"nhăn_nhó":11394,"chắp_vá":11395,"thôi_thì":11396,"trùng_dương":11397,"trăng_hoa":11398,"n_White":11399,"phiền_phức":11400,"giường_bệnh":11401,"Thượng_Lào":11402,"ướt_đẫm":11403,"choáng_váng":11404,"điêu_khắc":11405,"họp_báo":11406,"rau_muống":11407,"hàm_răng":11408,"Chia_tay":11409,"Chao_Phray":11410,"tiếc_rẻ":11411,"Khát_vọng":11412,"Phòng_chống":11413,"tan_vỡ":11414,"tan_tầm":11415,"tay_áo":11416,"chủ_chốt":11417,"cơm_nước":11418,"buông_tha":11419,"cây_xăng":11420,"chứng_tỏ":11421,"hệ_sinh_thái":11422,"Bình_Chương":11423,"hồn_nhiên":11424,"giáp_mặt":11425,"khán_giả":11426,"Nguyễn_Thành_Phương":11427,"Nguyễn_Thành_Thượng":11428,"thịnh_nộ":11429,"chữa_cháy":11430,"bất_khả_kháng":11431,"Phú_Thọ":11432,"lưỡi_câu":11433,"sort":11434,"Bộ_đội":11435,"Ngày_nay":11436,"niềm_tin":11437,"khuyên_can":11438,"nhanh_nhẹn":11439,"hỏa_hoạn":11440,"che_giấu":11441,"thấp_thoáng":11442,"Hoàng_Phượng":11443,"khiếm_khuyết":11444,"xóc_chéo":11445,"mạnh_dạn":11446,"ruồng_bỏ":11447,"run_run":11448,"Hòn_Khoai":11449,"thù_hận":11450,"Bùi_Thị_Xuân":11451,"dụng_cụ":11452,"lọt_lòng":11453,"buồn_tẻ":11454,"Buntaphan":11455,"Vũ_Đình_Liệu":11456,"sụt_giảm":11457,"John":11458,"Savẳn":11459,"đùm_bọc":11460,"Phụng_Hoàng":11461,"Kenneth":11462,"Olympic":11463,"Quyết_tâm":11464,"Sakon_Nakhon":11465,"rần_rần":11466,"tọa_độ":11467,"yểm_trợ":11468,"ASEAN":11469,"Angkor":11470,"Asahi":11471,"American":11472,"A_Khâm":11473,"BT2":11474,"Biệt_thự":11475,"Bản_kẽm":11476,"Bill_C":11477,"Crimp":11478,"Cọp":11479,"Cam_Ly":11480,"Glen_White":11481,"H_làm_sao":11482,"Hợp_đồng":11483,"Honda":11484,"Hán_Đà":11485,"Hợp_tác_xã":11486,"Huyện_ủy":11487,"Kwanjai_":11488,"Kaymarn_S":11489,"Kansas":11490,"Lẽ_ra":11491,"London":11492,"Lập_nghiệp":11493,"Mỏ_Cày":11494,"Monivong":11495,"Môi_giới":11496,"Mãi_mãi":11497,"Niềm":11498,"Oxy_shop":11499,"Puma":11500,"Sêrêpô":11501,"Sử_dụng":11502,"SARS":11503,"Stadium":11504,"Sau_này":11505,"Singapore":11506,"Tắk_P":11507,"Tương_lai":11508,"Tốc_độ":11509,"Tôn_Đản":11510,"Tìm_kiếm":11511,"THCS":11512,"Tỉnh_ủy":11513,"Ung_bướu":11514,"Vedan":11515,"Vu_Gia":11516,"Vương_Tửu_quán":11517,"Vientiane":11518,"Xà_xẻo":11519,"Yêu_cầu":11520,"Yersin":11521,"an_táng":11522,"bằng_lăng":11523,"bươn_chải":11524,"bật_mí":11525,"bận_rộn":11526,"bấp_bênh":11527,"bừa_bãi":11528,"bởi_vì":11529,"bơi_lội":11530,"bâng_quơ":11531,"ca_ngợi":11532,"cimex":11533,"cập_nhật":11534,"cạn_kiệt":11535,"can_ngăn":11536,"cạm_bẫy":11537,"cặp_bồ":11538,"cằn_nhằn":11539,"dáo_dác":11540,"dài_ngo":11541,"dối_trá":11542,"dzathip_Si":11543,"gang_tấc":11544,"gắng_sức":11545,"hì_hục":11546,"hân_hoan":11547,"hừng_hực":11548,"lén_lút":11549,"lừ_đừ":11550,"luyện_tập":11551,"lác_đác":11552,"lai_lịch":11553,"lặt_vặt":11554,"lau_chùi":11555,"lảng_tránh":11556,"lừng_danh":11557,"lắng_nghe":11558,"lù_lù":11559,"lẳng_lặng":11560,"mún":11561,"manh_mún":11562,"mực_lá":11563,"măng_xông":11564,"mải_mê":11565,"móm_mém":11566,"mét_vuông":11567,"mặn_chát":11568,"nản_lòng":11569,"nượp":11570,"nức_lòng":11571,"nắm_bắt":11572,"nườm_nượp":11573,"ppines":11574,"rụt_rè":11575,"rồi_đây":11576,"sặc_sụa":11577,"sững_sờ":11578,"tần_tảo":11579,"tồi_tệ":11580,"tăm_tắp":11581,"tải_trọng":11582,"tiễn_đưa":11583,"um_tùm":11584,"vận_tải":11585,"vang_vọng":11586,"vồn_vã":11587,"viễn_chinh":11588,"ví_như":11589,"viết_tay":11590,"xám_xịt":11591,"xâu_xé":11592,"xởi_lởi":11593,"xưa_nay":11594,"xà_lách":11595,"Ðặng_Hải_Lý":11596,"êkip":11597,"ô_tô":11598,"Điện_Phương":11599,"Đống_Đa":11600,"Đồi_Đá":11601,"đưa_đẩy":11602,"ằn_tiện":11603,"ớt_mồng_tơi":11604,"ngành_nghề":11605,"ngẫu_nhiên":11606,"ngỗ_ngược":11607,"nhiếp_ảnh":11608,"nhu_mì":11609,"nhuốm":11610,"nhuộm":11611,"nhiên_liệu":11612,"nhạy_cảm":11613,"nhức_nhối":11614,"nhắc_nhở":11615,"nhấp_nháy":11616,"nhiêu_khê":11617,"nhan_sắc":11618,"nhiệm_kỳ":11619,"nhộn_nhịp":11620,"chài_lưới":11621,"chạnh_lòng":11622,"chùa_chiền":11623,"thi_thoảng":11624,"thản_nhiên":11625,"thiện_chiến":11626,"thê_thảm":11627,"trăn_trở":11628,"trật_tự":11629,"trằn_trọc":11630,"khập_khiễng":11631,"khang_trang":11632,"khấm_khá":11633,"khối_lượng":11634,"khống_chế":11635,"pheromon":11636,"phờ_phạc":11637,"quên_lãng":11638,"quật_ngã":11639,"quặt_quẹo":11640,"quắc_thước":11641,"quét_dọn":11642,"cá_bống":11643,"cái_bang":11644,"có_tiếng":11645,"mộc_mạc":11646,"mộ_bia":11647,"củ_đậu":11648,"Thăndzathip_Si":11649,"Thung_Vình":11650,"Thống_nhất":11651,"đã_đành":11652,"ướp_lạnh":11653,"uốn_tóc":11654,"nhà_đất":11655,"_thập_đỏ":11656,"hàn_huyên":11657,"từ_giã":11658,"cải_tạo":11659,"Chiang_Mai":11660,"Charles_P":11661,"Tranthuynguyen":11662,"đội_tuyển":11663,"động_tĩnh":11664,"bài_thuốc":11665,"nói_thẳng":11666,"chú_rể":11667,"tiếng_lóng":11668,"Khâm_Thiên":11669,"Khủng_bố":11670,"Kháng_chiến":11671,"Philippines":11672,"tuần_tra":11673,"áo_phao":11674,"áo_quần":11675,"đều_đặn":11676,"hoạn_nạn":11677,"tang_lễ":11678,"côn_trùng":11679,"long_lanh":11680,"lom_khom":11681,"loay_hoay":11682,"tàn_bạo":11683,"đồng_lõa":11684,"Hà_Hữu_Đồng":11685,"đố_kỵ":11686,"luận_án":11687,"luẩn_quẩn":11688,"Mỹ_Phước_Tây":11689,"nghèo_khổ":11690,"nghèo_rớt_mồng_tơi":11691,"phụ_huynh":11692,"giấy_thông_hành":11693,"điều_tra_viên":11694,"cốt_lõi":11695,"học_lỏm":11696,"đoạn_tuyệt":11697,"thoai_thoải":11698,"vị_thành_niên":11699,"Kim_Ngọc_Minh":11700,"thư_giãn":11701,"sinh_hoạt_phí":11702,"lá_ngón":11703,"hợp_thức_hóa":11704,"xây_xẩm":11705,"xuất_quỉ_nhập_thần":11706,"Cả_Tú":11707,"ngoan_ngoãn":11708,"giám_định_viên":11709,"Nguyễn_Văn_Cương":11710,"Babolat":11711,"nguôi_ngoai":11712,"túng_quẫn":11713,"đồn_bót":11714,"thân_tàn_ma_dại":11715,"tích_lũy":11716,"Lê_Quang_Ninh":11717,"đỏ_rực":11718,"cassette":11719,"Tổng_lãnh_sự":11720,"ậu_nhẹt":11721,"Trà_Bồng":11722,"Trần_Thị_Thu_Dung":11723,"Võ_Bẩm":11724,"Võ_Văn_Sung":11725,"ra_tiếng_vào":11726,"trợ_giảng":11727,"Nguyễn_Thị_Minh_Khai":11728,"khoailangbahao":11729,"tầm_nhìn_xa":11730,"Buôn_Ma_Thuột":11731,"nickname":11732,"Hưng_Lịnh":11733,"đa_dạng_sinh_học":11734,"Trương_Thị_Thương":11735,"Phan_Đình_Phùng":11736,"mỏng_manh":11737,"câm_như_hến":11738,"xóa_đói_giảm_nghèo":11739,"đến_nơi_đến_chốn":11740,"nuôi_nấng":11741,"gần_gũi":11742,"tỉ_lệ_phần_trăm":11743,"UdonThani":11744,"mắt_lá_răm":11745,"rơmooc":11746,"Speedo":11747,"Hồ_Hảo_Hớn":11748,"Internet":11749,"Chao_Phraya":11750,"Bill_Clinton":11751,"Kwanjai_Kieatprapat":11752,"Kaymarn_Sor_Ubdul":11753,"Sêrêpôk":11754,"Tắk_Pỏ":11755,"Thăndzathip_Siphanar":11756,"Charles_Palmer":11757,"05":11758,"0_":11759,"010":11760,"020":11761,"016":11762,"036":11763,"091":11764,"130":11765,"1_tỉ":11766,"2E":11767,"220":11768,"230":11769,"225":11770,"214":11771,"38":11772,"310":11773,"312":11774,"340":11775,"31_":11776,"360":11777,"370":11778,"380":11779,"321":11780,"341":11781,"3_tỉ":11782,"46":11783,"4D":11784,"420":11785,"460":11786,"439":11787,"443":11788,"53":11789,"56":11790,"57":11791,"570":11792,"572":11793,"68":11794,"61_":11795,"652":11796,"663":11797,"684":11798,"71":11799,"7_":11800,"7_triệu":11801,"72_":11802,"75_":11803,"82":11804,"83":11805,"85":11806,"86":11807,"87":11808,"850":11809,"81_":11810,"827":11811,"864":11812,"92":11813,"94":11814,"9A":11815,"98_":11816,"A4":11817,"A5":11818,"AB":11819,"AY":11820,"Ad":11821,"Al":11822,"Au":11823,"Az":11824,"Arằng":11825,"A_M":11826,"A_L":11827,"ADS":11828,"Aron":11829,"B_":11830,"Bẻ":11831,"Bờ":11832,"Bử":11833,"Bay":11834,"Bây":11835,"Bường":11836,"Bin":11837,"Bính":11838,"Bích":11839,"Bút":11840,"Bàng":11841,"Bước_":11842,"Bia":11843,"Bần_":11844,"Bóc":11845,"Bạc":11846,"Bóng":11847,"Bốc":11848,"Bóng_":11849,"Bầu_":11850,"Bẩm":11851,"Bọt":11852,"Bẫy":11853,"Bối_":11854,"Bão":11855,"Bụt":11856,"B52":11857,"Bựt":11858,"Bút_":11859,"Cu":11860,"Cò":11861,"Cư":11862,"Cỏ":11863,"Cự":11864,"CAR":11865,"Cân":11866,"Chọ":11867,"Cúc":11868,"Cập":11869,"Cực":11870,"Cám_":11871,"Cấp":11872,"Căng":11873,"Cầm":11874,"Cọc":11875,"Cạnh":11876,"Cái_":11877,"Cai_":11878,"Car":11879,"Cúi":11880,"Cận_":11881,"Can_":11882,"Căng_":11883,"Cánh_":11884,"Cống_":11885,"Cưới":11886,"Cộng_tác_viên":11887,"DR":11888,"Di":11889,"Dì":11890,"Dư":11891,"Dọ":11892,"Dày":11893,"Dai":11894,"Dây":11895,"Dùng":11896,"Diện":11897,"Dinh":11898,"Dừng":11899,"Dáng":11900,"Dạo":11901,"Dịch":11902,"Dính":11903,"Dậy":11904,"Diệu":11905,"Dài":11906,"Dần_":11907,"Diệm":11908,"Dốc_":11909,"Dòng_":11910,"Dầu":11911,"Dịp":11912,"Dựa":11913,"Diện_":11914,"Dứt":11915,"Dun":11916,"Dĩa":11917,"Dre":11918,"Diễn_":11919,"Dũng_":11920,"Diệu_":11921,"Dường_như":11922,"Di_tích":11923,"Dông_tố":11924,"Dad":11925,"ER":11926,"EU":11927,"E_A":11928,"Em_":11929,"Eve":11930,"Fu":11931,"Fred":11932,"Fila":11933,"GD":11934,"GO":11935,"Gu":11936,"Gõ":11937,"Gỗ":11938,"Gình":11939,"Gấp":11940,"Găng":11941,"Gen":11942,"Gắn":11943,"Góc":11944,"Gấm":11945,"Gạn_":11946,"Gửi":11947,"GDP":11948,"Gương_mặt":11949,"Ghề":11950,"Ghe":11951,"Games":11952,"HT":11953,"HU":11954,"Hi":11955,"Hè":11956,"Hơ":11957,"Hỏ":11958,"Hố":11959,"Hỗ":11960,"Hong":11961,"Hanh":11962,"Hao":11963,"Hường":11964,"Hòn":11965,"Huộ":11966,"Hát":11967,"Hiển":11968,"Hoài":11969,"Hút":11970,"Ham_":11971,"Hiểu":11972,"Hong_":11973,"Hắc_":11974,"Hiểm_":11975,"Hạn_":11976,"Hôn_":11977,"Huyền":11978,"Hiểu_":11979,"Hẹn":11980,"HCN":11981,"Hướng_":11982,"Hiếm":11983,"Hap":11984,"Hiệu_":11985,"Hói_":11986,"Hẻm":11987,"HAY":11988,"IX":11989,"Ia":11990,"Ip":11991,"Iv":11992,"Ire":11993,"IDR":11994,"Ju":11995,"Jar":11996,"JICA":11997,"K7":11998,"Ki":11999,"Kj":12000,"Ko":12001,"Kỹ":12002,"Ket":12003,"Kiệ":12004,"Kiế":12005,"Kong":12006,"Kình":12007,"KBKT":12008,"Kết":12009,"Kiều_":12010,"Kon":12011,"Kom":12012,"Ký_":12013,"Kal":12014,"Kiểm":12015,"Kén":12016,"KLĐ":12017,"Kit":12018,"KHĐ":12019,"Kem_":12020,"Ksor":12021,"LA":12022,"LH":12023,"LY":12024,"Li":12025,"Lạ":12026,"Lố":12027,"Lỗ":12028,"Lủ":12029,"Lũng":12030,"Leo":12031,"Lâu":12032,"Liền":12033,"Lin":12034,"Láng":12035,"Lỗi":12036,"Linh_":12037,"Lát":12038,"Lực":12039,"Lối":12040,"Lính":12041,"Lậy":12042,"Lấn":12043,"Lửa":12044,"Lạch":12045,"Lên_":12046,"Lung":12047,"Lâu_":12048,"Lặn":12049,"Lần_":12050,"Loại":12051,"Lái_":12052,"Lôi_":12053,"Lầu_":12054,"Lứa":12055,"Lạc_":12056,"Lựa":12057,"Lão":12058,"Lặng_":12059,"Lọc_":12060,"Láng_":12061,"Lat":12062,"Lần_lượt":12063,"Luyến":12064,"Lạc_L":12065,"Lận_đận":12066,"LE_A":12067,"MK":12068,"Mê":12069,"Mô":12070,"Mọ":12071,"Mộ":12072,"Mờ":12073,"Miệ":12074,"Mất":12075,"Mến":12076,"Mân":12077,"Mơn":12078,"Mời":12079,"Mất_":12080,"Mạn":12081,"Min":12082,"Mối":12083,"Mạch":12084,"Men":12085,"Mường_":12086,"Mặc":12087,"Mít":12088,"Miêu":12089,"Mang_":12090,"Mộc":12091,"Mưu_":12092,"Mậu_":12093,"Miếu":12094,"Miền_":12095,"Max":12096,"Mit":12097,"Mệt":12098,"Miếng":12099,"Mùi_":12100,"Mâu_thuẫn":12101,"Mướt":12102,"Maul":12103,"NX":12104,"Nu":12105,"Nà":12106,"Nú":12107,"Nỗ":12108,"Nộ":12109,"Nữ":12110,"Nên":12111,"Nong":12112,"Nao":12113,"Nòng":12114,"Nạo":12115,"Núng":12116,"Nửa":12117,"Nắm":12118,"Nuôi":12119,"Nấn_":12120,"Nhọc_":12121,"Non":12122,"Nồm":12123,"Nâng":12124,"Nổi_":12125,"Nếu_":12126,"Nặm":12127,"NGO":12128,"NIDR":12129,"OK":12130,"OP":12131,"Om":12132,"ONN":12133,"OV_":12134,"Pa":12135,"Pe":12136,"Po":12137,"Pà":12138,"Pra":12139,"Phà":12140,"Pas":12141,"Pray":12142,"PCC":12143,"Paul":12144,"Quyề":12145,"RM":12146,"Rô":12147,"Rễ":12148,"Rượ":12149,"Rải":12150,"Riết":12151,"Rào":12152,"Rằng":12153,"Răng":12154,"Rầm":12155,"Rạch":12156,"Rộng":12157,"Rượt":12158,"Ròng_":12159,"Rom":12160,"Rậm":12161,"Real":12162,"Ree":12163,"Reng":12164,"ROP":12165,"SG":12166,"ST":12167,"Si":12168,"So":12169,"Sy":12170,"Sà":12171,"Sơ":12172,"Sẽ":12173,"Sới":12174,"Sa_":12175,"Sai":12176,"Sân":12177,"San":12178,"Sức":12179,"Sắt":12180,"Săn_":12181,"Sâm":12182,"Sực":12183,"Súng":12184,"Sung":12185,"Sắm":12186,"Sto":12187,"Sai_":12188,"Sàn":12189,"Sang_":12190,"Siêu_":12191,"Som":12192,"Sầu":12193,"Sớm":12194,"Samp":12195,"Sáng_":12196,"Sur":12197,"Sri_":12198,"Sóc_":12199,"Sel":12200,"TQ":12201,"TV":12202,"Tơ":12203,"Tế":12204,"Tỉ":12205,"Tớ":12206,"Tứ":12207,"Tu_":12208,"Tai":12209,"TBKT":12210,"Tần":12211,"Tan":12212,"Tồng":12213,"Tương":12214,"Tận":12215,"Tách":12216,"Tòng":12217,"Tức":12218,"Tinh_":12219,"Tạo":12220,"Tắc":12221,"Tích":12222,"Tâm_":12223,"Tài":12224,"Tượng":12225,"Tôm":12226,"Tia":12227,"Tét":12228,"Tóm":12229,"Tóc":12230,"Tánh":12231,"Tàn":12232,"Ton":12233,"Tấm":12234,"Tội_":12235,"Tiêu_":12236,"Tính_":12237,"Tùng_":12238,"Tiểu_":12239,"Tiễn":12240,"Tòa_":12241,"Tầng":12242,"Tặng_":12243,"Tiệc":12244,"Tax":12245,"Tấp_nập":12246,"Tuyệt_":12247,"Tằn_tiện":12248,"Ui":12249,"Ul":12250,"Uz":12251,"U30":12252,"U17":12253,"Uyên_":12254,"Uoát":12255,"U_Minh":12256,"Vẻ":12257,"Vỉ":12258,"Vờ":12259,"Vở":12260,"Vỹ":12261,"Việ":12262,"Vay":12263,"Vai":12264,"Vây":12265,"Vân":12266,"Vùng":12267,"Vân_":12268,"Vách":12269,"Văn":12270,"Vòng":12271,"Vái":12272,"Vật_":12273,"Vượt":12274,"Vòi":12275,"Vừa_":12276,"Vầng":12277,"Voi":12278,"Vợt":12279,"Vất_vả":12280,"Vượn":12281,"Vắng_lặng":12282,"VAC":12283,"Vinam":12284,"VTV":12285,"WC":12286,"Wang_":12287,"Wil":12288,"Xa":12289,"Xê":12290,"Xí":12291,"Xế":12292,"Xứ":12293,"Xử":12294,"Xưa":12295,"Xem":12296,"XVN":12297,"Xương_":12298,"Xâm_":12299,"Xài":12300,"Xâu_":12301,"Xôm":12302,"Xia":12303,"Xóm":12304,"Xôm_":12305,"Xúc_":12306,"Xat":12307,"XHCN":12308,"XKLĐ":12309,"Yon":12310,"Yom":12311,"Yal":12312,"Yor":12313,"Y_học":12314,"_1":12315,"_K":12316,"_e":12317,"_Ý":12318,"_và":12319,"_cá":12320,"_có":12321,"_ôi":12322,"_một":12323,"_người":12324,"_không":12325,"_về":12326,"_đi":12327,"_này":12328,"_bà":12329,"_00":12330,"_làm":12331,"_ào":12332,"_biết":12333,"_xe":12334,"_má":12335,"_rồi":12336,"_cứ":12337,"_quy":12338,"_ba":12339,"_gì":12340,"_xuống":12341,"_khó":12342,"_Hải":12343,"_cao":12344,"_chính":12345,"_Bình":12346,"_khoảng":12347,"_ar":12348,"_học_":12349,"_đầy":12350,"_kế":12351,"_ngờ":12352,"_bài":12353,"_riêng":12354,"_ẩm":12355,"_kích":12356,"_độc":12357,"_ứng":12358,"_100":12359,"_vàng":12360,"_hào":12361,"_kết":12362,"_ợt":12363,"_Trần":12364,"_chút":12365,"_đám":12366,"_bào":12367,"_nóng":12368,"_2003":12369,"_Bảo":12370,"_giải":12371,"_com":12372,"_chỉ_huy":12373,"_300":12374,"_27":12375,"_công_nghiệp":12376,"_45":12377,"_On":12378,"_í_":12379,"_nghiêng":12380,"_chỉnh":12381,"_600":12382,"_nghịch":12383,"_Buh":12384,"_cứng":12385,"_Kiên":12386,"_4_":12387,"_họng":12388,"_em_gái":12389,"_800":12390,"_đinh":12391,"_090":12392,"_bối":12393,"_pháp_nhân":12394,"_354":12395,"_036":12396,"_Ju":12397,"a_S":12398,"ath":12399,"axin":12400,"an_lòng":12401,"bã":12402,"bõ":12403,"bủ":12404,"bôi":12405,"bong":12406,"banh":12407,"bang":12408,"băm":12409,"bập":12410,"bái":12411,"búng":12412,"bác_":12413,"bạnh":12414,"bằm":12415,"bét":12416,"bẹp":12417,"bấu_":12418,"bôn_":12419,"bủng_":12420,"bòng_":12421,"bẩn":12422,"bứt":12423,"bùa":12424,"bạch_":12425,"biền_":12426,"bẩm_":12427,"bit":12428,"ba_mẹ":12429,"bát_":12430,"bới_":12431,"bển":12432,"bẩn_th":12433,"bắn_t":12434,"bes":12435,"bặm":12436,"bi_b":12437,"cc":12438,"ce":12439,"cắ":12440,"côi":12441,"căm":12442,"cồng":12443,"cuống":12444,"cưng":12445,"cối":12446,"cạch":12447,"cen":12448,"cường_":12449,"cạy":12450,"cạc":12451,"car":12452,"cận_":12453,"cắc_":12454,"cài_":12455,"cấu_":12456,"còng_":12457,"cẩn":12458,"cậu_":12459,"cọc_":12460,"cởi_":12461,"cằn":12462,"cữu":12463,"cột_":12464,"cùi_":12465,"cẩn_tr":12466,"cợt_":12467,"cgiê":12468,"dy":12469,"dà":12470,"dấ":12471,"dế":12472,"dồ":12473,"d_P":12474,"dướ":12475,"dai":12476,"dác":12477,"dinh":12478,"dỗi":12479,"dát":12480,"dấp":12481,"dìm":12482,"dầm":12483,"dim":12484,"dép":12485,"dăm_":12486,"dập_":12487,"dạt_":12488,"dính_":12489,"dứa":12490,"dậm":12491,"dọc_":12492,"dĩa":12493,"dột_":12494,"dẹt":12495,"dược_":12496,"dồi_":12497,"dí_d":12498,"dne":12499,"díp":12500,"dẻo":12501,"dy_d":12502,"dặn_":12503,"dỏm":12504,"dỏng":12505,"dge":12506,"dềnh":12507,"dward":12508,"ek":12509,"ew":12510,"e_S":12511,"enp":12512,"ean":12513,"eso":12514,"eun":12515,"eur":12516,"e_lệ":12517,"e_ngại":12518,"fg":12519,"ft":12520,"fab":12521,"fline":12522,"gu":12523,"gù":12524,"gạ":12525,"gờ":12526,"gườ":12527,"gang":12528,"gân":12529,"gra":12530,"gòn":12531,"gán":12532,"gừng":12533,"ganh_":12534,"gội":12535,"gàng":12536,"gật_":12537,"gãi":12538,"gặt_":12539,"gởi":12540,"gập_":12541,"gáp":12542,"gan_":12543,"găng_":12544,"gối_":12545,"gốm":12546,"gấc":12547,"gãi_":12548,"gran":12549,"gườm_":12550,"goat":12551,"hã":12552,"hó":12553,"hủ":12554,"hôi":12555,"hiề":12556,"hất":12557,"hao":12558,"hải":12559,"hồng":12560,"huyệ":12561,"hổi":12562,"hách":12563,"hòng":12564,"hiền":12565,"hừng":12566,"hen":12567,"hung":12568,"hóm":12569,"hóc":12570,"hóng":12571,"hái_":12572,"hăm_":12573,"háp":12574,"hạt_":12575,"hăng_":12576,"hầu":12577,"hứng":12578,"hót":12579,"hùa":12580,"hiếu":12581,"hát_":12582,"hằng_":12583,"ha_h":12584,"hãm":12585,"hửng":12586,"hóp":12587,"hóc_":12588,"hãnh":12589,"ham_mê":12590,"hãnh_":12591,"hùn":12592,"ir":12593,"is":12594,"iu":12595,"in_":12596,"ier":12597,"in_r":12598,"iur":12599,"ick":12600,"i_Phương":12601,"i_Diên":12602,"ju":12603,"j_S":12604,"jad":12605,"jean":12606,"ké":12607,"kì":12608,"kề":12609,"ki_":12610,"kiêu_":12611,"kiểu_":12612,"kiểm":12613,"kiện_":12614,"kiệm_":12615,"kìa":12616,"kịt":12617,"kiêng_":12618,"kiểng":12619,"kaki":12620,"kSur":12621,"ld":12622,"lf":12623,"lt":12624,"lâ":12625,"lẹ":12626,"lữ":12627,"lỵ":12628,"luy":12629,"lượ":12630,"lười":12631,"lu_":12632,"lường":12633,"lân":12634,"lăm":12635,"lết":12636,"linh":12637,"lanh_":12638,"lam":12639,"lta":12640,"lồng_":12641,"luộc":12642,"lại_":12643,"lắng":12644,"lực_":12645,"lèo":12646,"lim":12647,"léo":12648,"lắt_":12649,"lười_":12650,"lụng":12651,"lép":12652,"lộng":12653,"liêu_":12654,"lòi":12655,"lẩu":12656,"lầy":12657,"lẩn_":12658,"ler":12659,"lal":12660,"l_T":12661,"lót":12662,"lim_":12663,"lặng_":12664,"lằn":12665,"lốt":12666,"lượng_":12667,"lơi_":12668,"loài_":12669,"lụt":12670,"lép_":12671,"liếc":12672,"luyến":12673,"liếm":12674,"lùi_":12675,"lửng":12676,"liệu_":12677,"land":12678,"lham":12679,"lướt":12680,"liếp":12681,"lữ_đoàn":12682,"lung_l":12683,"lướt_":12684,"l_O":12685,"lẩn_tr":12686,"lphia":12687,"lươn":12688,"lận_đận":12689,"lbert":12690,"me":12691,"mè":12692,"mé":12693,"mế":12694,"mụ":12695,"mủ":12696,"mừ":12697,"m_C":12698,"mông":12699,"mườ":12700,"mông_":12701,"mau":12702,"mương":12703,"meo":12704,"mân_":12705,"muộ":12706,"mách":12707,"mập":12708,"mình_":12709,"min":12710,"mống":12711,"mịch":12712,"mầm":12713,"mền":12714,"méo":12715,"mắc_":12716,"mấu_":12717,"mốc_":12718,"môn_":12719,"móng_":12720,"man_":12721,"mẩm":12722,"miễn":12723,"mẩn":12724,"mil":12725,"mối_":12726,"mến_":12727,"mốt":12728,"miền_":12729,"mắng_":12730,"mía":12731,"múa":12732,"mứt_":12733,"mẫn_":12734,"mệnh":12735,"mễn":12736,"mới_đây":12737,"na":12738,"nt":12739,"né":12740,"nạ":12741,"nặ":12742,"nẻ":12743,"nế":12744,"nỉ":12745,"nớ":12746,"nong":12747,"nồng":12748,"nương":12749,"nòng":12750,"nâu":12751,"nanh_":12752,"nem":12753,"niên_":12754,"nồng_":12755,"nung_":12756,"nêm":12757,"nết_":12758,"nọc":12759,"nặc":12760,"nam_":12761,"nạng":12762,"nẹp":12763,"nít":12764,"nài_":12765,"nòng_":12766,"nẩy":12767,"noi":12768,"nuối":12769,"nơm":12770,"nát_":12771,"nằng_":12772,"nớp":12773,"nứt_":12774,"nắn_":12775,"nện":12776,"nac":12777,"oC":12778,"ov":12779,"oy":12780,"oang":12781,"oạch":12782,"o_n":12783,"oắt_":12784,"oản":12785,"oạp":12786,"oan_":12787,"oán_":12788,"ola_":12789,"ose":12790,"ost":12791,"oanh_t":12792,"oạt_đầu":12793,"oenp":12794,"okSur":12795,"ps":12796,"py":12797,"pí":12798,"pay":12799,"pong":12800,"per":12801,"ping":12802,"ppha":12803,"pap":12804,"pa_S":12805,"pick":12806,"post":12807,"ry":12808,"rơ":12809,"rễ":12810,"rố":12811,"rồ":12812,"rình":12813,"rết":12814,"răn":12815,"râu":12816,"rập":12817,"rồng_":12818,"rọi":12819,"rống":12820,"rắc":12821,"rọc":12822,"rạt":12823,"rời_":12824,"ria":12825,"rảo":12826,"rằm":12827,"rám":12828,"réo":12829,"rong_":12830,"rạc":12831,"rái_":12832,"rốn":12833,"rủng_":12834,"rầu_":12835,"rôm_":12836,"rầy":12837,"rèn":12838,"rậm":12839,"ruổi":12840,"rỉnh":12841,"rớm":12842,"rùa":12843,"rèm":12844,"ráp_":12845,"rợp":12846,"rủi":12847,"ring":12848,"rìa":12849,"rít_":12850,"rle":12851,"rêu":12852,"rịt":12853,"rưởi":12854,"rói":12855,"rắn_":12856,"rêu_":12857,"sk":12858,"sõ":12859,"sù":12860,"sả":12861,"si_":12862,"sương":12863,"sừng":12864,"sành":12865,"sáo":12866,"sam":12867,"sho":12868,"sta":12869,"sỏi":12870,"sương_":12871,"sám_":12872,"sấp":12873,"slo":12874,"sầm":12875,"sếu":12876,"sàng":12877,"sắn":12878,"stra":12879,"sồn":12880,"sảo":12881,"sắt_":12882,"sảnh":12883,"sấm":12884,"sòng_":12885,"sầu_":12886,"sấm_":12887,"sảng_":12888,"sậm":12889,"sil":12890,"sưu_":12891,"sùi":12892,"sồn_":12893,"sém":12894,"sak":12895,"sủi":12896,"sing":12897,"sếu_":12898,"siêng_":12899,"stan":12900,"sói":12901,"sênh":12902,"shop":12903,"sếp":12904,"sộp":12905,"sủa":12906,"sir":12907,"spap":12908,"tt":12909,"tã":12910,"ti_":12911,"tu_":12912,"tày":12913,"tanh":12914,"tất":12915,"tướ":12916,"tước":12917,"tương":12918,"tát":12919,"tiệt":12920,"túng":12921,"tường_":12922,"tấu":12923,"ti_t":12924,"tảo":12925,"tiễ":12926,"tóm":12927,"tiểu":12928,"tong_":12929,"tuyên":12930,"tản":12931,"tặc_":12932,"tôi_":12933,"tòng_":12934,"tọt":12935,"tẩn_":12936,"tục_":12937,"tướng_":12938,"tụt":12939,"tịt":12940,"tồi_":12941,"tóm_":12942,"tton":12943,"tsu":12944,"tường_trình":12945,"tanh_t":12946,"tằn_tiện":12947,"up":12948,"uế":12949,"uở":12950,"uch":12951,"uông":12952,"ui_":12953,"ura":12954,"ulo":12955,"uẩn_":12956,"uman":12957,"vo":12958,"vú":12959,"vơ":12960,"vố":12961,"vu_":12962,"vần":12963,"vương":12964,"vận":12965,"vinh":12966,"vức":12967,"vữa":12968,"vái":12969,"vương_":12970,"vấp":12971,"vèo":12972,"vời_":12973,"vóc":12974,"vãi":12975,"var":12976,"vít":12977,"vấn_":12978,"van_":12979,"vầy":12980,"vil":12981,"vén":12982,"vắng_":12983,"vía":12984,"viếng":12985,"vắn_t":12986,"vằn_":12987,"ví_dụ":12988,"víu":12989,"vốn_":12990,"vươn":12991,"vinam":12992,"wn":12993,"wth":12994,"wen":12995,"won":12996,"wel":12997,"xệ":12998,"xị":12999,"xỏ":13000,"xổ":13001,"xờ":13002,"xi_":13003,"xiề":13004,"xay":13005,"xước":13006,"xào":13007,"xâu":13008,"xơi":13009,"xáo":13010,"xáng":13011,"xâm":13012,"xua":13013,"xóc":13014,"xẹp":13015,"xiêu":13016,"xon":13017,"xập_":13018,"xốc":13019,"xáp":13020,"xăng_":13021,"xầm_":13022,"xối_":13023,"xùi":13024,"xoi":13025,"xê_d":13026,"xíu":13027,"xú_":13028,"xệch":13029,"xốp":13030,"xềnh_":13031,"xoàng":13032,"ya_":13033,"yết_":13034,"y_khoa":13035,"y_Phả_X":13036,"y_học":13037,"zen":13038,"zhe":13039,"zih":13040,"Án":13041,"Ít":13042,"Ðấy":13043,"Ðầu_":13044,"Ôtô":13045,"àu":13046,"ái_tim":13047,"ãng_l":13048,"ã_L":13049,"ève":13050,"è_nhẹ":13051,"ênh_":13052,"ê_ph":13053,"ê_lợi":13054,"ì_x":13055,"ì_đùng":13056,"í_T":13057,"í_chất":13058,"ò_g":13059,"ò_chuyện":13060,"òm_ngó":13061,"ò_e":13062,"ót_":13063,"ó_lẽ":13064,"ôt":13065,"ôn_l":13066,"ôn_t":13067,"ôn_luyện":13068,"ô_Cát":13069,"ôn_tập":13070,"ôgam":13071,"õng_":13072,"ùn_":13073,"ùn_t":13074,"ù_Đ":13075,"ù_phú":13076,"ý_t":13077,"ý_H":13078,"ý_thức":13079,"Ăn_":13080,"Đ_":13081,"Đả":13082,"Đẻ":13083,"Đế":13084,"Đọ":13085,"Đố":13086,"Đau":13087,"Đoà":13088,"Đeo":13089,"Đúc":13090,"Đắt":13091,"Đặt":13092,"Điên_":13093,"Đực":13094,"Đoài":13095,"Đền":13096,"Đóng":13097,"Đụng":13098,"Đàn":13099,"Đạp":13100,"Đắc_":13101,"Đáp":13102,"Đội_":13103,"Đan_":13104,"Đậm_":13105,"Đến_":13106,"Đuổi":13107,"Đốm":13108,"Đáy":13109,"Đăng_ký":13110,"Đoạn":13111,"Đam_mê":13112,"đế":13113,"đớ":13114,"đừ":13115,"đu_":13116,"đanh":13117,"đình":13118,"đao":13119,"đước":13120,"đán":13121,"đòng":13122,"đình_":13123,"đanh_":13124,"đảng":13125,"đâm_":13126,"đút":13127,"đắng":13128,"đắn":13129,"đọng":13130,"đằm":13131,"đét":13132,"đạc":13133,"đắt_":13134,"đản":13135,"đăm_":13136,"đuốc":13137,"đạn_":13138,"đọt":13139,"đấm_":13140,"đẫy":13141,"đục_":13142,"đạm_":13143,"đĩnh_":13144,"đắm_":13145,"đẵng":13146,"đỉnh_":13147,"đằng_":13148,"điếng":13149,"đợi_":13150,"đớn_":13151,"đì_đùng":13152,"ũi_":13153,"ơ_kh":13154,"ơloong_":13155,"ư_Đông":13156,"ưỡi_":13157,"ảm_":13158,"ản_lực":13159,"ả_thiết":13160,"Ầm":13161,"ầng_":13162,"ần_thoại":13163,"ần_thể":13164,"ẩng":13165,"ẫm_":13166,"ẫn_n":13167,"ận_thức":13168,"ắng_t":13169,"ằn_ng":13170,"ẳng_lẽ":13171,"ẵn_":13172,"ẹ_l":13173,"ế_Hùng":13174,"ềng":13175,"ều_":13176,"ề_kh":13177,"ền_r":13178,"ển_tập":13179,"ỉa":13180,"ỉm":13181,"ỉn":13182,"ỉu":13183,"ịn_":13184,"ọn_ho":13185,"ỏn":13186,"ỏa_":13187,"ỏ_G":13188,"Ốc_":13189,"ồm_":13190,"ồi_t":13191,"ồn_lực":13192,"ổng_":13193,"ổi_thơ":13194,"ổ_đề":13195,"ổ_phần":13196,"ỗi_m":13197,"ộm_":13198,"ớ_tr":13199,"ở_nh":13200,"ở_vậy":13201,"ở_ẩn":13202,"ở_riêng":13203,"ỡng_l":13204,"ỡ_ngàng":13205,"ợc":13206,"ụy":13207,"ụp_giật":13208,"Ủa":13209,"ủ_Ngọc_":13210,"ủ_Lý":13211,"ứ_h":13212,"ửu":13213,"ữ_V":13214,"ữ_thập_đỏ":13215,"_Nông":13216,"_Nên":13217,"_Niên":13218,"_Nứa":13219,"_Nốt":13220,"_New":13221,"_Nữ_V":13222,"_Vô":13223,"_Vũ":13224,"_Vang":13225,"_Viện":13226,"_Vân_":13227,"_Vọng":13228,"_Việt_":13229,"_Viễn":13230,"_Veng":13231,"_Phọ":13232,"_Paul":13233,"_Pier":13234,"_Pơloong_":13235,"_A5":13236,"_Anh_":13237,"_Su":13238,"_Sở":13239,"_Sử":13240,"_Sỹ":13241,"_Sau":13242,"_Sết":13243,"_Sinh":13244,"_Sậy":13245,"_Sim":13246,"_Som":13247,"_Sap":13248,"_Sou":13249,"ngớ":13250,"ngứ":13251,"ngừ":13252,"ngự":13253,"ngải":13254,"ngùng":13255,"ngước":13256,"ngào":13257,"ngán":13258,"ngời":13259,"ngậy":13260,"ngại_":13261,"ngấn":13262,"ngôn":13263,"ngưởng":13264,"ngật_":13265,"ngạnh":13266,"ngắt_":13267,"ngặt_":13268,"ngắc_":13269,"ngấm":13270,"ngốn":13271,"ngóng_":13272,"ngan_":13273,"ngòi":13274,"ngót":13275,"ngồn_":13276,"ngớt":13277,"ngượng_":13278,"ngắm_":13279,"ngợp":13280,"ngộn":13281,"ngơi_":13282,"ngúm":13283,"ngọt_":13284,"nguyệt_":13285,"ngẩng":13286,"ngằn_ng":13287,"ngồi_t":13288,"_Rê":13289,"_Rì":13290,"_Rong":13291,"_Ranh":13292,"_Rang":13293,"_Rồng":13294,"_Riêng":13295,"_Rẫy":13296,"_Raymonde_Dien":13297,"_Ruch":13298,"nhủ":13299,"nhừ":13300,"nhử":13301,"nhông":13302,"nhuy":13303,"nhai":13304,"nhường":13305,"nhồi":13306,"nheo":13307,"nhức":13308,"nhục":13309,"nhích":13310,"nhúng":13311,"nhấn":13312,"nhoài":13313,"nhâm_":13314,"nhung":13315,"nhiễ":13316,"nhòa":13317,"nhuốc":13318,"nháp":13319,"nhau_":13320,"nhục_":13321,"nhoi":13322,"nhọc_":13323,"nhiễu":13324,"nhủi":13325,"nhũng_":13326,"nhem_":13327,"nhóm_":13328,"nhắn_":13329,"nhoáng":13330,"nhúm":13331,"nhịn":13332,"nhếch":13333,"nhút_":13334,"nhợt_":13335,"nhậu_nhẹt":13336,"nhè_nhẹ":13337,"nhòm_ngó":13338,"nhẫn_n":13339,"nhẵn_":13340,"nhịn_":13341,"nhọn_ho":13342,"_Nuôi":13343,"chững":13344,"chình":13345,"chang":13346,"chùng":13347,"chước":13348,"chiết":13349,"chuyệ":13350,"chình_":13351,"cháo":13352,"cha_đ":13353,"chối":13354,"chua":13355,"chầm":13356,"chặp":13357,"châm_":13358,"chột":13359,"chảo":13360,"chần_":13361,"chắt_":13362,"chãi":13363,"chai_":13364,"chấn_":13365,"chầu_":13366,"chùng_":13367,"chăng_":13368,"chèn":13369,"chớm":13370,"chồm":13371,"chồn_":13372,"chột_":13373,"chưng_":13374,"chới_":13375,"chổng":13376,"chốn_":13377,"cháo_l":13378,"chiêm_":13379,"chẳng_lẽ":13380,"chồm_":13381,"chụp_giật":13382,"AR15":13383,"the":13384,"thất":13385,"thiên":13386,"thào":13387,"thinh":13388,"thòng":13389,"thắt":13390,"thơi":13391,"th_W":13392,"thám_":13393,"thạch":13394,"then":13395,"thuốn":13396,"thưởng":13397,"thượng":13398,"thước_":13399,"thâu_":13400,"thiểu":13401,"thong_":13402,"thặng":13403,"thắt_":13404,"thuộc_":13405,"thánh":13406,"thon":13407,"thôn_":13408,"thiêu_":13409,"thọt":13410,"thiểu_":13411,"thẩn":13412,"thuyề":13413,"thảng_":13414,"thối_":13415,"thỉnh":13416,"thót":13417,"thẹn":13418,"thọc_":13419,"thạch_":13420,"thắm_":13421,"thưởng_":13422,"thak":13423,"thần_l":13424,"that":13425,"thêu":13426,"thượng_t":13427,"thêm_":13428,"thói":13429,"thướt":13430,"thần_tr":13431,"thép_gai":13432,"_Diệ":13433,"_Du_":13434,"_Dược":13435,"_Danh":13436,"_Danh_":13437,"_Dìn":13438,"_Dậu":13439,"_Diệm":13440,"_Dầu":13441,"_Diễm":13442,"_Duyến":13443,"etai":13444,"etnam":13445,"eting":13446,"et_Lào":13447,"etthak":13448,"_Cả":13449,"_Cổ":13450,"_Cai":13451,"_Cưa":13452,"_Căn":13453,"_Cập":13454,"_Cưng":13455,"_Cảng":13456,"_Cung":13457,"_Cắn":13458,"_Chay":13459,"_Con":13460,"_Chành":13461,"_Cur":13462,"_Cola_":13463,"_Cuông":13464,"_Cư_Đông":13465,"_Cửu":13466,"trê":13467,"trỏ":13468,"trờ":13469,"triều":13470,"truyệ":13471,"trơn":13472,"tròng":13473,"trúc":13474,"trơi":13475,"trành":13476,"trồng_":13477,"trát":13478,"trắc":13479,"trăng":13480,"trấn":13481,"trút":13482,"trâu_":13483,"trèo":13484,"trắm":13485,"trặc":13486,"trét":13487,"trướng":13488,"trận_":13489,"trăm_":13490,"tráp":13491,"trượt":13492,"tròng_":13493,"tránh_":13494,"trọt":13495,"trầu":13496,"trườn":13497,"trống_":13498,"trừng_":13499,"triền_":13500,"trói":13501,"truân_":13502,"tri_âm":13503,"triều_cường":13504,"trót_":13505,"trù_phú":13506,"trắng_t":13507,"trộm_":13508,"trớ_tr":13509,"n_có":13510,"n_đầu":13511,"n_nào":13512,"n_máy":13513,"n_công":13514,"n_điểm":13515,"n_chu":13516,"n_giữ":13517,"n_hạ":13518,"n_đoạn":13519,"n_đốc":13520,"n_nhóm":13521,"n_ra_":13522,"n_mạng":13523,"n_sóng":13524,"n_chiếu":13525,"n_Tum":13526,"n_hại":13527,"n_phận":13528,"n_Hữu_":13529,"n_khúc":13530,"n_vút":13531,"n_sốt":13532,"n_móng":13533,"n_gợi":13534,"n_suyễn":13535,"n_Iv":13536,"n_gàng":13537,"khù":13538,"khet":13539,"kha_":13540,"khanh_":13541,"khái":13542,"kháng":13543,"khống":13544,"khâm_":13545,"khấu":13546,"khạc":13547,"khản":13548,"khấn_":13549,"khốn":13550,"khựng":13551,"khúc_":13552,"khiếu":13553,"khẹt":13554,"khẩn_th":13555,"khớp":13556,"khét_":13557,"khọt_":13558,"khiêm_":13559,"khề_kh":13560,"khứ_h":13561,"ng_gi":13562,"ng_độ":13563,"ng_cao":13564,"ng_viên":13565,"ng_phí":13566,"ng_đứng":13567,"ng_thương":13568,"ng_vật":13569,"ng_vườn":13570,"ng_thiếu":13571,"ng_Trời":13572,"ng_dính":13573,"ng_bi":13574,"ng_quý":13575,"ng_Yến":13576,"ng_Lệ":13577,"ng_Tồng":13578,"ng_bái":13579,"ười_tình":13580,"phe":13581,"pho":13582,"phơ":13583,"phạ":13584,"phu_":13585,"pha_":13586,"phước":13587,"phồng":13588,"phết":13589,"phập":13590,"phiệt":13591,"phạch":13592,"phành_":13593,"phai_":13594,"phiêu":13595,"phon":13596,"phấp_":13597,"phạt_":13598,"phan_":13599,"phảng_":13600,"phẫu":13601,"phò_m":13602,"phôi_th":13603,"phẩm_chất":13604,"phê_ph":13605,"phản_lực":13606,"làng_m":13607,"làn_sóng":13608,"i_gi":13609,"i_từ":13610,"i_đất":13611,"i_chuyện":13612,"i_Ông":13613,"i_lòng":13614,"i_phần":13615,"i_suất":13616,"i_tiếc":13617,"i_dương":13618,"i_xẻ":13619,"i_chết_":13620,"i_tráng":13621,"i_lên_đường":13622,"i_cút":13623,"i_Mọ":13624,"i_nhục":13625,"i_chang":13626,"vành_":13627,"git":13628,"giạ":13629,"giẻ":13630,"giời":13631,"giám":13632,"giấu_":13633,"giục_":13634,"giống_":13635,"giằng_":13636,"giãi_":13637,"giặm":13638,"giẫm_":13639,"quĩ":13640,"quệ":13641,"quỳ":13642,"quỹ":13643,"quày":13644,"quất":13645,"quây":13646,"quào":13647,"quách":13648,"quặp":13649,"quàng":13650,"quặn":13651,"quặng":13652,"quắt_":13653,"quốc":13654,"quẫy":13655,"quẩy":13656,"quệt":13657,"quẹt":13658,"quần_thể":13659,"quều_":13660,"nh_thường":13661,"nh_Tùng":13662,"nh_vực":13663,"nh_Lộc":13664,"nh_đạo":13665,"nh_ma":13666,"nh_trọng":13667,"nh_láng":13668,"nh_tháng_":13669,"nh_thơi":13670,"t_ngh":13671,"t_cuộc":13672,"t_Lo":13673,"t_xác":13674,"t_bão":13675,"t_dạ":13676,"t_rét":13677,"t_khao":13678,"t_chít":13679,"t_bùng":13680,"cá_đ":13681,"cá_tính":13682,"cá_biệt":13683,"cái_chết_":13684,"m_từ":13685,"m_lu":13686,"m_lòng":13687,"m_cấp":13688,"m_đặt":13689,"m_thư":13690,"m_bệnh":13691,"m_chế":13692,"m_dụng":13693,"m_giọng":13694,"m_năng":13695,"m_sóc":13696,"m_góp":13697,"m_họp":13698,"m_trải":13699,"m_đồng_tiền":13700,"m_tái":13701,"m_hiếp":13702,"m_khát":13703,"m_sụp":13704,"m_ngát":13705,"m_Khắc_":13706,"m_xuôi_":13707,"m_Har":13708,"m_ró":13709,"m_nhảm":13710,"m_tụm":13711,"m_Lũng":13712,"m_Xia":13713,"m_nớp":13714,"m_xờ":13715,"cóp":13716,"cót":13717,"uy_nghi":13718,"mộng_m":13719,"mộ_phần":13720,"của_ch":13721,"của_c":13722,"của_n":13723,"của_rơi":13724,"c_người":13725,"c_bộ":13726,"c_hành":13727,"c_thang":13728,"c_cạnh":13729,"c_thúc":13730,"c_trực":13731,"c_Yên":13732,"c_Đình":13733,"c_lóc":13734,"c_ó_lẽ":13735,"u_có":13736,"u_Tr":13737,"u_lo":13738,"u_đều":13739,"u_cần":13740,"u_cố":13741,"u_hành":13742,"u_vật":13743,"u_Minh":13744,"u_mạnh":13745,"u_phỉ":13746,"u_xấu":13747,"u_Thảo":13748,"u_ghen":13749,"u_nại":13750,"u_Bia":13751,"u_hiền":13752,"u_thào":13753,"Thi":13754,"Thả":13755,"Thệ":13756,"Thử":13757,"Thông":13758,"Thai":13759,"Thân_":13760,"Thất_":13761,"Tháo":13762,"Thương_":13763,"Thích":13764,"Thạch":13765,"Thường_":13766,"Thâm_":13767,"Thám":13768,"Thấu_":13769,"Thầy":13770,"Thuốc_":13771,"Thốt":13772,"Thèm":13773,"Tháp_":13774,"Thiệp":13775,"Thana":13776,"Thạc_sĩ":13777,"Thạnh_":13778,"Thí_dụ":13779,"Thôi_th":13780,"Thoạt_đầu":13781,"Thần_thoại":13782,"Thỏa_":13783,"Thu_Thảo":13784,"ayai":13785,"aylo":13786,"aycar":13787,"ongkor":13788,"đã_vậy":13789,"a_là":13790,"a_đá":13791,"a_đề":13792,"a_sĩ":13793,"a_sáng":13794,"a_học_":13795,"a_vui":13796,"a_cạnh":13797,"a_sơ":13798,"a_thùng":13799,"a_xẻ":13800,"a_vây":13801,"a_Lang":13802,"a_xoa":13803,"a_Games":13804,"ướm":13805,"ướp":13806,"choán":13807,"choạng":13808,"cho_biết":13809,"nghè":13810,"nghen":13811,"nghẹn":13812,"nghía":13813,"nghi_thức":13814,"nghênh_":13815,"như_tr":13816,"như_không":13817,"ấy_động":13818,"ông_xã":13819,"ông_thú":13820,"ông_bầu":13821,"ao_T":13822,"ao_đổi":13823,"ao_hồ":13824,"coca":13825,"copy":13826,"cotton":13827,"KT3":13828,"uốn_khúc":13829,"ùng_Văn_":13830,"về_về":13831,"ans":13832,"ania":13833,"anzih":13834,"an_New":13835,"an_Ruch":13836,"nhàu":13837,"nhàng":13838,"nhà_t":13839,"nhà_l":13840,"nhà_h":13841,"nhà_vệ":13842,"nhàn_r":13843,"nhà_tư":13844,"nhà_nông":13845,"nhào_n":13846,"nhàn_hạ":13847,"họ_tộc":13848,"họa_sĩ":13849,"rate":13850,"ranh_ma":13851,"_thê":13852,"_thơ":13853,"_thẻ":13854,"_thỉ":13855,"_thiên":13856,"_thực":13857,"_thấp":13858,"_thiệt":13859,"_thảy":13860,"_thuốc":13861,"_thầy":13862,"_thẹn":13863,"_thìa":13864,"_thép_gai":13865,"vào_s":13866,"vào_sinh_":13867,"vào_khoảng":13868,"_Xoan":13869,"_Xuân_":13870,"từ_t":13871,"từng_l":13872,"từ_biệt":13873,"từ_nan":13874,"đóm":13875,"đó_đây":13876,"cản_ng":13877,"cả_thảy":13878,"iết_Cảnh":13879,"Chè":13880,"Chơ":13881,"Chả":13882,"Chỗ":13883,"Chờ":13884,"Chừ":13885,"Chán":13886,"Cham":13887,"Chồng_":13888,"Chống":13889,"Chiến":13890,"Chèo":13891,"Chắt_":13892,"Chơn_":13893,"Chảy":13894,"Chương_trình":13895,"Chiếm":13896,"Chuyên_":13897,"Chi_tiết":13898,"Chí_T":13899,"Trì":13900,"Trứ":13901,"Trừ":13902,"Trông":13903,"Trại":13904,"Treo":13905,"Trách":13906,"Trình_":13907,"Trỗi":13908,"Trích":13909,"Trắng":13910,"Trôm":13911,"Trái_":13912,"Trầm_":13913,"Trùm":13914,"Trắm_":13915,"Trưởng_":13916,"Trộm":13917,"Triển_khai":13918,"Trực_thăng":13919,"Triều_cường":13920,"Tri_Phương":13921,"Troy":13922,"Truman":13923,"Trái_tim":13924,"Trò_chuyện":13925,"Trao_đổi":13926,"độ_lượng":13927,"độ_ẩm":13928,"oàng_Yến":13929,"thìa":13930,"thì_có":13931,"bà_đ":13932,"bàn_l":13933,"bài_t":13934,"bà_ngoại":13935,"bà_ba":13936,"001":13937,"ồng_Phong":13938,"_tu":13939,"_tẻ":13940,"_tai":13941,"_tần":13942,"_tiện":13943,"_tán":13944,"_tơi":13945,"_tuộc":13946,"_tối":13947,"_tàng":13948,"_tèo":13949,"_tặng":13950,"_tức_":13951,"_tấm_":13952,"_tiếu":13953,"_tẹo":13954,"_tà_l":13955,"_tóp":13956,"_tàu":13957,"_tầng_":13958,"_tổng_":13959,"nót":13960,"nón_ra_":13961,"Nhập":13962,"Nhầm":13963,"Nhận_":13964,"Nhan_":13965,"Nhật_ký":13966,"Nhựt":13967,"Nhậu_nhẹt":13968,"Nhận_thức":13969,"Nhẹ_l":13970,"số_h":13971,"số_một":13972,"chỉ_số":13973,"chỉ_bảo":13974,"chỉn_chu":13975,"ào_ào":13976,"eon":13977,"eo_h":13978,"Ngự":13979,"Ngân":13980,"Ngước":13981,"Ngập":13982,"Ngặt":13983,"Ngắm":13984,"Ngọn":13985,"Ngon":13986,"Ngậm_":13987,"Ngựa":13988,"Ngẫm":13989,"Ngỡ_ngàng":13990,"Người_tình":13991,"mà_g":13992,"ngày_là":13993,"khinh_thường":13994,"ân_sắc":13995,"ân_huy_chương":13996,"ất_tổ":13997,"ất_sinh":13998,"ất_thân":13999,"ất_Thiện":14000,"p_ý":14001,"p_nước":14002,"p_lặn":14003,"p_nhập":14004,"p_trưởng":14005,"p_vàng":14006,"p_bóng":14007,"p_khúc":14008,"p_Thân":14009,"p_nháp":14010,"công_ước":14011,"công_ơn":14012,"công_cụ":14013,"công_đoàn":14014,"công_đoạn":14015,"công_thức":14016,"công_nhân_viên":14017,"công_luận":14018,"công_chiếu":14019,"công_trình_":14020,"công_sở":14021,"công_binh":14022,"công_xưởng":14023,"công_tắc":14024,"công_nhật":14025,"công_thức_":14026,"công_cán":14027,"công_dung_":14028,"công_chúa":14029,"công_chánh":14030,"chú_tâm":14031,"chúa_chát":14032,"chú_thích":14033,"chúa_sơ":14034,"bịa":14035,"bị_g":14036,"bị_đơn":14037,"địu":14038,"định_m":14039,"xen":14040,"xen_l":14041,"xe_con":14042,"xe_b":14043,"xen_kẽ":14044,"chiến_t":14045,"chiếu_cố":14046,"ách_m":14047,"ách_H":14048,"_la":14049,"_le":14050,"_lá":14051,"_lù":14052,"_lớ":14053,"_lên":14054,"_lược":14055,"_lác":14056,"_leo":14057,"_lết":14058,"_lẫn":14059,"_lơi":14060,"_lội":14061,"_lát":14062,"_lưng":14063,"_lên_":14064,"_lạt":14065,"_lét":14066,"_liêu":14067,"_lượt":14068,"_lĩnh":14069,"_lọt":14070,"_luật":14071,"_lẫm":14072,"_lãm":14073,"_lưỡi":14074,"_lòm":14075,"_lên_th":14076,"_lò_m":14077,"_lơ_kh":14078,"_lưỡi_":14079,"_lụy":14080,"Khá":14081,"Khanh":14082,"Khương":14083,"Khâu":14084,"Khắc":14085,"Khám_":14086,"Khám":14087,"Khóc":14088,"Khái_":14089,"Khánh":14090,"Khóa":14091,"Khầu":14092,"Khán_":14093,"Khuyến":14094,"Khói":14095,"Khắp_nơi":14096,"Khe_S":14097,"Khí_chất":14098,"_dĩ":14099,"_dai":14100,"_dùng":14101,"_diện":14102,"_dinh":14103,"_dặt":14104,"_dung":14105,"_dạt":14106,"_dứt":14107,"_dẫm":14108,"_des":14109,"_Quyền":14110,"việt":14111,"đáu":14112,"đá_v":14113,"_hy":14114,"_hè":14115,"_hê":14116,"_hò":14117,"_hả":14118,"_hở":14119,"_hại":14120,"_hao":14121,"_hòn":14122,"_hán":14123,"_hiền":14124,"_hấp":14125,"_hấn":14126,"_hôn":14127,"_hồn":14128,"_hạng":14129,"_hoại":14130,"_hiểm_":14131,"_hội_":14132,"_hỏa":14133,"_hênh":14134,"_hỏng":14135,"_hẻm":14136,"_hỏn":14137,"quan_l":14138,"Phá":14139,"Phường":14140,"Pheo":14141,"Phật":14142,"Pháo":14143,"Phước_":14144,"Phật_":14145,"Phải_":14146,"Phit":14147,"Phán_":14148,"Phila":14149,"Phẩm_chất":14150,"Phath":14151,"Phy_Phả_X":14152,"Phù_Đ":14153,"Phủ_Lý":14154,"Phu_Bia":14155,"Pha_Lang":14156,"Phùng_Văn_":14157,"ình_nghĩa":14158,"chí_ch":14159,"chín_t":14160,"chí_thú":14161,"chí_tử":14162,"tucha":14163,"tuềnh_":14164,"chị_gái":14165,"chị_em_gái":14166,"anh_cả":14167,"anh_nghiệp":14168,"anh_quanh":14169,"anh_dũng":14170,"áo_m":14171,"áo_cho":14172,"áo_bông":14173,"ái_Su":14174,"inya_":14175,"khoá":14176,"khoái":14177,"khoáng_":14178,"kho_bạc":14179,"inh_ỏi":14180,"_đô":14181,"_đông":14182,"_đày":14183,"_đình":14184,"_đần":14185,"_đồng":14186,"_đào":14187,"_đẫn":14188,"_đập":14189,"_điền":14190,"_đặt":14191,"_đạt":14192,"_đẳng":14193,"_đạp":14194,"_đấm":14195,"_đứng":14196,"_đuổi":14197,"_đẹt":14198,"phá_ph":14199,"phá_sản":14200,"amon":14201,"amno":14202,"ambang":14203,"amsing":14204,"amura":14205,"_tri":14206,"_trệ":14207,"_tròn":14208,"_trồng":14209,"_tràng":14210,"_tránh":14211,"đềm":14212,"đền_t":14213,"đề_b":14214,"đền_mạng":14215,"đều_đều":14216,"ăn_đường":14217,"ăn_tiền":14218,"ăn_hỏi":14219,"ăn_phòng":14220,"ăn_nằm":14221,"ăn_diện":14222,"ăn_thông":14223,"ăn_chia":14224,"ăn_mừng":14225,"ăn_thoắt":14226,"ăn_đậu_":14227,"ăn_mất_ngủ":14228,"ăn_chốn_":14229,"_mó":14230,"_mả":14231,"_mỉ":14232,"_mong":14233,"_mến":14234,"_mây":14235,"_mòn":14236,"_mừng":14237,"_môn":14238,"_mạch":14239,"_men":14240,"_mặt_":14241,"_mươi":14242,"_mẫu":14243,"_mẫm":14244,"_mãn":14245,"_mượn":14246,"_mệnh":14247,"bộn":14248,"bộp":14249,"bộ_mặt":14250,"bộ_dạng":14251,"bộn_bề":14252,"bội_phần":14253,"bộ_môn":14254,"hoe":14255,"hon":14256,"hot":14257,"hoác":14258,"hoán_":14259,"hoa_h":14260,"em_Re":14261,"_sộ":14262,"_sương":14263,"_sách":14264,"_súng":14265,"_sóng":14266,"_sức_":14267,"_siêu":14268,"_sừng_":14269,"_sệt":14270,"_sói":14271,"_soát":14272,"quyên_":14273,"quy_hoạch":14274,"quy_trình":14275,"quy_tắc":14276,"quy_cách":14277,"quy_chế":14278,"quy_mô":14279,"quy_luật":14280,"a_đông":14281,"a_đơn":14282,"a_đựng":14283,"a_đòi":14284,"a_đuổi":14285,"a_đất_tổ":14286,"nào_ngờ":14287,"sự_tích":14288,"sự_thực":14289,"_cha":14290,"_che":14291,"_chỗ":14292,"_chớ":14293,"_chừ":14294,"_chữ":14295,"_chài":14296,"_chung":14297,"_chắn":14298,"_chứng":14299,"_chót":14300,"_cháu":14301,"_chứng_":14302,"_cha_đất_tổ":14303,"máy_c":14304,"máy_n":14305,"máy_điện":14306,"máy_chủ":14307,"máy_lạnh":14308,"máy_xách":14309,"n_thu":14310,"n_thở":14311,"n_thiên":14312,"n_thán":14313,"n_thời":14314,"n_thục":14315,"n_thống":14316,"n_thua":14317,"n_thuyết":14318,"tal":14319,"talo":14320,"tan_r":14321,"taek":14322,"tafab":14323,"tang_vật":14324,"tam_cấp":14325,"ồng_Lê":14326,"ồng_Khanh":14327,"giờ_kh":14328,"tay_c":14329,"tay_ng":14330,"tay_phải":14331,"tay_xách":14332,"_vn":14333,"_vá":14334,"_vũ":14335,"_vả":14336,"_vờ":14337,"_vở":14338,"_vang":14339,"_vời":14340,"_vập":14341,"_vút":14342,"_vạy":14343,"_vụng":14344,"_vận_":14345,"_vãng":14346,"_vãng_l":14347,"_văn_phòng":14348,"_nhã":14349,"_nhố":14350,"_nhao":14351,"_nhác":14352,"_nhiệt":14353,"_nhọc":14354,"_nhạt":14355,"_nhóc":14356,"_nhớp":14357,"_nhất_sinh":14358,"cách_chức":14359,"cách_biệt":14360,"cách_ly":14361,"ban_t":14362,"baby":14363,"côt":14364,"côppha":14365,"côi_cút":14366,"cô_hồn":14367,"vợi":14368,"vợ_bé":14369,"bố_con":14370,"bố_phòng":14371,"bốn_bề":14372,"ám_hiệu":14373,"xã_hội_":14374,"lop":14375,"loan":14376,"loáng":14377,"loét":14378,"loáng_":14379,"lo_ngại":14380,"loa_thùng":14381,"loanh_quanh":14382,"gìn_giữ":14383,"nay_mai":14384,"tà_ý":14385,"tài_tử":14386,"tà_lọt":14387,"ại_nguyện":14388,"thế_lực":14389,"thế_chân":14390,"ết_dở":14391,"Ông_Dầu":14392,"chủ_b":14393,"chủ_sở":14394,"chủ_hộ":14395,"193":14396,"1910":14397,"1920":14398,"1930":14399,"1925":14400,"1940":14401,"1939":14402,"1937":14403,"cơ_c":14404,"cơ_b":14405,"cơ_nghiệp":14406,"cơ_cực":14407,"cơ_may":14408,"cơn_sốt":14409,"nghiện_hút":14410,"_phụ":14411,"_phương":14412,"_phổi":14413,"_phóng":14414,"_phẩm":14415,"_phỏng":14416,"enting":14417,"ental":14418,"đồng_đất":14419,"đồng_phục":14420,"đồng_bọn":14421,"đồng_tiề":14422,"đồng_loạt":14423,"đồng_quà":14424,"đồng_khởi":14425,"đồng_đảng":14426,"đầu_ra":14427,"đầu_hàng":14428,"đầu_cơ":14429,"đầu_đường_":14430,"đầu_tàu":14431,"đầu_hồi":14432,"đầu_đỏ":14433,"đầu_gối":14434,"đầu_lè":14435,"đầu_gối_":14436,"Hà_Th":14437,"Hà_Lan":14438,"Hà_Sen":14439,"Hà_Văn_Dũng":14440,"buri":14441,"buôn_l":14442,"ường_Kiệt":14443,"bảo_nhỏ":14444,"bảo_hiểm_":14445,"ên_Quang":14446,"đốm":14447,"đốc_thúc":14448,"Giơ":14449,"Giừ":14450,"Giải":14451,"Giác":14452,"Giành":14453,"Giống":14454,"Giấu":14455,"Giai_":14456,"Giầu":14457,"Giấc":14458,"Gian_n":14459,"Gior":14460,"Gilbert":14461,"Giả_thiết":14462,"âm_lịch":14463,"âm_lượng":14464,"âm_phạm":14465,"âm_phủ":14466,"âm_sắc":14467,"âm_nhạc":14468,"i_thọ":14469,"i_thất":14470,"i_thai":14471,"i_thúc":14472,"i_thóp":14473,"i_thuở":14474,"làm_bạn":14475,"làm_chi":14476,"làm_cỏ":14477,"làm_thân":14478,"làm_phép":14479,"làm_thịt":14480,"làm_lụng":14481,"út_Vinh":14482,"thui":14483,"thuôn":14484,"thuận_":14485,"thuhu":14486,"thuổng":14487,"bao_g":14488,"bao_cấp":14489,"bao_tải":14490,"bao_cao_su":14491,"bao_che":14492,"giả_định":14493,"giả_dạng":14494,"giả_vờ":14495,"Hùng_Cường":14496,"vụng":14497,"vụ_trưởng":14498,"vụ_lợi":14499,"Nguy_cơ":14500,"n_trò":14501,"n_trả":14502,"n_trôi":14503,"n_tranh":14504,"n_trình":14505,"n_trách":14506,"n_triệt":14507,"n_trắng":14508,"n_tránh":14509,"ác_thú":14510,"ác_miệng":14511,"ác_mộng":14512,"n_lì":14513,"n_lờ":14514,"n_lỵ":14515,"n_lương":14516,"n_lách":14517,"n_lục":14518,"n_lâm":14519,"n_lát":14520,"n_lấp":14521,"n_lính":14522,"n_lấn":14523,"n_lượng":14524,"n_lý_":14525,"n_liếng":14526,"cây_g":14527,"cây_viết":14528,"cây_trồng":14529,"ực_hóa":14530,"n_tả":14531,"n_tược":14532,"n_tắm":14533,"n_tạp":14534,"n_tuột":14535,"quả_thật":14536,"quản_tượng":14537,"quả_cảm":14538,"quản_đốc":14539,"quản_lý_":14540,"trang_l":14541,"trau_d":14542,"khóe":14543,"khóc_lóc":14544,"khó_nhọc":14545,"ước_ao":14546,"ước_tính":14547,"Hải_Nam":14548,"Hải_Anh":14549,"âu_lo":14550,"èo_khó":14551,"doi":14552,"do_đó":14553,"cao_ng":14554,"cao_độ":14555,"cao_thủ":14556,"cao_cả":14557,"cao_tầng":14558,"cao_lớn":14559,"cao_thấp":14560,"cao_siêu":14561,"cao_vút":14562,"i_tả":14563,"i_tề":14564,"i_tụ":14565,"i_tới":14566,"i_tái":14567,"i_táng":14568,"i_tâm":14569,"i_tối":14570,"i_tưởng":14571,"i_tượng":14572,"i_tắn":14573,"i_tắm":14574,"i_tám":14575,"i_tươi":14576,"i_tới_":14577,"i_tóm_lại":14578,"quát_m":14579,"quá_gi":14580,"quáng_qu":14581,"quán_x":14582,"quá_trời":14583,"quán_có":14584,"quán_triệt":14585,"báo_vụ":14586,"báo_điện_tử":14587,"luck":14588,"lunac":14589,"lui_tới":14590,"xuất_cả":14591,"xuýt_":14592,"xui_xẻ":14593,"xuân_sắc":14594,"xua_đuổi":14595,"ima":14596,"imet":14597,"imer":14598,"ghè":14599,"ghin":14600,"ghim":14601,"ghép":14602,"ghèn":14603,"ghềnh":14604,"tự_x":14605,"tự_lực":14606,"tự_ý":14607,"tự_lập":14608,"tựa_đề":14609,"ật_số":14610,"nghĩ_ng":14611,"Quỹ":14612,"Quần_":14613,"Quái_":14614,"Quý_":14615,"Quợt":14616,"Quán_":14617,"Quẹt":14618,"Quới_":14619,"Quách_H":14620,"ời_trồng":14621,"khách_kh":14622,"khách_quê":14623,"khách_vãng_l":14624,"tổng_t":14625,"tổ_hợp":14626,"tổn_thương":14627,"tổn_hại":14628,"tỉ_mỉ":14629,"tin_Sim":14630,"tinental":14631,"mẹ_già":14632,"mẹ_kế":14633,"mẹ_cha":14634,"mấy_khi":14635,"mấy_mươi":14636,"tử_hình":14637,"tử_chiến":14638,"tử_huyệt":14639,"thểu":14640,"thể_chất":14641,"thể_loại":14642,"thể_diện":14643,"ạnh_An":14644,"tốc_hành":14645,"chán_ng":14646,"chát_chít":14647,"chứa_đựng":14648,"hộ_pháp":14649,"hội_tề":14650,"một_mặt":14651,"một_không_":14652,"một_trăm":14653,"một_phần_tư":14654,"lấy_làm":14655,"trở_tay":14656,"trở_dạ":14657,"trở_lên":14658,"Mỹ_Th":14659,"_cờ":14660,"_can":14661,"_cận":14662,"_cập":14663,"_cội":14664,"_cuộc":14665,"_cậy":14666,"_cấn":14667,"_cung":14668,"_cột":14669,"_cạp":14670,"_cụt":14671,"_cò_g":14672,"_cổ_phần":14673,"hay_sao":14674,"hay_chớ":14675,"thủ_qu":14676,"thủ_thế":14677,"thủ_tướng":14678,"thủ_thỉ":14679,"thủ_lĩnh":14680,"am_tường":14681,"tình_ý":14682,"tình_đầu":14683,"tình_bạn":14684,"tình_trường":14685,"tình_sâu":14686,"tình_nghĩa":14687,"tình_nguyện_":14688,"tình_tiết":14689,"ngay_tức_":14690,"phím":14691,"phát_nổ":14692,"phát_kiến":14693,"phát_đơn":14694,"phát_pháo":14695,"Tuần":14696,"Tuân":14697,"Tuổi":14698,"Tula":14699,"Tuổi_thơ":14700,"nghề_tự":14701,"tiếp_tế":14702,"tiếp_tân":14703,"Bàn":14704,"Bà_xã":14705,"Bàn_thờ":14706,"Bàu_Tr":14707,"trẻo":14708,"trẻ_hóa":14709,"hệ_trọng":14710,"hệ_quả":14711,"Có_mặt":14712,"Có_vẻ":14713,"ần_hẹn_l":14714,"giao_tranh":14715,"giao_nhận":14716,"giao_thừa":14717,"_nợ":14718,"_núng":14719,"_náy":14720,"_nẹt":14721,"_nách_m":14722,"thành_thật":14723,"thành_lũ":14724,"thành_danh":14725,"thành_hôn":14726,"Lanka":14727,"khum":14728,"khuôn":14729,"khuấy_động":14730,"bỏ_ho":14731,"bỏ_xác":14732,"bỏ_cuộc":14733,"éon":14734,"Chương_Dương":14735,"thứ_sáu":14736,"thứ_thiệt":14737,"thứ_hạng":14738,"_quang":14739,"_quân":14740,"_quào":14741,"_quậy":14742,"_quạch":14743,"_quốc_":14744,"dự_phòng":14745,"dựng_đứng":14746,"hồn_b":14747,"hồn_v":14748,"hồi_tưởng":14749,"ong_Toàn":14750,"ong_Quân":14751,"ong_Khảo":14752,"108":14753,"109":14754,"thời_sự":14755,"thời_cơ":14756,"thời_giá":14757,"thời_buổi":14758,"thời_trang":14759,"thời_hạn":14760,"điển_hình":14761,"toi":14762,"toan":14763,"toáng":14764,"toét":14765,"toạc":14766,"to_b":14767,"toil":14768,"toán_":14769,"toa_xe":14770,"today":14771,"to_tát":14772,"tocimex":14773,"to_cao":14774,"toại_nguyện":14775,"không_quân":14776,"không_chừng":14777,"không_tài_nào":14778,"địa_lý":14779,"địa_ốc":14780,"địa_hình":14781,"địa_danh":14782,"địa_phận":14783,"địa_linh_":14784,"địa_võng":14785,"_bí":14786,"_bạ":14787,"_bề":14788,"_bở":14789,"_bần":14790,"_bác":14791,"_bết":14792,"_bắt":14793,"_buộc":14794,"_bạo":14795,"_bóng":14796,"_bụng":14797,"_bẩn":14798,"_bão":14799,"_bõm":14800,"ắt_ẩn_th":14801,"giá_lạnh":14802,"gián_đoạn":14803,"ái_ngại":14804,"giúi":14805,"chạy_vạy":14806,"con_nuôi":14807,"con_bài":14808,"con_nối":14809,"con_nợ":14810,"con_đẻ":14811,"con_rể":14812,"con_nít":14813,"Nam_Phước":14814,"nhỏ_lẻ":14815,"đủ_đầy":14816,"nhân_sĩ":14817,"nhân_loại":14818,"nhân_phẩm":14819,"nhân_thân":14820,"nhân_khẩu":14821,"nhân_tiện":14822,"nhân_kiệt":14823,"nhân_hậu":14824,"nhân_thọ":14825,"nhân_chủng_":14826,"arenting":14827,"nước_lợ":14828,"nước_hoa":14829,"nước_miếng":14830,"nước_mắm":14831,"nước_nôi":14832,"nước_tương":14833,"sao_B":14834,"liên_đoàn":14835,"liên_quân":14836,"liên_thông":14837,"liên_ngành":14838,"liên_danh":14839,"liên_cảng":14840,"liên_đới":14841,"nghèo_túng":14842,"hoành":14843,"hoài_thai":14844,"hoàn_trả":14845,"hoàn_lương":14846,"kinh_sợ":14847,"kinh_hoảng":14848,"kinh_hãi":14849,"kinh_hồn_b":14850,"đại_tu":14851,"đại_bản_":14852,"đại_phó":14853,"đại_bác":14854,"đại_sứ_quán":14855,"Nguyễn_Tuấn":14856,"Nguyễn_Thế":14857,"Nguyễn_Minh":14858,"Nguyễn_Quốc":14859,"Nguyễn_Xuân":14860,"Nguyễn_Huy":14861,"Nguyễn_Quỳnh_":14862,"Nguyễn_Trương_":14863,"Nguyễn_Hoàng_":14864,"Nguyễn_Tấn_":14865,"Nguyễn_Hải_":14866,"Nguyễn_Đinh":14867,"Nguyễn_Huệ":14868,"Nguyễn_Khắc_":14869,"Nguyễn_Thanh_Sơn":14870,"Nguyễn_Thiện":14871,"Nguyễn_Quang_Trung":14872,"Nguyễn_Hữu_Tình":14873,"Nguyễn_Hữu_Hạnh":14874,"Nguyễn_Hiểu_":14875,"Nguyễn_Tri_Phương":14876,"Nguyễn_Khuyến":14877,"Nguyễn_Giầu":14878,"Nguyễn_Hùng_Cường":14879,
[...]
